unsigned char sf_quant_lite_tflite[] = {
  0x20, 0x00, 0x00, 0x00, 0x54, 0x46, 0x4c, 0x33, 0x00, 0x00, 0x00, 0x00,
  0x14, 0x00, 0x20, 0x00, 0x04, 0x00, 0x08, 0x00, 0x0c, 0x00, 0x10, 0x00,
  0x14, 0x00, 0x00, 0x00, 0x18, 0x00, 0x1c, 0x00, 0x14, 0x00, 0x00, 0x00,
  0x03, 0x00, 0x00, 0x00, 0x38, 0x76, 0x00, 0x00, 0x68, 0x39, 0x00, 0x00,
  0x50, 0x39, 0x00, 0x00, 0xc0, 0x00, 0x00, 0x00, 0x88, 0x00, 0x00, 0x00,
  0x04, 0x00, 0x00, 0x00, 0x01, 0x00, 0x00, 0x00, 0x10, 0x00, 0x00, 0x00,
  0x0c, 0x00, 0x14, 0x00, 0x04, 0x00, 0x08, 0x00, 0x0c, 0x00, 0x10, 0x00,
  0x0c, 0x00, 0x00, 0x00, 0x4c, 0x00, 0x00, 0x00, 0x2c, 0x00, 0x00, 0x00,
  0x14, 0x00, 0x00, 0x00, 0x04, 0x00, 0x00, 0x00, 0x05, 0x00, 0x00, 0x00,
  0x73, 0x65, 0x72, 0x76, 0x65, 0x00, 0x00, 0x00, 0x0f, 0x00, 0x00, 0x00,
  0x73, 0x65, 0x72, 0x76, 0x69, 0x6e, 0x67, 0x5f, 0x64, 0x65, 0x66, 0x61,
  0x75, 0x6c, 0x74, 0x00, 0x01, 0x00, 0x00, 0x00, 0x04, 0x00, 0x00, 0x00,
  0xc8, 0xff, 0xff, 0xff, 0x08, 0x00, 0x00, 0x00, 0x7c, 0x00, 0x00, 0x00,
  0x03, 0x00, 0x00, 0x00, 0x32, 0x35, 0x33, 0x00, 0x01, 0x00, 0x00, 0x00,
  0x04, 0x00, 0x00, 0x00, 0x6a, 0xb5, 0xff, 0xff, 0x04, 0x00, 0x00, 0x00,
  0x07, 0x00, 0x00, 0x00, 0x69, 0x6e, 0x70, 0x75, 0x74, 0x2e, 0x31, 0x00,
  0x01, 0x00, 0x00, 0x00, 0x0c, 0x00, 0x00, 0x00, 0x08, 0x00, 0x0c, 0x00,
  0x04, 0x00, 0x08, 0x00, 0x08, 0x00, 0x00, 0x00, 0x08, 0x00, 0x00, 0x00,
  0x7e, 0x00, 0x00, 0x00, 0x13, 0x00, 0x00, 0x00, 0x6d, 0x69, 0x6e, 0x5f,
  0x72, 0x75, 0x6e, 0x74, 0x69, 0x6d, 0x65, 0x5f, 0x76, 0x65, 0x72, 0x73,
  0x69, 0x6f, 0x6e, 0x00, 0x7f, 0x00, 0x00, 0x00, 0x84, 0x38, 0x00, 0x00,
  0x70, 0x38, 0x00, 0x00, 0x54, 0x38, 0x00, 0x00, 0x20, 0x38, 0x00, 0x00,
  0xec, 0x37, 0x00, 0x00, 0xd8, 0x37, 0x00, 0x00, 0xb4, 0x37, 0x00, 0x00,
  0xf0, 0x35, 0x00, 0x00, 0xdc, 0x35, 0x00, 0x00, 0xa8, 0x35, 0x00, 0x00,
  0x94, 0x35, 0x00, 0x00, 0x80, 0x35, 0x00, 0x00, 0x6c, 0x35, 0x00, 0x00,
  0x48, 0x35, 0x00, 0x00, 0x14, 0x35, 0x00, 0x00, 0x20, 0x34, 0x00, 0x00,
  0xbc, 0x33, 0x00, 0x00, 0xa8, 0x33, 0x00, 0x00, 0x94, 0x32, 0x00, 0x00,
  0x20, 0x14, 0x00, 0x00, 0xfc, 0x13, 0x00, 0x00, 0xc8, 0x09, 0x00, 0x00,
  0x64, 0x09, 0x00, 0x00, 0x40, 0x09, 0x00, 0x00, 0x1c, 0x09, 0x00, 0x00,
  0xf8, 0x08, 0x00, 0x00, 0xd4, 0x08, 0x00, 0x00, 0xb0, 0x08, 0x00, 0x00,
  0x8c, 0x08, 0x00, 0x00, 0x68, 0x08, 0x00, 0x00, 0x44, 0x08, 0x00, 0x00,
  0x20, 0x08, 0x00, 0x00, 0xfc, 0x07, 0x00, 0x00, 0xd8, 0x07, 0x00, 0x00,
  0xb4, 0x07, 0x00, 0x00, 0x90, 0x07, 0x00, 0x00, 0x6c, 0x07, 0x00, 0x00,
  0x48, 0x07, 0x00, 0x00, 0x24, 0x07, 0x00, 0x00, 0x00, 0x07, 0x00, 0x00,
  0xdc, 0x06, 0x00, 0x00, 0xb8, 0x06, 0x00, 0x00, 0xac, 0x06, 0x00, 0x00,
  0x98, 0x06, 0x00, 0x00, 0x84, 0x06, 0x00, 0x00, 0x70, 0x06, 0x00, 0x00,
  0x5c, 0x06, 0x00, 0x00, 0x48, 0x06, 0x00, 0x00, 0x34, 0x06, 0x00, 0x00,
  0x20, 0x06, 0x00, 0x00, 0x0c, 0x06, 0x00, 0x00, 0xf8, 0x05, 0x00, 0x00,
  0xe4, 0x05, 0x00, 0x00, 0xd0, 0x05, 0x00, 0x00, 0xbc, 0x05, 0x00, 0x00,
  0xa8, 0x05, 0x00, 0x00, 0x94, 0x05, 0x00, 0x00, 0x80, 0x05, 0x00, 0x00,
  0x6c, 0x05, 0x00, 0x00, 0x58, 0x05, 0x00, 0x00, 0x44, 0x05, 0x00, 0x00,
  0x30, 0x05, 0x00, 0x00, 0x1c, 0x05, 0x00, 0x00, 0x08, 0x05, 0x00, 0x00,
  0xf4, 0x04, 0x00, 0x00, 0xe0, 0x04, 0x00, 0x00, 0xcc, 0x04, 0x00, 0x00,
  0xb8, 0x04, 0x00, 0x00, 0xa4, 0x04, 0x00, 0x00, 0x90, 0x04, 0x00, 0x00,
  0x7c, 0x04, 0x00, 0x00, 0x68, 0x04, 0x00, 0x00, 0x54, 0x04, 0x00, 0x00,
  0x40, 0x04, 0x00, 0x00, 0x2c, 0x04, 0x00, 0x00, 0x18, 0x04, 0x00, 0x00,
  0x04, 0x04, 0x00, 0x00, 0xf0, 0x03, 0x00, 0x00, 0xdc, 0x03, 0x00, 0x00,
  0xc8, 0x03, 0x00, 0x00, 0xb4, 0x03, 0x00, 0x00, 0xa0, 0x03, 0x00, 0x00,
  0x8c, 0x03, 0x00, 0x00, 0x78, 0x03, 0x00, 0x00, 0x64, 0x03, 0x00, 0x00,
  0x50, 0x03, 0x00, 0x00, 0x3c, 0x03, 0x00, 0x00, 0x28, 0x03, 0x00, 0x00,
  0x14, 0x03, 0x00, 0x00, 0x00, 0x03, 0x00, 0x00, 0xec, 0x02, 0x00, 0x00,
  0xd8, 0x02, 0x00, 0x00, 0xc4, 0x02, 0x00, 0x00, 0xb0, 0x02, 0x00, 0x00,
  0x9c, 0x02, 0x00, 0x00, 0x88, 0x02, 0x00, 0x00, 0x74, 0x02, 0x00, 0x00,
  0x60, 0x02, 0x00, 0x00, 0x4c, 0x02, 0x00, 0x00, 0x38, 0x02, 0x00, 0x00,
  0x24, 0x02, 0x00, 0x00, 0x10, 0x02, 0x00, 0x00, 0xfc, 0x01, 0x00, 0x00,
  0xe8, 0x01, 0x00, 0x00, 0xd4, 0x01, 0x00, 0x00, 0xc0, 0x01, 0x00, 0x00,
  0xac, 0x01, 0x00, 0x00, 0x98, 0x01, 0x00, 0x00, 0x84, 0x01, 0x00, 0x00,
  0x70, 0x01, 0x00, 0x00, 0x5c, 0x01, 0x00, 0x00, 0x48, 0x01, 0x00, 0x00,
  0x34, 0x01, 0x00, 0x00, 0x20, 0x01, 0x00, 0x00, 0x0c, 0x01, 0x00, 0x00,
  0xf8, 0x00, 0x00, 0x00, 0xe4, 0x00, 0x00, 0x00, 0xd0, 0x00, 0x00, 0x00,
  0xbc, 0x00, 0x00, 0x00, 0xa8, 0x00, 0x00, 0x00, 0x94, 0x00, 0x00, 0x00,
  0x80, 0x00, 0x00, 0x00, 0x6c, 0x00, 0x00, 0x00, 0x58, 0x00, 0x00, 0x00,
  0x44, 0x00, 0x00, 0x00, 0x30, 0x00, 0x00, 0x00, 0x04, 0x00, 0x00, 0x00,
  0xb2, 0xb7, 0xff, 0xff, 0x04, 0x00, 0x00, 0x00, 0x10, 0x00, 0x00, 0x00,
  0x32, 0x2e, 0x30, 0x2e, 0x30, 0x00, 0x00, 0x00, 0x00, 0x00, 0x00, 0x00,
  0x00, 0x00, 0x00, 0x00, 0x00, 0x00, 0x00, 0x00, 0x00, 0x00, 0x00, 0x00,
  0x00, 0x00, 0x00, 0x00, 0x28, 0x8c, 0xff, 0xff, 0x00, 0x00, 0x00, 0x00,
  0x00, 0x00, 0x00, 0x00, 0x00, 0x00, 0x00, 0x00, 0x38, 0x8c, 0xff, 0xff,
  0x00, 0x00, 0x00, 0x00, 0x00, 0x00, 0x00, 0x00, 0x00, 0x00, 0x00, 0x00,
  0x48, 0x8c, 0xff, 0xff, 0x00, 0x00, 0x00, 0x00, 0x00, 0x00, 0x00, 0x00,
  0x00, 0x00, 0x00, 0x00, 0x58, 0x8c, 0xff, 0xff, 0x00, 0x00, 0x00, 0x00,
  0x00, 0x00, 0x00, 0x00, 0x00, 0x00, 0x00, 0x00, 0x68, 0x8c, 0xff, 0xff,
  0x00, 0x00, 0x00, 0x00, 0x00, 0x00, 0x00, 0x00, 0x00, 0x00, 0x00, 0x00,
  0x78, 0x8c, 0xff, 0xff, 0x00, 0x00, 0x00, 0x00, 0x00, 0x00, 0x00, 0x00,
  0x00, 0x00, 0x00, 0x00, 0x88, 0x8c, 0xff, 0xff, 0x00, 0x00, 0x00, 0x00,
  0x00, 0x00, 0x00, 0x00, 0x00, 0x00, 0x00, 0x00, 0x98, 0x8c, 0xff, 0xff,
  0x00, 0x00, 0x00, 0x00, 0x00, 0x00, 0x00, 0x00, 0x00, 0x00, 0x00, 0x00,
  0xa8, 0x8c, 0xff, 0xff, 0x00, 0x00, 0x00, 0x00, 0x00, 0x00, 0x00, 0x00,
  0x00, 0x00, 0x00, 0x00, 0xb8, 0x8c, 0xff, 0xff, 0x00, 0x00, 0x00, 0x00,
  0x00, 0x00, 0x00, 0x00, 0x00, 0x00, 0x00, 0x00, 0xc8, 0x8c, 0xff, 0xff,
  0x00, 0x00, 0x00, 0x00, 0x00, 0x00, 0x00, 0x00, 0x00, 0x00, 0x00, 0x00,
  0xd8, 0x8c, 0xff, 0xff, 0x00, 0x00, 0x00, 0x00, 0x00, 0x00, 0x00, 0x00,
  0x00, 0x00, 0x00, 0x00, 0xe8, 0x8c, 0xff, 0xff, 0x00, 0x00, 0x00, 0x00,
  0x00, 0x00, 0x00, 0x00, 0x00, 0x00, 0x00, 0x00, 0xf8, 0x8c, 0xff, 0xff,
  0x00, 0x00, 0x00, 0x00, 0x00, 0x00, 0x00, 0x00, 0x00, 0x00, 0x00, 0x00,
  0x08, 0x8d, 0xff, 0xff, 0x00, 0x00, 0x00, 0x00, 0x00, 0x00, 0x00, 0x00,
  0x00, 0x00, 0x00, 0x00, 0x18, 0x8d, 0xff, 0xff, 0x00, 0x00, 0x00, 0x00,
  0x00, 0x00, 0x00, 0x00, 0x00, 0x00, 0x00, 0x00, 0x28, 0x8d, 0xff, 0xff,
  0x00, 0x00, 0x00, 0x00, 0x00, 0x00, 0x00, 0x00, 0x00, 0x00, 0x00, 0x00,
  0x38, 0x8d, 0xff, 0xff, 0x00, 0x00, 0x00, 0x00, 0x00, 0x00, 0x00, 0x00,
  0x00, 0x00, 0x00, 0x00, 0x48, 0x8d, 0xff, 0xff, 0x00, 0x00, 0x00, 0x00,
  0x00, 0x00, 0x00, 0x00, 0x00, 0x00, 0x00, 0x00, 0x58, 0x8d, 0xff, 0xff,
  0x00, 0x00, 0x00, 0x00, 0x00, 0x00, 0x00, 0x00, 0x00, 0x00, 0x00, 0x00,
  0x68, 0x8d, 0xff, 0xff, 0x00, 0x00, 0x00, 0x00, 0x00, 0x00, 0x00, 0x00,
  0x00, 0x00, 0x00, 0x00, 0x78, 0x8d, 0xff, 0xff, 0x00, 0x00, 0x00, 0x00,
  0x00, 0x00, 0x00, 0x00, 0x00, 0x00, 0x00, 0x00, 0x88, 0x8d, 0xff, 0xff,
  0x00, 0x00, 0x00, 0x00, 0x00, 0x00, 0x00, 0x00, 0x00, 0x00, 0x00, 0x00,
  0x98, 0x8d, 0xff, 0xff, 0x00, 0x00, 0x00, 0x00, 0x00, 0x00, 0x00, 0x00,
  0x00, 0x00, 0x00, 0x00, 0xa8, 0x8d, 0xff, 0xff, 0x00, 0x00, 0x00, 0x00,
  0x00, 0x00, 0x00, 0x00, 0x00, 0x00, 0x00, 0x00, 0xb8, 0x8d, 0xff, 0xff,
  0x00, 0x00, 0x00, 0x00, 0x00, 0x00, 0x00, 0x00, 0x00, 0x00, 0x00, 0x00,
  0xc8, 0x8d, 0xff, 0xff, 0x00, 0x00, 0x00, 0x00, 0x00, 0x00, 0x00, 0x00,
  0x00, 0x00, 0x00, 0x00, 0xd8, 0x8d, 0xff, 0xff, 0x00, 0x00, 0x00, 0x00,
  0x00, 0x00, 0x00, 0x00, 0x00, 0x00, 0x00, 0x00, 0xe8, 0x8d, 0xff, 0xff,
  0x00, 0x00, 0x00, 0x00, 0x00, 0x00, 0x00, 0x00, 0x00, 0x00, 0x00, 0x00,
  0xf8, 0x8d, 0xff, 0xff, 0x00, 0x00, 0x00, 0x00, 0x00, 0x00, 0x00, 0x00,
  0x00, 0x00, 0x00, 0x00, 0x08, 0x8e, 0xff, 0xff, 0x00, 0x00, 0x00, 0x00,
  0x00, 0x00, 0x00, 0x00, 0x00, 0x00, 0x00, 0x00, 0x18, 0x8e, 0xff, 0xff,
  0x00, 0x00, 0x00, 0x00, 0x00, 0x00, 0x00, 0x00, 0x00, 0x00, 0x00, 0x00,
  0x28, 0x8e, 0xff, 0xff, 0x00, 0x00, 0x00, 0x00, 0x00, 0x00, 0x00, 0x00,
  0x00, 0x00, 0x00, 0x00, 0x38, 0x8e, 0xff, 0xff, 0x00, 0x00, 0x00, 0x00,
  0x00, 0x00, 0x00, 0x00, 0x00, 0x00, 0x00, 0x00, 0x48, 0x8e, 0xff, 0xff,
  0x00, 0x00, 0x00, 0x00, 0x00, 0x00, 0x00, 0x00, 0x00, 0x00, 0x00, 0x00,
  0x58, 0x8e, 0xff, 0xff, 0x00, 0x00, 0x00, 0x00, 0x00, 0x00, 0x00, 0x00,
  0x00, 0x00, 0x00, 0x00, 0x68, 0x8e, 0xff, 0xff, 0x00, 0x00, 0x00, 0x00,
  0x00, 0x00, 0x00, 0x00, 0x00, 0x00, 0x00, 0x00, 0x78, 0x8e, 0xff, 0xff,
  0x00, 0x00, 0x00, 0x00, 0x00, 0x00, 0x00, 0x00, 0x00, 0x00, 0x00, 0x00,
  0x88, 0x8e, 0xff, 0xff, 0x00, 0x00, 0x00, 0x00, 0x00, 0x00, 0x00, 0x00,
  0x00, 0x00, 0x00, 0x00, 0x98, 0x8e, 0xff, 0xff, 0x00, 0x00, 0x00, 0x00,
  0x00, 0x00, 0x00, 0x00, 0x00, 0x00, 0x00, 0x00, 0xa8, 0x8e, 0xff, 0xff,
  0x00, 0x00, 0x00, 0x00, 0x00, 0x00, 0x00, 0x00, 0x00, 0x00, 0x00, 0x00,
  0xb8, 0x8e, 0xff, 0xff, 0x00, 0x00, 0x00, 0x00, 0x00, 0x00, 0x00, 0x00,
  0x00, 0x00, 0x00, 0x00, 0xc8, 0x8e, 0xff, 0xff, 0x00, 0x00, 0x00, 0x00,
  0x00, 0x00, 0x00, 0x00, 0x00, 0x00, 0x00, 0x00, 0xd8, 0x8e, 0xff, 0xff,
  0x00, 0x00, 0x00, 0x00, 0x00, 0x00, 0x00, 0x00, 0x00, 0x00, 0x00, 0x00,
  0xe8, 0x8e, 0xff, 0xff, 0x00, 0x00, 0x00, 0x00, 0x00, 0x00, 0x00, 0x00,
  0x00, 0x00, 0x00, 0x00, 0xf8, 0x8e, 0xff, 0xff, 0x00, 0x00, 0x00, 0x00,
  0x00, 0x00, 0x00, 0x00, 0x00, 0x00, 0x00, 0x00, 0x08, 0x8f, 0xff, 0xff,
  0x00, 0x00, 0x00, 0x00, 0x00, 0x00, 0x00, 0x00, 0x00, 0x00, 0x00, 0x00,
  0x18, 0x8f, 0xff, 0xff, 0x00, 0x00, 0x00, 0x00, 0x00, 0x00, 0x00, 0x00,
  0x00, 0x00, 0x00, 0x00, 0x28, 0x8f, 0xff, 0xff, 0x00, 0x00, 0x00, 0x00,
  0x00, 0x00, 0x00, 0x00, 0x00, 0x00, 0x00, 0x00, 0x38, 0x8f, 0xff, 0xff,
  0x00, 0x00, 0x00, 0x00, 0x00, 0x00, 0x00, 0x00, 0x00, 0x00, 0x00, 0x00,
  0x48, 0x8f, 0xff, 0xff, 0x00, 0x00, 0x00, 0x00, 0x00, 0x00, 0x00, 0x00,
  0x00, 0x00, 0x00, 0x00, 0x58, 0x8f, 0xff, 0xff, 0x00, 0x00, 0x00, 0x00,
  0x00, 0x00, 0x00, 0x00, 0x00, 0x00, 0x00, 0x00, 0x68, 0x8f, 0xff, 0xff,
  0x00, 0x00, 0x00, 0x00, 0x00, 0x00, 0x00, 0x00, 0x00, 0x00, 0x00, 0x00,
  0x78, 0x8f, 0xff, 0xff, 0x00, 0x00, 0x00, 0x00, 0x00, 0x00, 0x00, 0x00,
  0x00, 0x00, 0x00, 0x00, 0x88, 0x8f, 0xff, 0xff, 0x00, 0x00, 0x00, 0x00,
  0x00, 0x00, 0x00, 0x00, 0x00, 0x00, 0x00, 0x00, 0x98, 0x8f, 0xff, 0xff,
  0x00, 0x00, 0x00, 0x00, 0x00, 0x00, 0x00, 0x00, 0x00, 0x00, 0x00, 0x00,
  0xa8, 0x8f, 0xff, 0xff, 0x00, 0x00, 0x00, 0x00, 0x00, 0x00, 0x00, 0x00,
  0x00, 0x00, 0x00, 0x00, 0xb8, 0x8f, 0xff, 0xff, 0x00, 0x00, 0x00, 0x00,
  0x00, 0x00, 0x00, 0x00, 0x00, 0x00, 0x00, 0x00, 0xc8, 0x8f, 0xff, 0xff,
  0x00, 0x00, 0x00, 0x00, 0x00, 0x00, 0x00, 0x00, 0x00, 0x00, 0x00, 0x00,
  0xd8, 0x8f, 0xff, 0xff, 0x00, 0x00, 0x00, 0x00, 0x00, 0x00, 0x00, 0x00,
  0x00, 0x00, 0x00, 0x00, 0xe8, 0x8f, 0xff, 0xff, 0x00, 0x00, 0x00, 0x00,
  0x00, 0x00, 0x00, 0x00, 0x00, 0x00, 0x00, 0x00, 0xf8, 0x8f, 0xff, 0xff,
  0x00, 0x00, 0x00, 0x00, 0x00, 0x00, 0x00, 0x00, 0x00, 0x00, 0x00, 0x00,
  0x08, 0x90, 0xff, 0xff, 0x00, 0x00, 0x00, 0x00, 0x00, 0x00, 0x00, 0x00,
  0x00, 0x00, 0x00, 0x00, 0x18, 0x90, 0xff, 0xff, 0x00, 0x00, 0x00, 0x00,
  0x00, 0x00, 0x00, 0x00, 0x00, 0x00, 0x00, 0x00, 0x28, 0x90, 0xff, 0xff,
  0x00, 0x00, 0x00, 0x00, 0x00, 0x00, 0x00, 0x00, 0x00, 0x00, 0x00, 0x00,
  0x38, 0x90, 0xff, 0xff, 0x00, 0x00, 0x00, 0x00, 0x00, 0x00, 0x00, 0x00,
  0x00, 0x00, 0x00, 0x00, 0x48, 0x90, 0xff, 0xff, 0x00, 0x00, 0x00, 0x00,
  0x00, 0x00, 0x00, 0x00, 0x00, 0x00, 0x00, 0x00, 0x58, 0x90, 0xff, 0xff,
  0x00, 0x00, 0x00, 0x00, 0x00, 0x00, 0x00, 0x00, 0x00, 0x00, 0x00, 0x00,
  0x68, 0x90, 0xff, 0xff, 0x00, 0x00, 0x00, 0x00, 0x00, 0x00, 0x00, 0x00,
  0x00, 0x00, 0x00, 0x00, 0x78, 0x90, 0xff, 0xff, 0x00, 0x00, 0x00, 0x00,
  0x00, 0x00, 0x00, 0x00, 0x00, 0x00, 0x00, 0x00, 0x88, 0x90, 0xff, 0xff,
  0x00, 0x00, 0x00, 0x00, 0x00, 0x00, 0x00, 0x00, 0x00, 0x00, 0x00, 0x00,
  0x98, 0x90, 0xff, 0xff, 0x00, 0x00, 0x00, 0x00, 0x00, 0x00, 0x00, 0x00,
  0x00, 0x00, 0x00, 0x00, 0xa8, 0x90, 0xff, 0xff, 0x00, 0x00, 0x00, 0x00,
  0x00, 0x00, 0x00, 0x00, 0x00, 0x00, 0x00, 0x00, 0xb8, 0x90, 0xff, 0xff,
  0x00, 0x00, 0x00, 0x00, 0x00, 0x00, 0x00, 0x00, 0x00, 0x00, 0x00, 0x00,
  0xc8, 0x90, 0xff, 0xff, 0x00, 0x00, 0x00, 0x00, 0x00, 0x00, 0x00, 0x00,
  0x00, 0x00, 0x00, 0x00, 0xd8, 0x90, 0xff, 0xff, 0x00, 0x00, 0x00, 0x00,
  0x00, 0x00, 0x00, 0x00, 0x00, 0x00, 0x00, 0x00, 0xe8, 0x90, 0xff, 0xff,
  0x00, 0x00, 0x00, 0x00, 0x00, 0x00, 0x00, 0x00, 0x00, 0x00, 0x00, 0x00,
  0xf8, 0x90, 0xff, 0xff, 0x00, 0x00, 0x00, 0x00, 0x00, 0x00, 0x00, 0x00,
  0x00, 0x00, 0x00, 0x00, 0x08, 0x91, 0xff, 0xff, 0x00, 0x00, 0x00, 0x00,
  0x00, 0x00, 0x00, 0x00, 0x00, 0x00, 0x00, 0x00, 0x18, 0x91, 0xff, 0xff,
  0x00, 0x00, 0x00, 0x00, 0x00, 0x00, 0x00, 0x00, 0x00, 0x00, 0x00, 0x00,
  0x28, 0x91, 0xff, 0xff, 0x00, 0x00, 0x00, 0x00, 0x00, 0x00, 0x00, 0x00,
  0x00, 0x00, 0x00, 0x00, 0x38, 0x91, 0xff, 0xff, 0x00, 0x00, 0x00, 0x00,
  0x00, 0x00, 0x00, 0x00, 0x00, 0x00, 0x00, 0x00, 0x48, 0x91, 0xff, 0xff,
  0x00, 0x00, 0x00, 0x00, 0x00, 0x00, 0x00, 0x00, 0x00, 0x00, 0x00, 0x00,
  0x58, 0x91, 0xff, 0xff, 0x00, 0x00, 0x00, 0x00, 0x12, 0xbd, 0xff, 0xff,
  0x04, 0x00, 0x00, 0x00, 0x10, 0x00, 0x00, 0x00, 0x01, 0x00, 0x00, 0x00,
  0x01, 0x00, 0x00, 0x00, 0x04, 0x00, 0x00, 0x00, 0x6c, 0x00, 0x00, 0x00,
  0x00, 0x00, 0x00, 0x00, 0x32, 0xbd, 0xff, 0xff, 0x04, 0x00, 0x00, 0x00,
  0x0c, 0x00, 0x00, 0x00, 0x01, 0x00, 0x00, 0x00, 0x03, 0x00, 0x00, 0x00,
  0x01, 0x00, 0x00, 0x00, 0x00, 0x00, 0x00, 0x00, 0x00, 0x00, 0x00, 0x00,
  0x52, 0xbd, 0xff, 0xff, 0x04, 0x00, 0x00, 0x00, 0x0c, 0x00, 0x00, 0x00,
  0x01, 0x00, 0x00, 0x00, 0x01, 0x00, 0x00, 0x00, 0x03, 0x00, 0x00, 0x00,
  0x00, 0x00, 0x00, 0x00, 0x00, 0x00, 0x00, 0x00, 0x72, 0xbd, 0xff, 0xff,
  0x04, 0x00, 0x00, 0x00, 0x0c, 0x00, 0x00, 0x00, 0x01, 0x00, 0x00, 0x00,
  0x0c, 0x00, 0x00, 0x00, 0x01, 0x00, 0x00, 0x00, 0x00, 0x00, 0x00, 0x00,
  0x00, 0x00, 0x00, 0x00, 0x92, 0xbd, 0xff, 0xff, 0x04, 0x00, 0x00, 0x00,
  0x0c, 0x00, 0x00, 0x00, 0x01, 0x00, 0x00, 0x00, 0x04, 0x00, 0x00, 0x00,
  0x24, 0x00, 0x00, 0x00, 0x00, 0x00, 0x00, 0x00, 0x00, 0x00, 0x00, 0x00,
  0xb2, 0xbd, 0xff, 0xff, 0x04, 0x00, 0x00, 0x00, 0x08, 0x00, 0x00, 0x00,
  0x04, 0x00, 0x00, 0x00, 0x24, 0x00, 0x00, 0x00, 0x00, 0x00, 0x00, 0x00,
  0x00, 0x00, 0x00, 0x00, 0x00, 0x00, 0x00, 0x00, 0xd2, 0xbd, 0xff, 0xff,
  0x04, 0x00, 0x00, 0x00, 0x10, 0x00, 0x00, 0x00, 0x01, 0x00, 0x00, 0x00,
  0x01, 0x00, 0x00, 0x00, 0x04, 0x00, 0x00, 0x00, 0x04, 0x00, 0x00, 0x00,
  0x00, 0x00, 0x00, 0x00, 0xf2, 0xbd, 0xff, 0xff, 0x04, 0x00, 0x00, 0x00,
  0x08, 0x00, 0x00, 0x00, 0x24, 0x00, 0x00, 0x00, 0x04, 0x00, 0x00, 0x00,
  0x00, 0x00, 0x00, 0x00, 0x00, 0x00, 0x00, 0x00, 0x00, 0x00, 0x00, 0x00,
  0x12, 0xbe, 0xff, 0xff, 0x04, 0x00, 0x00, 0x00, 0x0c, 0x00, 0x00, 0x00,
  0x01, 0x00, 0x00, 0x00, 0x01, 0x00, 0x00, 0x00, 0x01, 0x00, 0x00, 0x00,
  0x00, 0x00, 0x00, 0x00, 0x00, 0x00, 0x00, 0x00, 0x32, 0xbe, 0xff, 0xff,
  0x04, 0x00, 0x00, 0x00, 0x0c, 0x00, 0x00, 0x00, 0x01, 0x00, 0x00, 0x00,
  0x03, 0x00, 0x00, 0x00, 0x24, 0x00, 0x00, 0x00, 0x00, 0x00, 0x00, 0x00,
  0x00, 0x00, 0x00, 0x00, 0x52, 0xbe, 0xff, 0xff, 0x04, 0x00, 0x00, 0x00,
  0x0c, 0x00, 0x00, 0x00, 0x00, 0x00, 0x00, 0x00, 0x00, 0x00, 0x00, 0x00,
  0x00, 0x00, 0x00, 0x00, 0x00, 0x00, 0x00, 0x00, 0x00, 0x00, 0x00, 0x00,
  0x72, 0xbe, 0xff, 0xff, 0x04, 0x00, 0x00, 0x00, 0x0c, 0x00, 0x00, 0x00,
  0x01, 0x00, 0x00, 0x00, 0x0c, 0x00, 0x00, 0x00, 0x24, 0x00, 0x00, 0x00,
  0x00, 0x00, 0x00, 0x00, 0x00, 0x00, 0x00, 0x00, 0x92, 0xbe, 0xff, 0xff,
  0x04, 0x00, 0x00, 0x00, 0x0c, 0x00, 0x00, 0x00, 0x00, 0x00, 0x00, 0x00,
  0x09, 0x00, 0x00, 0x00, 0x00, 0x00, 0x00, 0x00, 0x00, 0x00, 0x00, 0x00,
  0x00, 0x00, 0x00, 0x00, 0xb2, 0xbe, 0xff, 0xff, 0x04, 0x00, 0x00, 0x00,
  0x0c, 0x00, 0x00, 0x00, 0x01, 0x00, 0x00, 0x00, 0x09, 0x00, 0x00, 0x00,
  0x24, 0x00, 0x00, 0x00, 0x00, 0x00, 0x00, 0x00, 0x00, 0x00, 0x00, 0x00,
  0xd2, 0xbe, 0xff, 0xff, 0x04, 0x00, 0x00, 0x00, 0x0c, 0x00, 0x00, 0x00,
  0x00, 0x00, 0x00, 0x00, 0x06, 0x00, 0x00, 0x00, 0x00, 0x00, 0x00, 0x00,
  0x00, 0x00, 0x00, 0x00, 0x00, 0x00, 0x00, 0x00, 0xf2, 0xbe, 0xff, 0xff,
  0x04, 0x00, 0x00, 0x00, 0x0c, 0x00, 0x00, 0x00, 0x01, 0x00, 0x00, 0x00,
  0x06, 0x00, 0x00, 0x00, 0x24, 0x00, 0x00, 0x00, 0x00, 0x00, 0x00, 0x00,
  0x00, 0x00, 0x00, 0x00, 0x12, 0xbf, 0xff, 0xff, 0x04, 0x00, 0x00, 0x00,
  0x0c, 0x00, 0x00, 0x00, 0x00, 0x00, 0x00, 0x00, 0x03, 0x00, 0x00, 0x00,
  0x00, 0x00, 0x00, 0x00, 0x00, 0x00, 0x00, 0x00, 0x00, 0x00, 0x00, 0x00,
  0x32, 0xbf, 0xff, 0xff, 0x04, 0x00, 0x00, 0x00, 0x0c, 0x00, 0x00, 0x00,
  0x01, 0x00, 0x00, 0x00, 0x09, 0x00, 0x00, 0x00, 0x01, 0x00, 0x00, 0x00,
  0x00, 0x00, 0x00, 0x00, 0x00, 0x00, 0x00, 0x00, 0x52, 0xbf, 0xff, 0xff,
  0x04, 0x00, 0x00, 0x00, 0x0c, 0x00, 0x00, 0x00, 0x01, 0x00, 0x00, 0x00,
  0x06, 0x00, 0x00, 0x00, 0x01, 0x00, 0x00, 0x00, 0x00, 0x00, 0x00, 0x00,
  0x00, 0x00, 0x00, 0x00, 0x72, 0xbf, 0xff, 0xff, 0x04, 0x00, 0x00, 0x00,
  0x48, 0x00, 0x00, 0x00, 0xa2, 0xab, 0x69, 0x30, 0x82, 0x2d, 0x0a, 0xb1,
  0x82, 0x30, 0x14, 0xaf, 0xd0, 0x2f, 0x46, 0x23, 0x76, 0xa5, 0x38, 0x16,
  0x8f, 0xac, 0x9c, 0x30, 0x34, 0xab, 0xfb, 0xa6, 0x33, 0xb0, 0x6d, 0x2e,
  0xec, 0x30, 0xd3, 0x29, 0x27, 0xa3, 0x95, 0x1e, 0x15, 0xa8, 0x48, 0x2e,
  0x7f, 0x23, 0x14, 0x29, 0xab, 0x31, 0xf7, 0xa8, 0x81, 0x31, 0x8c, 0x2e,
  0xaf, 0x21, 0x9f, 0xaa, 0x94, 0x30, 0x48, 0x2c, 0x2e, 0x24, 0x79, 0xa9,
  0xd8, 0xb0, 0x48, 0xb0, 0x00, 0x00, 0x00, 0x00, 0x00, 0x00, 0x00, 0x00,
  0x00, 0x00, 0x00, 0x00, 0xd2, 0xbf, 0xff, 0xff, 0x04, 0x00, 0x00, 0x00,
  0x20, 0x0a, 0x00, 0x00, 0x82, 0x33, 0x0a, 0xa4, 0x9f, 0x34, 0x00, 0x2f,
  0x00, 0x31, 0x67, 0xac, 0x8c, 0x2c, 0x89, 0xa3, 0x21, 0x2d, 0xc1, 0x2a,
  0xb9, 0xb2, 0x53, 0x34, 0x42, 0xb3, 0x45, 0x34, 0x14, 0xb2, 0x68, 0x2c,
  0xfc, 0x32, 0x3d, 0xb3, 0x84, 0xb1, 0xbb, 0x33, 0xfd, 0xb0, 0x88, 0x31,
  0x81, 0x31, 0x28, 0xb2, 0x66, 0xb1, 0xc9, 0xb4, 0xf2, 0xac, 0x59, 0xaf,
  0xda, 0x31, 0x1b, 0xb3, 0x80, 0xb4, 0xbd, 0x2a, 0xed, 0xac, 0xd3, 0x33,
  0x21, 0x34, 0xf4, 0x2b, 0x40, 0x30, 0x60, 0x34, 0x14, 0x2a, 0x5f, 0x32,
  0x20, 0x34, 0x56, 0xb4, 0x0c, 0x32, 0xca, 0x30, 0x72, 0xa1, 0xb5, 0x2e,
  0x6b, 0x34, 0xc9, 0xad, 0x12, 0xb3, 0xa8, 0x26, 0x13, 0x34, 0xa4, 0x30,
  0xdf, 0xac, 0xab, 0xaa, 0xd1, 0x2b, 0x5c, 0xa8, 0x7e, 0x2b, 0x11, 0x2e,
  0x35, 0x2a, 0x5f, 0xb0, 0x7e, 0xb2, 0x62, 0xad, 0x87, 0x34, 0x21, 0x25,
  0x43, 0xad, 0x60, 0xae, 0x45, 0xb0, 0xa4, 0x2f, 0x0b, 0xb2, 0x87, 0x2b,
  0x1c, 0x32, 0x26, 0xb2, 0x94, 0x34, 0x7d, 0xb3, 0xdc, 0x33, 0x5e, 0x31,
  0x1a, 0x26, 0x12, 0xb3, 0x97, 0xa9, 0x08, 0xad, 0x3d, 0x29, 0x89, 0x34,
  0xa4, 0x34, 0x89, 0x32, 0xdb, 0xb1, 0x2f, 0x34, 0x8d, 0x31, 0x80, 0xb0,
  0x55, 0x2e, 0x15, 0xb2, 0x28, 0xb2, 0xa1, 0x94, 0x5b, 0x30, 0xe3, 0xb2,
  0x26, 0x9e, 0x17, 0x2a, 0x23, 0xac, 0x74, 0x31, 0xb3, 0xaf, 0x16, 0x32,
  0xf7, 0xad, 0xe8, 0x22, 0x1e, 0x2d, 0x0a, 0x29, 0xc6, 0x2f, 0x5b, 0xb1,
  0x29, 0x31, 0x9e, 0xb3, 0x0d, 0xa1, 0xa1, 0xae, 0x80, 0x2f, 0x21, 0xae,
  0xe0, 0x2f, 0xbc, 0x30, 0x6a, 0x2f, 0xac, 0x34, 0x16, 0x2e, 0x0e, 0x32,
  0xa1, 0x33, 0x27, 0x2c, 0xfa, 0x28, 0x2b, 0x98, 0x89, 0x34, 0xfa, 0x2c,
  0x70, 0x2c, 0x87, 0x34, 0x59, 0xb0, 0xab, 0xb2, 0x63, 0xb2, 0x76, 0x23,
  0x37, 0x34, 0x72, 0xab, 0x55, 0xa1, 0x03, 0x2e, 0x9d, 0x28, 0x57, 0x31,
  0xc3, 0xae, 0x02, 0xb4, 0x64, 0x2c, 0x0f, 0xb1, 0x8d, 0x2b, 0x64, 0xaa,
  0x4d, 0x34, 0x9e, 0x2c, 0xd3, 0x33, 0xde, 0x29, 0x94, 0xac, 0xd9, 0xb1,
  0x85, 0x2a, 0x18, 0xb2, 0x13, 0xa9, 0x4f, 0xa5, 0x29, 0xb3, 0x56, 0xa8,
  0x84, 0xb1, 0xc0, 0x30, 0x46, 0xb3, 0x60, 0x34, 0xf1, 0x30, 0xae, 0xac,
  0xdf, 0x2a, 0xbb, 0x2c, 0x15, 0xb0, 0x04, 0x34, 0x37, 0x32, 0x5b, 0xa7,
  0x1f, 0x31, 0xec, 0x33, 0xfa, 0xa5, 0xd2, 0x2f, 0x59, 0x31, 0x2e, 0xa7,
  0x77, 0xb2, 0x35, 0xb2, 0x12, 0x9f, 0xcf, 0xb2, 0x48, 0x32, 0x61, 0xb0,
  0x90, 0x33, 0xb3, 0xb2, 0x66, 0xae, 0x7f, 0x32, 0x46, 0xa6, 0x76, 0x31,
  0x76, 0x30, 0x21, 0x31, 0x45, 0xaf, 0x4d, 0x31, 0xd8, 0xb3, 0x2f, 0xb2,
  0xb5, 0xac, 0x9d, 0xaf, 0x75, 0x32, 0x7e, 0xb2, 0xa8, 0xb0, 0x55, 0x26,
  0x78, 0xb4, 0x76, 0xb4, 0x38, 0x31, 0xaf, 0xa8, 0x2f, 0xb4, 0x1c, 0xb4,
  0x70, 0x34, 0x21, 0xb0, 0xe6, 0x31, 0xb8, 0xb0, 0xc8, 0xb3, 0x26, 0xaf,
  0xef, 0x30, 0xd1, 0xb1, 0x10, 0x31, 0x60, 0x24, 0xa9, 0x33, 0x5f, 0x2b,
  0xa1, 0x28, 0x98, 0xa2, 0xa5, 0xb1, 0xb7, 0xb3, 0xbc, 0x31, 0x31, 0x32,
  0x7d, 0x30, 0x1d, 0x34, 0x30, 0xaf, 0x3d, 0x31, 0x42, 0xb1, 0x22, 0x30,
  0x7e, 0x2f, 0x71, 0xb3, 0x11, 0x2e, 0xa1, 0xa4, 0x5a, 0x32, 0xc4, 0x2f,
  0x15, 0x26, 0x80, 0x34, 0x0c, 0xb0, 0x8b, 0x2d, 0x13, 0xb4, 0x11, 0x24,
  0x94, 0x22, 0xfd, 0x31, 0xbe, 0xb3, 0x6e, 0xaf, 0x71, 0xb3, 0x4b, 0xb1,
  0xb9, 0x31, 0x5f, 0xac, 0x40, 0xb4, 0xec, 0x32, 0x69, 0x34, 0x49, 0x30,
  0xe4, 0xae, 0x84, 0x2d, 0x5e, 0x2d, 0x7e, 0xa9, 0x76, 0x31, 0x58, 0x2f,
  0xb4, 0x31, 0x79, 0xb1, 0xd9, 0x34, 0xa1, 0x32, 0x54, 0xb2, 0x99, 0xa4,
  0x4f, 0x34, 0x7a, 0xac, 0x34, 0x2f, 0x29, 0xad, 0xb5, 0x2c, 0xb5, 0xb1,
  0x84, 0xae, 0xa1, 0x2b, 0x3d, 0x26, 0x78, 0x26, 0x9f, 0xb0, 0x87, 0x2b,
  0xb3, 0x14, 0x92, 0xa9, 0x36, 0x2a, 0x47, 0xb3, 0x88, 0x30, 0xb8, 0x28,
  0x8f, 0x31, 0xad, 0x9c, 0x63, 0x31, 0x3f, 0xb0, 0xb1, 0x32, 0xd7, 0x1f,
  0x51, 0xb2, 0x4d, 0x34, 0x63, 0xa7, 0x76, 0xb4, 0x62, 0x2a, 0x4c, 0xa9,
  0xe8, 0x30, 0x6e, 0xaf, 0x86, 0xb4, 0x7c, 0x32, 0xde, 0x32, 0x82, 0xb4,
  0x18, 0x32, 0x76, 0xac, 0x32, 0x2b, 0x73, 0x34, 0xc1, 0x28, 0x27, 0x2d,
  0x75, 0xb3, 0xf2, 0xa7, 0xbb, 0x33, 0xa8, 0xaa, 0x9b, 0x34, 0xa0, 0x97,
  0x25, 0x31, 0x74, 0x2e, 0xdc, 0xb1, 0xa0, 0x30, 0x73, 0xb0, 0x24, 0x34,
  0x3c, 0xb1, 0xa9, 0x2f, 0x9d, 0x2d, 0xc0, 0x33, 0x00, 0x31, 0x9d, 0xa9,
  0xab, 0xb0, 0xc9, 0x29, 0xbb, 0x34, 0xcc, 0xa9, 0xe7, 0x31, 0x0c, 0xb0,
  0x6f, 0x30, 0x5e, 0x30, 0xfb, 0x33, 0x15, 0x2b, 0x61, 0x1c, 0x8c, 0x2c,
  0x4a, 0x33, 0xe7, 0x34, 0xaf, 0xaf, 0xe4, 0x33, 0x2a, 0x35, 0x8d, 0xb1,
  0xae, 0xb3, 0x5f, 0x2f, 0x28, 0xb0, 0x9f, 0xa9, 0x03, 0x30, 0xa9, 0x28,
  0x92, 0xb3, 0x34, 0xb3, 0x02, 0x2d, 0xf2, 0x30, 0xe0, 0x30, 0x07, 0x32,
  0x6a, 0x30, 0x40, 0xae, 0x65, 0x32, 0x98, 0x33, 0x4e, 0x32, 0xc5, 0x2e,
  0x17, 0xb3, 0xcb, 0x29, 0x09, 0xb3, 0x38, 0x34, 0x14, 0x32, 0x3b, 0xa5,
  0x47, 0x31, 0xa8, 0xb3, 0x37, 0xb4, 0x18, 0xb1, 0x95, 0x30, 0xae, 0x31,
  0x71, 0xad, 0x0d, 0xa1, 0x51, 0x2e, 0xeb, 0x29, 0xa2, 0x2c, 0xcd, 0x33,
  0x72, 0xb0, 0x69, 0xb4, 0xe8, 0x30, 0x70, 0x34, 0x13, 0x34, 0x1d, 0xad,
  0xa3, 0xac, 0xde, 0xa6, 0x18, 0xb1, 0x30, 0xb4, 0x4b, 0x22, 0x30, 0xa9,
  0xb7, 0xa6, 0xe8, 0xae, 0xff, 0xb2, 0xaf, 0x31, 0xd0, 0x26, 0xa1, 0xa9,
  0xaa, 0x33, 0x4e, 0x1c, 0x00, 0x2e, 0xff, 0x33, 0x5c, 0x2f, 0x60, 0x1a,
  0x0d, 0x30, 0x9b, 0x30, 0x54, 0x2b, 0xa6, 0xb4, 0x9d, 0x30, 0x4b, 0xb1,
  0x03, 0x30, 0x6c, 0xaa, 0x71, 0x2f, 0xd2, 0x2a, 0x03, 0xb0, 0x61, 0x31,
  0xd3, 0xb2, 0xa3, 0xb3, 0xac, 0x2c, 0x19, 0x34, 0xb7, 0xa8, 0x73, 0x33,
  0xf1, 0xad, 0xfe, 0x2e, 0xd0, 0xb0, 0x10, 0x22, 0x4a, 0xb0, 0x78, 0xb1,
  0x84, 0xb1, 0x5f, 0x30, 0x37, 0xb2, 0xe4, 0xa8, 0xad, 0x30, 0xba, 0x33,
  0x28, 0x1e, 0x14, 0xb4, 0x3c, 0x32, 0xdf, 0x33, 0xc1, 0x31, 0x16, 0xb1,
  0x96, 0xad, 0x78, 0x30, 0x00, 0xa9, 0xe4, 0xb3, 0x02, 0xa0, 0xdc, 0x9e,
  0x7e, 0x9e, 0xb1, 0x21, 0xcb, 0xb4, 0x4e, 0xb4, 0x38, 0xb0, 0xcd, 0xb1,
  0xe8, 0xae, 0xc7, 0xb3, 0xc2, 0x25, 0x8b, 0xb1, 0xbf, 0xb1, 0x2a, 0xaf,
  0x71, 0x2f, 0x7e, 0x32, 0xb5, 0x28, 0x57, 0x34, 0x67, 0xb0, 0x16, 0x2e,
  0x37, 0x31, 0xa7, 0x2c, 0xba, 0x30, 0x32, 0x1c, 0x89, 0xa5, 0x45, 0x2e,
  0x66, 0x34, 0x4e, 0x2c, 0xd1, 0xa8, 0x2f, 0xa5, 0x0b, 0xb2, 0xfc, 0xae,
  0x35, 0xb4, 0x08, 0xae, 0xee, 0x30, 0x92, 0x34, 0x28, 0x21, 0x7c, 0x2b,
  0x8c, 0x9f, 0xe2, 0xb3, 0x24, 0x33, 0xbf, 0x23, 0xba, 0xb1, 0x3c, 0xae,
  0x97, 0xab, 0xb2, 0x23, 0x74, 0x27, 0x7f, 0xa3, 0x40, 0x34, 0x3f, 0xb3,
  0x33, 0xb4, 0x72, 0xb4, 0x79, 0x2c, 0x86, 0x33, 0x02, 0x34, 0xed, 0x22,
  0xdc, 0x1e, 0x39, 0x31, 0x01, 0x31, 0x66, 0xb2, 0x53, 0xac, 0x26, 0xb4,
  0x89, 0x34, 0x13, 0x32, 0xa5, 0xad, 0x1c, 0xa9, 0xe8, 0x25, 0x03, 0x33,
  0xc4, 0x31, 0xea, 0xb3, 0x98, 0xaa, 0xeb, 0x2e, 0xcd, 0x33, 0x87, 0xad,
  0xb3, 0x30, 0xf3, 0x28, 0x27, 0xb0, 0xc3, 0x2e, 0x0e, 0x2b, 0x9b, 0xb0,
  0x4c, 0x28, 0xd0, 0x26, 0xee, 0xaa, 0xef, 0x2b, 0xae, 0xaf, 0x30, 0xb0,
  0x93, 0xad, 0xc3, 0x2d, 0x99, 0xa0, 0x97, 0xb4, 0x61, 0xab, 0xd0, 0x20,
  0x17, 0xb1, 0x3a, 0xac, 0xf8, 0x2c, 0x98, 0x33, 0xc4, 0x31, 0xa7, 0xaf,
  0x2d, 0xb2, 0x47, 0x30, 0xfc, 0x25, 0x87, 0xb0, 0x21, 0x30, 0xcc, 0xb3,
  0x47, 0x2e, 0x6a, 0x2d, 0x0a, 0x34, 0xd4, 0xac, 0x20, 0xb2, 0x88, 0x34,
  0xc4, 0xac, 0x92, 0xb4, 0x5a, 0xae, 0x17, 0x33, 0x80, 0xb2, 0x48, 0x2b,
  0x98, 0xb4, 0xfd, 0xad, 0xcd, 0xae, 0x89, 0xac, 0xdf, 0xb0, 0x02, 0xb3,
  0x58, 0x2e, 0x82, 0x30, 0xca, 0x29, 0x12, 0x2d, 0x35, 0xb2, 0xbf, 0x2f,
  0x72, 0x2d, 0x50, 0x33, 0x86, 0x30, 0x8d, 0x34, 0xb5, 0x2f, 0x1d, 0xb4,
  0x50, 0x31, 0x69, 0xa9, 0x1a, 0x1f, 0x59, 0x2f, 0x83, 0x98, 0xca, 0xac,
  0xc7, 0x2b, 0x30, 0x30, 0x7a, 0x2e, 0x33, 0xb0, 0xe8, 0xb1, 0x02, 0xb4,
  0x6e, 0xb3, 0xb7, 0xad, 0x49, 0xb0, 0xd6, 0x32, 0x31, 0xb0, 0x6a, 0xb0,
  0x5a, 0xb2, 0xa0, 0xb1, 0xba, 0x31, 0x0f, 0x34, 0x94, 0x32, 0x4f, 0xb2,
  0x5a, 0xad, 0x78, 0xb3, 0x69, 0x30, 0x19, 0x34, 0xea, 0xb3, 0xba, 0x32,
  0xb0, 0xb0, 0x85, 0xb4, 0xfc, 0x2c, 0x74, 0xb4, 0x84, 0xb1, 0x51, 0x34,
  0x29, 0xb4, 0xf2, 0xb1, 0xda, 0xad, 0x34, 0x33, 0xf9, 0x31, 0x8f, 0x32,
  0xeb, 0xb0, 0x43, 0xb0, 0x45, 0x31, 0x03, 0x34, 0xce, 0x32, 0xb4, 0x2e,
  0x1e, 0xad, 0x82, 0x2b, 0xf3, 0xb2, 0xc7, 0xa9, 0x79, 0x34, 0x10, 0x24,
  0x1d, 0x33, 0x04, 0x32, 0xa5, 0x34, 0x0f, 0x31, 0x90, 0xb4, 0xb6, 0xaf,
  0x70, 0x18, 0x18, 0x34, 0x88, 0x28, 0x8e, 0x2c, 0xb0, 0x26, 0x90, 0xb0,
  0xa6, 0xb4, 0x93, 0x26, 0x6a, 0xae, 0x98, 0x2d, 0xdd, 0x30, 0xdc, 0xb3,
  0x49, 0x2e, 0x5a, 0x2f, 0xea, 0x2d, 0x0f, 0x31, 0x63, 0xb1, 0xea, 0xaf,
  0xa6, 0xb1, 0x20, 0x34, 0x30, 0x30, 0x26, 0x22, 0xe7, 0x2e, 0x0b, 0xb4,
  0xfc, 0x33, 0x0d, 0xb3, 0x36, 0xab, 0x01, 0xb2, 0x44, 0xa6, 0x02, 0xb2,
  0x4a, 0xb0, 0x2e, 0xa8, 0xce, 0x32, 0x25, 0x34, 0x5e, 0xaf, 0x01, 0x30,
  0xb8, 0x32, 0x5d, 0x34, 0x7d, 0x31, 0x6e, 0x31, 0x49, 0x34, 0x53, 0x2c,
  0x6e, 0xb3, 0xab, 0x32, 0xc5, 0x33, 0x8b, 0x34, 0x2b, 0xb3, 0x2f, 0x2e,
  0x44, 0x33, 0x03, 0x9e, 0xcd, 0x31, 0xfb, 0xad, 0x17, 0x35, 0x85, 0xb5,
  0xd8, 0x2d, 0xa2, 0xb4, 0xd8, 0x30, 0x0f, 0xa1, 0xc4, 0x13, 0x63, 0x33,
  0x28, 0xac, 0xb7, 0x33, 0x16, 0x30, 0xa2, 0xaf, 0x06, 0xa4, 0x33, 0x34,
  0x90, 0xb2, 0x49, 0x30, 0x8c, 0xb4, 0x78, 0xab, 0x7f, 0x34, 0x47, 0xad,
  0xf9, 0xb2, 0xa9, 0xb4, 0x61, 0xa2, 0x0f, 0xa8, 0x83, 0x29, 0xc9, 0x29,
  0xa3, 0x35, 0x99, 0x24, 0xc8, 0x28, 0x7e, 0x34, 0x12, 0xa9, 0x54, 0x31,
  0x3d, 0x34, 0xdf, 0xae, 0xd1, 0xb1, 0x3c, 0x31, 0x6f, 0x31, 0xaf, 0x34,
  0xa7, 0xb4, 0x82, 0x34, 0xe3, 0x27, 0xc7, 0xb2, 0x1c, 0xae, 0x8c, 0x2b,
  0x3d, 0x31, 0x91, 0x32, 0x2b, 0x23, 0x90, 0xb2, 0xbc, 0xb0, 0x78, 0xb0,
  0x59, 0x2c, 0xd3, 0xb0, 0xce, 0x34, 0xac, 0x29, 0xfe, 0xab, 0x15, 0xb4,
  0x81, 0x31, 0x40, 0x30, 0x2f, 0xac, 0xe7, 0xac, 0xc8, 0x2d, 0x1a, 0xae,
  0x52, 0x2a, 0x5e, 0xaa, 0x7d, 0x31, 0x96, 0xb0, 0x97, 0xb2, 0xf9, 0x2d,
  0xaf, 0xb1, 0xfb, 0xb2, 0x3e, 0x33, 0xab, 0x2d, 0x2b, 0x2e, 0xff, 0xaf,
  0x4e, 0xac, 0xbe, 0x30, 0x55, 0xb0, 0x1e, 0x2c, 0x99, 0xb4, 0x12, 0x33,
  0x3f, 0xb4, 0x42, 0xb4, 0x60, 0xb0, 0xcb, 0x33, 0x24, 0xb2, 0xac, 0xa4,
  0x8b, 0x34, 0x0e, 0x32, 0x74, 0xb0, 0x18, 0xaf, 0x72, 0x27, 0x77, 0xb4,
  0xaf, 0xb4, 0x8b, 0x31, 0xae, 0x33, 0xd1, 0xaa, 0x14, 0xb4, 0x4a, 0x31,
  0x6e, 0x31, 0xbd, 0x30, 0xaf, 0x2d, 0x0d, 0x30, 0x48, 0xb0, 0x95, 0x34,
  0xd9, 0xa0, 0x1d, 0x28, 0xe2, 0xac, 0x65, 0x2e, 0x4e, 0xb2, 0x58, 0x32,
  0xe4, 0xb1, 0x4c, 0xb4, 0xab, 0xaf, 0x18, 0x30, 0xbf, 0x33, 0x96, 0xb4,
  0x4f, 0x34, 0xe9, 0xb4, 0x59, 0x33, 0x66, 0xac, 0xb0, 0xb3, 0x06, 0xb4,
  0x3a, 0x2e, 0xd6, 0x29, 0x83, 0x31, 0xec, 0xb3, 0x2d, 0xaf, 0x11, 0x34,
  0xcd, 0x32, 0x0a, 0x2d, 0x80, 0xb2, 0x32, 0xb3, 0x14, 0xb0, 0xf6, 0x2f,
  0x10, 0x34, 0xcd, 0x26, 0x54, 0xac, 0xbc, 0x2e, 0xe1, 0xb4, 0x78, 0x31,
  0x91, 0xb4, 0x0e, 0xb3, 0x5b, 0xb0, 0x3b, 0xa9, 0x11, 0x2f, 0xa3, 0x34,
  0xc1, 0xb4, 0x94, 0x2d, 0x1e, 0xb4, 0xd2, 0x27, 0x9f, 0x31, 0x80, 0x2d,
  0x62, 0xb1, 0x10, 0xb0, 0x39, 0x30, 0x21, 0x2f, 0xde, 0xb2, 0xa1, 0x32,
  0x83, 0xb0, 0x60, 0xa8, 0xf7, 0x30, 0xe3, 0x33, 0x0f, 0xb4, 0x26, 0xb3,
  0xe5, 0x30, 0xc3, 0x9a, 0xca, 0x30, 0xef, 0xac, 0xde, 0x2d, 0xad, 0x32,
  0xa9, 0x32, 0x09, 0x31, 0x88, 0x1d, 0x8c, 0x2f, 0xa2, 0xa1, 0x65, 0xb3,
  0x8f, 0x2c, 0x2c, 0x29, 0x9a, 0x2a, 0x0c, 0xae, 0x1e, 0x2e, 0x48, 0xb4,
  0xac, 0xb2, 0x9b, 0xb0, 0xbe, 0xb4, 0x14, 0xae, 0x7c, 0x31, 0xc3, 0x32,
  0xb2, 0x2f, 0x0a, 0x25, 0xbe, 0xac, 0xa9, 0x2f, 0x61, 0xac, 0x91, 0xb4,
  0x64, 0xaa, 0x93, 0x33, 0x1e, 0x31, 0x57, 0x2d, 0x61, 0xae, 0x3d, 0x32,
  0x7b, 0x34, 0xa6, 0x2d, 0x66, 0x33, 0x05, 0x2a, 0xb6, 0x30, 0x03, 0xab,
  0xfb, 0xb0, 0x09, 0x30, 0xde, 0x30, 0x13, 0xb4, 0xd6, 0xac, 0x28, 0x2d,
  0x6c, 0x20, 0x8c, 0x34, 0xb9, 0xa9, 0x11, 0xb3, 0x5d, 0x31, 0x6b, 0x35,
  0x1b, 0xad, 0x80, 0x2d, 0x4d, 0x33, 0xdb, 0xa5, 0xa4, 0xa8, 0x26, 0x32,
  0xcc, 0x32, 0x35, 0x21, 0x77, 0xb0, 0x59, 0xb4, 0x30, 0xb2, 0x1b, 0xb5,
  0x4b, 0xb4, 0xfd, 0xac, 0x06, 0x2b, 0xc1, 0x31, 0xd3, 0xac, 0xb6, 0xa2,
  0x31, 0x34, 0xc8, 0x2e, 0x2b, 0xac, 0x88, 0x2c, 0x2c, 0x33, 0x08, 0xb4,
  0x6d, 0x33, 0x2a, 0x34, 0xf2, 0x30, 0x3f, 0x2c, 0xe7, 0xb0, 0xf4, 0xb4,
  0xdc, 0xaf, 0x8a, 0x32, 0x4f, 0xb2, 0x62, 0x2d, 0x40, 0xb0, 0xa4, 0x29,
  0x3c, 0xae, 0xa1, 0xb0, 0xbf, 0xb4, 0x46, 0xb1, 0x77, 0x21, 0x06, 0x28,
  0x08, 0x2c, 0x8b, 0x32, 0xe5, 0x2e, 0x12, 0xb5, 0x07, 0xb4, 0xe7, 0xb0,
  0x96, 0xb3, 0xad, 0x2c, 0xe4, 0xa6, 0xd3, 0x34, 0x8d, 0x23, 0x2e, 0x32,
  0xa2, 0xae, 0x1f, 0x35, 0xc9, 0xb0, 0x81, 0x32, 0xcd, 0xab, 0x20, 0xb2,
  0x8a, 0x28, 0x66, 0xb4, 0x8b, 0x2e, 0x46, 0xb0, 0x32, 0xae, 0x80, 0xac,
  0x66, 0xaf, 0x1c, 0x31, 0x23, 0x34, 0xa6, 0x2c, 0x8c, 0xa9, 0x8b, 0xb0,
  0x7b, 0x30, 0xcd, 0xac, 0x0e, 0xb4, 0x90, 0x31, 0x25, 0xb2, 0xa8, 0xa4,
  0x75, 0xae, 0x14, 0x30, 0x48, 0xb2, 0xad, 0xb2, 0x3e, 0xb5, 0x37, 0xae,
  0xd5, 0xb4, 0xd6, 0x2f, 0x53, 0x32, 0xf6, 0x31, 0xe5, 0x31, 0xd7, 0xb1,
  0x77, 0x28, 0x10, 0x28, 0x12, 0xb2, 0x99, 0xa5, 0x7b, 0xab, 0x6a, 0xb4,
  0xe4, 0x25, 0x93, 0xae, 0x02, 0xaa, 0x06, 0xaa, 0x52, 0xac, 0xa9, 0x28,
  0x60, 0x30, 0x14, 0x34, 0x86, 0xb2, 0x28, 0x32, 0xec, 0x30, 0x34, 0x32,
  0xb2, 0x34, 0x5b, 0x2e, 0x07, 0x2e, 0xfc, 0x30, 0x08, 0xb0, 0xea, 0xaf,
  0x9f, 0xb1, 0x4e, 0xae, 0x5a, 0x33, 0xc3, 0xb0, 0x81, 0xb1, 0x25, 0x32,
  0x64, 0x31, 0x07, 0x33, 0x7a, 0xb3, 0x6f, 0x1e, 0x21, 0xac, 0x42, 0xb3,
  0x4f, 0x2f, 0x95, 0xb0, 0x9b, 0xb0, 0x4a, 0x29, 0x8c, 0xb0, 0xc9, 0x28,
  0x71, 0x32, 0xaf, 0x2c, 0x85, 0xaa, 0x82, 0x33, 0xd5, 0xb1, 0xf3, 0xae,
  0xcf, 0x2a, 0xf0, 0x34, 0xff, 0x2a, 0x8a, 0xae, 0x59, 0x25, 0x1c, 0xa5,
  0x39, 0xa9, 0x91, 0xb2, 0xbd, 0x30, 0xbd, 0xb4, 0xc9, 0x31, 0x19, 0xb1,
  0x47, 0xb1, 0x76, 0xa8, 0x2b, 0xb4, 0x9d, 0xb1, 0xc7, 0x2e, 0xb1, 0xb4,
  0x19, 0x34, 0x0c, 0x2a, 0x5a, 0x34, 0xd2, 0xaa, 0x39, 0xae, 0x33, 0xb1,
  0x71, 0x25, 0xe0, 0x27, 0xdf, 0x2f, 0x76, 0xb4, 0x0a, 0x2f, 0x88, 0x26,
  0x40, 0x2e, 0x26, 0xb0, 0x1e, 0xb4, 0x8b, 0xb4, 0x18, 0x2e, 0xf4, 0xb0,
  0xd8, 0xb2, 0x34, 0xb2, 0x2d, 0x28, 0x03, 0xae, 0xe0, 0x2c, 0xb3, 0xad,
  0x2f, 0xb4, 0x1a, 0xb4, 0x15, 0x30, 0x98, 0x2d, 0x0f, 0x30, 0xed, 0xb2,
  0x75, 0xad, 0x6c, 0xb2, 0x09, 0x9c, 0x43, 0xb4, 0xbe, 0xb4, 0xb0, 0xb4,
  0xad, 0xb3, 0x03, 0xb3, 0xb1, 0xb0, 0x45, 0x34, 0xf8, 0xa4, 0xb1, 0x34,
  0x44, 0x27, 0xb2, 0x26, 0xe8, 0x31, 0xa5, 0xb3, 0x30, 0x2f, 0x8a, 0x34,
  0xb2, 0xb1, 0x78, 0xb2, 0xc1, 0xae, 0xd5, 0x33, 0x3c, 0x34, 0xd7, 0x30,
  0x44, 0xb1, 0x1f, 0xb0, 0x5f, 0xb4, 0xb4, 0x25, 0x30, 0x26, 0xc5, 0x29,
  0x73, 0x2f, 0xed, 0x31, 0x15, 0xb5, 0xb9, 0x32, 0x72, 0x33, 0x13, 0x33,
  0x54, 0x33, 0x2c, 0xac, 0xb0, 0x34, 0xc7, 0x2e, 0x7e, 0x27, 0x02, 0xb0,
  0x2b, 0xa6, 0x2c, 0xb0, 0xd5, 0x31, 0x68, 0xb0, 0x06, 0x2f, 0xe8, 0x33,
  0xa2, 0x34, 0x9f, 0x33, 0x15, 0xab, 0xf6, 0x30, 0x9c, 0x31, 0xfe, 0x28,
  0x7b, 0xb2, 0x07, 0xb4, 0x4e, 0x2d, 0xfb, 0x33, 0x8a, 0xaf, 0x78, 0x2e,
  0xd4, 0xae, 0x25, 0x2c, 0xca, 0x30, 0x8c, 0xb1, 0x16, 0x2b, 0xc6, 0xa4,
  0xc4, 0xae, 0xd6, 0x27, 0xa6, 0x31, 0x32, 0x31, 0x55, 0xb0, 0x5c, 0x33,
  0x21, 0xb1, 0x62, 0x30, 0x23, 0x33, 0xb9, 0xa5, 0x26, 0xac, 0x2b, 0x2f,
  0x4f, 0x34, 0x5c, 0xaf, 0x85, 0x30, 0x8b, 0xac, 0xbf, 0xb3, 0x75, 0x2a,
  0x20, 0x30, 0x36, 0xb4, 0x3e, 0xb4, 0x37, 0xb4, 0x9b, 0xa8, 0x82, 0xb3,
  0xb1, 0xaf, 0x57, 0xb4, 0x3e, 0x2d, 0xd4, 0x2d, 0xd0, 0xb1, 0x7a, 0x31,
  0x17, 0x2c, 0x11, 0xb4, 0x4a, 0x34, 0x5f, 0x33, 0xe1, 0x28, 0x2a, 0xa8,
  0xa8, 0xb4, 0xb6, 0x29, 0x20, 0x34, 0x1a, 0xb4, 0x12, 0xaf, 0x4d, 0x26,
  0x4d, 0xb4, 0xa4, 0x30, 0xc7, 0x33, 0xf4, 0x33, 0x91, 0xa5, 0xc3, 0xb4,
  0xcf, 0xae, 0xf2, 0xa9, 0x1d, 0x2b, 0x2d, 0x34, 0xfc, 0x98, 0x89, 0x34,
  0xa1, 0x34, 0x0c, 0xb3, 0x76, 0xb4, 0x8e, 0xb1, 0x49, 0xb3, 0x81, 0xac,
  0x55, 0xb3, 0x1c, 0xaf, 0xa5, 0xb3, 0x20, 0x31, 0x6c, 0xa9, 0xcd, 0x30,
  0x71, 0x28, 0xd3, 0x2f, 0x65, 0x28, 0x16, 0xa8, 0xc5, 0xaf, 0x94, 0xb0,
  0xc8, 0xaa, 0x23, 0x31, 0xa6, 0x31, 0x41, 0xb4, 0x1e, 0xae, 0x7c, 0x2f,
  0x56, 0xb2, 0x90, 0x33, 0x96, 0x30, 0x99, 0xac, 0xa7, 0xb3, 0xa7, 0x2c,
  0xda, 0x33, 0x4f, 0x33, 0x74, 0x34, 0x0b, 0x26, 0x87, 0x34, 0x62, 0xb1,
  0x71, 0xae, 0x1f, 0xa8, 0xae, 0xb1, 0x20, 0xaf, 0x48, 0xb3, 0xd0, 0x33,
  0x95, 0x2e, 0xe2, 0xad, 0xb4, 0xa5, 0xf1, 0xb0, 0x7a, 0xb4, 0x8d, 0xaf,
  0x03, 0x31, 0xe6, 0x9a, 0x1c, 0x27, 0x5f, 0x31, 0xde, 0xa9, 0x6d, 0xb0,
  0xb6, 0x2a, 0xf1, 0xaa, 0x03, 0xac, 0xdc, 0x2c, 0x49, 0xa1, 0x56, 0xa3,
  0x9b, 0x2e, 0x54, 0xab, 0x58, 0x30, 0x41, 0xac, 0x71, 0x2b, 0x26, 0x34,
  0xa1, 0xae, 0x16, 0xb1, 0xb8, 0x2b, 0xac, 0xac, 0x3e, 0xb2, 0xd5, 0x30,
  0x76, 0x32, 0xd8, 0x2e, 0x06, 0x85, 0xcf, 0x2a, 0x28, 0xb4, 0xec, 0xad,
  0x3e, 0x27, 0xf5, 0x2e, 0xe8, 0x32, 0x8b, 0x30, 0xd3, 0x32, 0x74, 0xb4,
  0x48, 0x30, 0x6c, 0x2a, 0x00, 0x00, 0x00, 0x00, 0x02, 0xca, 0xff, 0xff,
  0x04, 0x00, 0x00, 0x00, 0x08, 0x00, 0x00, 0x00, 0x01, 0x00, 0x00, 0x00,
  0x00, 0x00, 0x00, 0x00, 0x00, 0x00, 0x00, 0x00, 0x00, 0x00, 0x00, 0x00,
  0x00, 0x00, 0x00, 0x00, 0x22, 0xca, 0xff, 0xff, 0x04, 0x00, 0x00, 0x00,
  0x60, 0x1e, 0x00, 0x00, 0xd6, 0xb1, 0x39, 0x32, 0xf3, 0x2e, 0x05, 0x2c,
  0x90, 0xab, 0x21, 0x30, 0xaa, 0xb1, 0xaa, 0x2f, 0x46, 0xaa, 0x8f, 0xab,
  0x57, 0xb2, 0xe0, 0x28, 0x50, 0xae, 0x34, 0xad, 0x4e, 0x30, 0x64, 0xaf,
  0xf0, 0x31, 0xe2, 0x30, 0x39, 0x30, 0xb8, 0x2b, 0x2d, 0xb2, 0xf2, 0x8d,
  0x32, 0xb0, 0xa2, 0xaa, 0xd0, 0xb2, 0x67, 0xaf, 0xf4, 0xad, 0xf8, 0xa4,
  0x85, 0xac, 0x27, 0x25, 0x95, 0xb1, 0x11, 0xb1, 0x78, 0xb1, 0x47, 0x31,
  0xa7, 0x2d, 0x4b, 0xb2, 0xec, 0xb1, 0x7a, 0x22, 0x31, 0xae, 0x7b, 0x2d,
  0x2f, 0xaa, 0xb5, 0x20, 0xb8, 0xab, 0xb5, 0xb0, 0x76, 0xa8, 0x18, 0x32,
  0xc5, 0x30, 0x30, 0xb0, 0x1c, 0x2c, 0x96, 0x31, 0xac, 0x26, 0x5c, 0xa3,
  0x68, 0x31, 0x64, 0x9e, 0x32, 0xaa, 0xaf, 0x32, 0x51, 0x2c, 0xae, 0xaf,
  0x43, 0x30, 0xeb, 0x30, 0xd9, 0x30, 0x1e, 0xaf, 0xa3, 0xae, 0x8f, 0x2f,
  0x61, 0x30, 0xd1, 0xb1, 0x58, 0x30, 0xb4, 0x2d, 0x97, 0x2b, 0xb7, 0xac,
  0xfc, 0xa9, 0x38, 0x2f, 0x39, 0x2a, 0x49, 0x30, 0xa6, 0xb0, 0x02, 0xae,
  0x61, 0xab, 0x1d, 0x2e, 0x2a, 0x2d, 0xf1, 0x2d, 0xf5, 0xad, 0x9e, 0xa9,
  0xd4, 0x2d, 0x72, 0xae, 0x8f, 0x30, 0xb3, 0x30, 0x40, 0x2e, 0x68, 0x2e,
  0x2d, 0x30, 0x2a, 0xb1, 0xcb, 0xa9, 0x11, 0x30, 0x69, 0xab, 0x31, 0x9d,
  0x19, 0xaa, 0x9f, 0x21, 0x0e, 0xa5, 0x1e, 0xa9, 0xde, 0x2c, 0x83, 0x32,
  0x38, 0x24, 0x3d, 0xa9, 0x1b, 0x33, 0xf3, 0xac, 0x52, 0x2c, 0x9f, 0x25,
  0x60, 0x2d, 0x46, 0x30, 0x03, 0x2c, 0x74, 0xa7, 0x2a, 0x2d, 0x2b, 0x26,
  0x5b, 0xaa, 0xe5, 0x29, 0x6e, 0xae, 0x83, 0x22, 0x66, 0xaf, 0x24, 0x2d,
  0x57, 0x32, 0x43, 0xac, 0x53, 0xb1, 0xc7, 0x30, 0xef, 0xae, 0x0d, 0x30,
  0x5a, 0x30, 0xbf, 0xac, 0x59, 0xa4, 0x42, 0xb0, 0x81, 0x31, 0x18, 0xb2,
  0x12, 0x2c, 0xe5, 0xaf, 0x77, 0x32, 0x89, 0x2e, 0x58, 0x32, 0xe1, 0xad,
  0xfe, 0x2c, 0x6e, 0xb1, 0x2e, 0x30, 0x2a, 0xac, 0x4f, 0x2c, 0xc0, 0x2e,
  0xa9, 0xaf, 0x6c, 0x2f, 0xf9, 0xad, 0xc9, 0x2d, 0xdf, 0xab, 0xe2, 0x24,
  0x9a, 0x28, 0x62, 0x31, 0x4b, 0x2a, 0xc0, 0x29, 0x7b, 0xaa, 0xa5, 0xb2,
  0x51, 0xae, 0xad, 0xab, 0x71, 0x2d, 0x23, 0xa5, 0xc8, 0x2c, 0xaa, 0xae,
  0xae, 0xb2, 0x45, 0x2c, 0x75, 0x2e, 0xaa, 0x2f, 0x16, 0x31, 0x12, 0xb2,
  0x59, 0x2a, 0xdb, 0x30, 0x48, 0xaf, 0xa0, 0x2e, 0xfb, 0x2d, 0x44, 0x28,
  0xb6, 0xb2, 0x74, 0x2d, 0x34, 0x31, 0xdd, 0xa8, 0xc4, 0x2d, 0xa6, 0x30,
  0x59, 0xb1, 0x65, 0xb2, 0xac, 0x2e, 0xe8, 0xac, 0xc7, 0xaf, 0x1d, 0xb3,
  0xed, 0xb1, 0x45, 0x2c, 0x49, 0xa9, 0x70, 0xb2, 0xfe, 0x8a, 0xf5, 0xaa,
  0xdb, 0xb1, 0x19, 0x30, 0x7f, 0x33, 0xc6, 0x2f, 0x5d, 0xb2, 0xba, 0xb0,
  0x3f, 0xb1, 0xb2, 0x31, 0xa1, 0xae, 0x8f, 0x2d, 0x23, 0xab, 0x0d, 0x24,
  0x5a, 0x32, 0xaf, 0xad, 0x40, 0x30, 0x13, 0x30, 0x9a, 0x2e, 0x88, 0xab,
  0xa7, 0xb0, 0x42, 0x2c, 0x57, 0xb0, 0x20, 0xaa, 0xe1, 0x2b, 0xf9, 0x30,
  0x2e, 0x32, 0x28, 0xb1, 0x74, 0xae, 0xdd, 0x16, 0x7b, 0x1e, 0xf1, 0xa8,
  0x0a, 0xaf, 0x6b, 0xaa, 0xc7, 0xa9, 0xc7, 0xaf, 0x6f, 0x2b, 0x2e, 0xb0,
  0xaa, 0xb1, 0xce, 0x28, 0xba, 0xaf, 0xa5, 0x32, 0x25, 0xb0, 0x05, 0xb0,
  0x3e, 0x32, 0xe4, 0x28, 0x03, 0x33, 0x66, 0x33, 0x57, 0x32, 0x88, 0x32,
  0xc6, 0x2c, 0x68, 0xaf, 0x54, 0xae, 0x15, 0xa7, 0x09, 0xa7, 0xf7, 0x30,
  0x69, 0x2a, 0x4f, 0xb2, 0xbb, 0x28, 0x79, 0x1e, 0xec, 0x2d, 0x3c, 0xae,
  0x17, 0x31, 0xb8, 0xb0, 0xb3, 0x31, 0xb3, 0x30, 0x37, 0xb2, 0x4e, 0xb1,
  0x75, 0x2d, 0x8f, 0xb0, 0xef, 0x0c, 0x46, 0xb0, 0x31, 0x30, 0xca, 0x31,
  0xc6, 0x31, 0x50, 0x31, 0x5f, 0x2f, 0x96, 0xb1, 0xa8, 0x28, 0x7e, 0x31,
  0xcc, 0x2f, 0x68, 0xaf, 0x5a, 0x2e, 0x2a, 0x1f, 0xb0, 0xad, 0x5e, 0xb3,
  0x46, 0xad, 0x67, 0xb0, 0xcb, 0xa9, 0x5c, 0x29, 0x03, 0xaa, 0xa2, 0xa8,
  0x26, 0xaa, 0x4c, 0x2f, 0xc0, 0xae, 0xcd, 0x32, 0xd7, 0x32, 0x4f, 0x32,
  0xfd, 0x31, 0x6f, 0x9f, 0xd0, 0xad, 0x94, 0x31, 0x96, 0xb2, 0xc6, 0xb2,
  0xd2, 0x30, 0x72, 0xac, 0x71, 0x30, 0x42, 0xb0, 0xf0, 0xaf, 0xe9, 0xb0,
  0xd8, 0x1b, 0x09, 0xa2, 0x20, 0xad, 0x02, 0x2a, 0xf5, 0x2e, 0x63, 0xae,
  0x05, 0x30, 0x35, 0xac, 0x4c, 0x2d, 0x35, 0xac, 0xc9, 0xad, 0xa3, 0x33,
  0x18, 0xb0, 0x41, 0x2c, 0x4c, 0xb2, 0xec, 0x2f, 0xca, 0x30, 0xc5, 0xb1,
  0x62, 0xb0, 0xd8, 0xb1, 0xa8, 0x2c, 0x86, 0xb1, 0xde, 0x2d, 0xa8, 0x32,
  0x6b, 0xa4, 0x26, 0x2f, 0x15, 0xb1, 0xfb, 0x2c, 0xce, 0xa2, 0x02, 0x30,
  0xcf, 0x32, 0xf7, 0xb0, 0x04, 0xa7, 0x55, 0xb0, 0x8c, 0x2d, 0x54, 0x32,
  0x59, 0xa8, 0x7b, 0x31, 0xa2, 0x2f, 0x06, 0xa3, 0xbe, 0x2e, 0x10, 0x32,
  0x86, 0x22, 0x48, 0xb1, 0xdb, 0x2c, 0xba, 0xb0, 0x85, 0x20, 0x7f, 0xae,
  0x20, 0x31, 0x1b, 0xaf, 0x81, 0xaf, 0x4b, 0x30, 0xeb, 0xb0, 0x88, 0x32,
  0x96, 0x25, 0xc4, 0x2e, 0x52, 0xb0, 0xa1, 0x99, 0x3f, 0x2e, 0x5c, 0x2e,
  0xf5, 0xa6, 0xe8, 0x31, 0x5d, 0x2f, 0x18, 0xad, 0x23, 0xb3, 0x11, 0x30,
  0x8a, 0x2f, 0xbe, 0xad, 0xff, 0x24, 0x18, 0x2d, 0x03, 0x32, 0x0f, 0xae,
  0x73, 0x2f, 0x1c, 0xb0, 0xaa, 0x27, 0x7e, 0xaa, 0x30, 0x20, 0x0a, 0x2e,
  0x55, 0x1d, 0x5e, 0x31, 0x4e, 0xae, 0x45, 0xb1, 0x25, 0x32, 0x9f, 0xa8,
  0xdb, 0x9e, 0xef, 0x2b, 0xe5, 0x2c, 0xd5, 0x21, 0x0e, 0xac, 0x96, 0xac,
  0xe2, 0xa6, 0x02, 0x2c, 0x2c, 0xb1, 0xf4, 0x31, 0xa2, 0x1c, 0x98, 0x29,
  0xdc, 0x2b, 0x7f, 0x2b, 0xce, 0x2c, 0x83, 0xa3, 0xe6, 0xa6, 0xf7, 0xb0,
  0xaa, 0x2b, 0x09, 0x32, 0x9e, 0x30, 0xea, 0xb2, 0x28, 0x31, 0x7f, 0x2c,
  0xaf, 0xb1, 0xae, 0x31, 0xd8, 0x30, 0xca, 0x31, 0x8c, 0xb2, 0x7d, 0xaa,
  0xb8, 0x21, 0x18, 0xae, 0x69, 0xa3, 0x3f, 0xad, 0x09, 0x2d, 0x83, 0xb1,
  0x88, 0x24, 0xc2, 0x31, 0x6d, 0x31, 0x94, 0x2c, 0x33, 0xad, 0x4a, 0xae,
  0xc9, 0x31, 0xc7, 0x29, 0xda, 0xa0, 0xb3, 0xb0, 0x68, 0xaa, 0x77, 0xb1,
  0x02, 0x2e, 0x37, 0x29, 0x8f, 0xa5, 0x36, 0x27, 0xfe, 0x1f, 0xa1, 0x24,
  0xd7, 0x2e, 0x03, 0xae, 0xc4, 0x9c, 0x01, 0x31, 0xee, 0x1e, 0x27, 0x9e,
  0x76, 0x30, 0xe3, 0x1f, 0xaf, 0xa2, 0x0b, 0x2f, 0xb1, 0x2a, 0xc5, 0xb2,
  0x76, 0x2d, 0xd5, 0xa6, 0xb5, 0x29, 0x80, 0xa6, 0x76, 0x31, 0x6e, 0xb3,
  0x84, 0x2f, 0x12, 0x30, 0x09, 0xb0, 0x68, 0x89, 0x37, 0x31, 0x6c, 0x2a,
  0x08, 0x31, 0xf2, 0x31, 0x5e, 0x33, 0x05, 0x33, 0xbc, 0x32, 0xf5, 0x9e,
  0xc5, 0xa1, 0x38, 0xb0, 0x1a, 0xac, 0x81, 0x2d, 0x81, 0x30, 0x08, 0x2b,
  0x96, 0x31, 0xf1, 0x30, 0x94, 0x2f, 0x97, 0x2b, 0x34, 0xa9, 0xa7, 0xaf,
  0x42, 0x2e, 0x28, 0xad, 0x61, 0xa3, 0x2d, 0x31, 0x22, 0x33, 0xde, 0x17,
  0x6f, 0x30, 0xed, 0x30, 0x8c, 0xaf, 0x80, 0x24, 0x4f, 0x27, 0xb0, 0x31,
  0x48, 0xb2, 0x96, 0xae, 0xff, 0x2f, 0x2e, 0x30, 0x92, 0xb0, 0x87, 0x2e,
  0x2e, 0x16, 0xc8, 0xaf, 0xdf, 0x2a, 0x75, 0x30, 0x03, 0xb1, 0x4d, 0xb1,
  0x38, 0x30, 0x45, 0x9e, 0x40, 0x30, 0x1f, 0xb2, 0x1e, 0xb2, 0x95, 0x2e,
  0x14, 0xaa, 0xbe, 0x28, 0x02, 0xac, 0x6c, 0x2e, 0x7e, 0x2d, 0xac, 0xb2,
  0x01, 0x30, 0x2d, 0x20, 0xe7, 0xac, 0x98, 0x30, 0x14, 0x2a, 0x5a, 0x2c,
  0xb2, 0xb0, 0x17, 0x30, 0x4b, 0xb2, 0x6e, 0xb0, 0x28, 0x2e, 0x1a, 0xb1,
  0x8e, 0x31, 0x5e, 0x30, 0x85, 0x2c, 0xf7, 0x31, 0xe0, 0x29, 0x9c, 0xa8,
  0xd3, 0x30, 0xd7, 0x28, 0xee, 0xad, 0x4e, 0xab, 0xd4, 0x2c, 0x92, 0x25,
  0x58, 0xa5, 0x62, 0x2e, 0xb4, 0xb1, 0x6b, 0xae, 0xf7, 0xb2, 0xd7, 0xa1,
  0x3e, 0x25, 0x98, 0x2a, 0x2a, 0x28, 0x77, 0x29, 0x1c, 0x2b, 0x1a, 0x29,
  0x0b, 0xac, 0x61, 0x31, 0x30, 0xac, 0x75, 0x2e, 0xc5, 0x31, 0x2a, 0x24,
  0xda, 0xae, 0x17, 0xa9, 0x97, 0xb1, 0x71, 0xb1, 0x8b, 0x2a, 0x2c, 0x30,
  0x53, 0xa1, 0x80, 0x1d, 0x20, 0x28, 0xc3, 0xad, 0xc9, 0xaa, 0x77, 0xb0,
  0x41, 0x1e, 0xd3, 0x2c, 0x46, 0x32, 0xfa, 0xb1, 0x34, 0x2f, 0xdc, 0xb0,
  0xeb, 0x2f, 0x21, 0xb0, 0x9d, 0xb0, 0xaf, 0xb0, 0xd8, 0x31, 0xe2, 0xb0,
  0x21, 0x31, 0x4d, 0x31, 0x7b, 0xb0, 0x38, 0x31, 0x73, 0x31, 0x38, 0xb2,
  0x90, 0xb0, 0x4a, 0x31, 0x7d, 0xaf, 0x22, 0x30, 0xb6, 0xae, 0xd3, 0xa6,
  0x6f, 0xb0, 0x11, 0x25, 0x99, 0xb0, 0x96, 0xae, 0xac, 0x24, 0x90, 0xa9,
  0x7e, 0xa6, 0x77, 0xaf, 0x19, 0x2f, 0x7c, 0x31, 0x8d, 0x2e, 0x8d, 0xb1,
  0x93, 0xb1, 0xa2, 0xb0, 0xe5, 0xa5, 0x14, 0xa7, 0x0a, 0x26, 0x9e, 0x2a,
  0xe6, 0x2e, 0xaa, 0x2d, 0x45, 0x2c, 0xc5, 0xad, 0xc0, 0xa8, 0x81, 0xad,
  0xd2, 0xb1, 0xde, 0xa1, 0xbe, 0xb1, 0x74, 0x30, 0x35, 0x31, 0x6c, 0x1e,
  0x02, 0xb0, 0x88, 0xac, 0xfd, 0x29, 0x50, 0x31, 0xf6, 0x30, 0x32, 0x2b,
  0x47, 0x2e, 0x48, 0xa9, 0x02, 0xb0, 0x30, 0xb0, 0x25, 0xaa, 0x71, 0xa2,
  0x5e, 0x26, 0xd9, 0x30, 0x44, 0x32, 0x11, 0xb0, 0x0c, 0x30, 0x73, 0xab,
  0x5c, 0x2f, 0xa3, 0xb1, 0x9a, 0xa2, 0x20, 0x30, 0x2b, 0xa8, 0x7f, 0xad,
  0x97, 0x31, 0x64, 0xaf, 0xfa, 0xb0, 0x3e, 0x24, 0x7f, 0x2f, 0x4b, 0xaf,
  0x1f, 0x31, 0xa4, 0xb2, 0xe0, 0x30, 0x26, 0xb0, 0x24, 0xa0, 0x1d, 0xaf,
  0xd9, 0xb1, 0xc7, 0x32, 0x03, 0x2e, 0x9a, 0xb1, 0x36, 0xb1, 0x54, 0x9e,
  0xe7, 0x2f, 0x66, 0x2e, 0x60, 0xa2, 0x0d, 0x29, 0x81, 0xb1, 0x72, 0x2e,
  0xb7, 0xa8, 0xd8, 0xb1, 0x27, 0xb1, 0xdc, 0xab, 0xdf, 0xb0, 0x58, 0xad,
  0x6f, 0x32, 0x44, 0xa0, 0x85, 0xb0, 0x84, 0x30, 0x88, 0x31, 0xb9, 0x16,
  0x9c, 0xa2, 0xad, 0x20, 0x98, 0xab, 0xb6, 0x2d, 0x04, 0x2d, 0xac, 0x31,
  0x1c, 0x30, 0x37, 0x27, 0x1f, 0xa6, 0x9a, 0x31, 0xdb, 0x2b, 0xec, 0x2c,
  0x17, 0x30, 0xd2, 0x2a, 0xa8, 0xaa, 0x59, 0x2a, 0x5c, 0xad, 0x32, 0x30,
  0x9f, 0xac, 0x4a, 0x28, 0xf7, 0x28, 0xd4, 0xaf, 0x4e, 0xb2, 0xea, 0x30,
  0x3a, 0xb3, 0xd2, 0xad, 0x33, 0x2e, 0xb0, 0x27, 0x04, 0x31, 0xfc, 0xb2,
  0x23, 0x2c, 0x30, 0xae, 0x0a, 0x28, 0x34, 0x30, 0x70, 0x2f, 0x1f, 0xb3,
  0x2c, 0xae, 0x12, 0x30, 0x42, 0x2e, 0x40, 0xb2, 0xa9, 0x2d, 0x41, 0x2e,
  0xf1, 0xb0, 0x66, 0xa8, 0x71, 0xb0, 0x95, 0xb1, 0x0c, 0xac, 0x5f, 0xac,
  0x94, 0x25, 0x85, 0x2f, 0x14, 0x32, 0xa7, 0x24, 0x68, 0x2e, 0x30, 0x2e,
  0x01, 0x2a, 0x59, 0xad, 0xa7, 0x2e, 0x56, 0xa1, 0xea, 0xae, 0xf3, 0xad,
  0x34, 0xa9, 0xdc, 0x2e, 0xca, 0xac, 0x8a, 0x2f, 0xb8, 0x2a, 0x1a, 0xa2,
  0x8b, 0x2d, 0xf4, 0x30, 0x9d, 0x2f, 0x56, 0x2b, 0xb3, 0x1f, 0xb3, 0x9c,
  0xb9, 0x2f, 0x1d, 0xa6, 0x81, 0x31, 0x86, 0x2e, 0x5e, 0xb3, 0xb8, 0x1b,
  0x3c, 0xad, 0xb3, 0x2d, 0x93, 0x31, 0x2b, 0x9d, 0xd0, 0xac, 0xef, 0xa9,
  0x7c, 0xac, 0xaa, 0x2e, 0x84, 0x2f, 0xc3, 0x1d, 0x09, 0xb2, 0x3c, 0xa5,
  0x97, 0x32, 0xae, 0x12, 0x3f, 0x2c, 0x49, 0xb2, 0xe5, 0x2d, 0x56, 0x2e,
  0x98, 0x2a, 0xad, 0x98, 0x26, 0x2d, 0x18, 0xb1, 0xfb, 0x2a, 0x7d, 0xa9,
  0xc1, 0x32, 0xf4, 0xa0, 0x89, 0x32, 0x17, 0xaa, 0xcc, 0xad, 0xd2, 0x2e,
  0x7a, 0x2d, 0x92, 0xb1, 0x53, 0xaf, 0xd3, 0xa5, 0x84, 0x30, 0x9b, 0x30,
  0xf6, 0xac, 0x96, 0xb2, 0x3a, 0x31, 0x3a, 0xac, 0x62, 0x2c, 0x6d, 0xb1,
  0x23, 0xa9, 0x87, 0x2b, 0xed, 0x30, 0x09, 0xb0, 0x3b, 0xb0, 0x74, 0xac,
  0x58, 0x30, 0x04, 0xaf, 0xcb, 0xb1, 0x62, 0xa9, 0xd0, 0x30, 0x0e, 0xb1,
  0x02, 0x25, 0xd3, 0x30, 0xc6, 0x2e, 0x3e, 0x31, 0x9a, 0xae, 0xf5, 0x2f,
  0xf3, 0xb1, 0x20, 0x2d, 0x27, 0x2c, 0xda, 0x2e, 0x36, 0x30, 0xef, 0x2f,
  0x37, 0x30, 0xde, 0xb1, 0xce, 0x26, 0xb7, 0xb1, 0x6c, 0x2c, 0x99, 0xac,
  0x89, 0xad, 0x9c, 0x9f, 0x83, 0x25, 0xe3, 0xae, 0x76, 0xb2, 0x5c, 0x31,
  0x83, 0x29, 0xbd, 0x32, 0x31, 0x2d, 0xb5, 0x2f, 0x49, 0xb1, 0x56, 0x9a,
  0xf5, 0x31, 0x23, 0xa4, 0x72, 0xae, 0x11, 0x27, 0xfd, 0xb0, 0x0c, 0xb1,
  0x5f, 0xaf, 0xd1, 0x27, 0x5d, 0xb1, 0xf6, 0x2d, 0x9e, 0xae, 0x11, 0xb2,
  0x42, 0xb0, 0xef, 0x15, 0x2d, 0x2e, 0x24, 0xaa, 0x88, 0xb2, 0x0b, 0xa3,
  0x14, 0x32, 0x03, 0xb0, 0xc9, 0xa0, 0xa4, 0x2e, 0xc3, 0xac, 0x09, 0xae,
  0x41, 0x31, 0x78, 0xb0, 0xb4, 0x23, 0x98, 0x32, 0x77, 0x29, 0xde, 0x30,
  0x9a, 0x2f, 0x55, 0xae, 0x54, 0x28, 0xc6, 0x31, 0x4e, 0xaf, 0x1b, 0x2e,
  0x22, 0xad, 0x05, 0xb2, 0x58, 0xb1, 0x3e, 0x2e, 0x2c, 0xb2, 0x29, 0x31,
  0xdd, 0xad, 0x34, 0xad, 0x45, 0xb2, 0x98, 0x28, 0xe3, 0xb1, 0xfa, 0x2e,
  0x1f, 0xa5, 0x55, 0xb2, 0x53, 0x2e, 0x94, 0x2f, 0x76, 0xb2, 0x87, 0xb1,
  0xb9, 0xaf, 0x5a, 0xb1, 0xfc, 0x24, 0x31, 0xb1, 0x68, 0x2e, 0x85, 0xb1,
  0x30, 0xb2, 0x13, 0x20, 0xda, 0x9b, 0xff, 0x2b, 0x64, 0xb1, 0x5f, 0x31,
  0x50, 0xb1, 0x56, 0x31, 0x8b, 0x32, 0x57, 0x26, 0x51, 0x2a, 0xd2, 0xaf,
  0x6a, 0x2b, 0x05, 0x31, 0x3f, 0xb2, 0x45, 0x30, 0xea, 0xad, 0xb5, 0x20,
  0x50, 0x30, 0x26, 0x18, 0xc7, 0xad, 0xc9, 0xaf, 0xa0, 0x27, 0x75, 0xaf,
  0xb5, 0xb0, 0x1d, 0xb2, 0xc3, 0x32, 0x19, 0xb2, 0x9a, 0xb0, 0x82, 0x2d,
  0x7c, 0x30, 0x19, 0x32, 0xe9, 0x2c, 0x5e, 0x32, 0x8a, 0xae, 0x2c, 0x2d,
  0xc6, 0x29, 0x1e, 0xb2, 0xcf, 0x31, 0xc4, 0x2b, 0x6e, 0x2e, 0x21, 0x30,
  0xff, 0x2b, 0x84, 0xaf, 0x7a, 0x2e, 0xf6, 0x28, 0x8f, 0xae, 0x42, 0x30,
  0x04, 0x9e, 0x98, 0x29, 0xfa, 0x30, 0x63, 0x32, 0x5a, 0xa5, 0xff, 0x29,
  0xa7, 0xa6, 0xb9, 0x2e, 0xf7, 0x29, 0xf9, 0x2f, 0x9d, 0xad, 0x13, 0xae,
  0x5a, 0xab, 0x4d, 0x2f, 0xcc, 0x30, 0x91, 0xad, 0xbe, 0x2e, 0x12, 0x32,
  0x45, 0x30, 0x6f, 0x25, 0x15, 0xaa, 0xf3, 0x31, 0x41, 0x2c, 0xa0, 0xac,
  0x67, 0x29, 0x7d, 0xaf, 0x49, 0xaf, 0x13, 0x32, 0x66, 0x2e, 0x3f, 0xb1,
  0x4f, 0xa9, 0x89, 0x9e, 0xa6, 0xac, 0x28, 0xb0, 0x2c, 0x30, 0xfc, 0x2f,
  0x1c, 0xad, 0xac, 0xb2, 0x34, 0x30, 0x2d, 0xb1, 0x0a, 0xa5, 0xaf, 0xb0,
  0x08, 0xac, 0xd0, 0x2f, 0xaa, 0x32, 0xd8, 0xae, 0x44, 0x31, 0x41, 0xb0,
  0x28, 0xb1, 0x16, 0x2a, 0x2f, 0xa0, 0x0c, 0x2e, 0xa1, 0x30, 0x40, 0xad,
  0x24, 0x2a, 0xf3, 0x2b, 0xea, 0x24, 0xf0, 0xa8, 0x73, 0x29, 0x0b, 0xb2,
  0x78, 0xa8, 0x48, 0xaf, 0xf4, 0xb1, 0x03, 0x31, 0x87, 0xaf, 0x58, 0xad,
  0xd8, 0x31, 0x50, 0xb0, 0xc9, 0xa8, 0xa1, 0x31, 0xfb, 0x2c, 0x7e, 0x2e,
  0xc4, 0x2c, 0xc3, 0xa0, 0xcc, 0x31, 0x7d, 0x31, 0x8f, 0x15, 0xdb, 0xa7,
  0x30, 0xad, 0x6c, 0x29, 0x11, 0xb1, 0x38, 0xb1, 0xe4, 0xb1, 0xd5, 0x2e,
  0x5d, 0x29, 0x9f, 0x2e, 0x4a, 0x24, 0xe8, 0xae, 0x39, 0x26, 0xf1, 0xa0,
  0x6d, 0xaa, 0x79, 0x30, 0xd1, 0xab, 0x8a, 0x0c, 0x29, 0xb0, 0x4d, 0xa9,
  0x1f, 0xa8, 0x31, 0xae, 0x08, 0x2f, 0x99, 0xaa, 0x4d, 0xaf, 0x01, 0x30,
  0xb3, 0xac, 0x9e, 0x31, 0x82, 0xa8, 0xc9, 0x31, 0x37, 0xb1, 0x61, 0xad,
  0x69, 0x32, 0xf3, 0xa4, 0xf2, 0xae, 0x73, 0x27, 0xff, 0xae, 0x18, 0x2d,
  0xe8, 0xa6, 0x48, 0x32, 0x58, 0x31, 0x7c, 0x32, 0x42, 0x21, 0x6a, 0xa3,
  0x0c, 0x98, 0x24, 0x30, 0x91, 0xb1, 0x29, 0x30, 0x75, 0x31, 0x9e, 0xab,
  0x5a, 0x31, 0x6c, 0x31, 0xac, 0x2f, 0xa7, 0x9b, 0xab, 0x30, 0x7e, 0x2c,
  0xf0, 0xa9, 0x63, 0x31, 0x4f, 0xb1, 0x9d, 0xad, 0xa5, 0xb1, 0x08, 0x2f,
  0x90, 0x30, 0x18, 0x32, 0xea, 0xb1, 0x1b, 0x29, 0x78, 0xaf, 0x43, 0xaf,
  0x1e, 0xb0, 0x2a, 0xb2, 0x56, 0xad, 0x31, 0x2c, 0x20, 0x21, 0x65, 0xb0,
  0xc2, 0x22, 0x63, 0xaf, 0x7f, 0xaa, 0xf2, 0x31, 0x17, 0xb0, 0x10, 0x2e,
  0x6f, 0xb1, 0x81, 0x23, 0x51, 0x2d, 0x12, 0x1d, 0x41, 0x31, 0x42, 0x2c,
  0x27, 0xa7, 0x44, 0xb1, 0x8a, 0xb0, 0xd0, 0x2d, 0x24, 0x30, 0xa0, 0x30,
  0x14, 0xab, 0x92, 0xb0, 0xc7, 0x31, 0xa5, 0xb0, 0x7c, 0x2c, 0xe0, 0x2d,
  0xed, 0x2c, 0xf6, 0x31, 0x56, 0x28, 0x11, 0xb2, 0x54, 0xa4, 0x93, 0x1d,
  0xd2, 0xa9, 0x27, 0x2c, 0x0f, 0x2d, 0x01, 0xb0, 0xab, 0xaa, 0x77, 0xae,
  0x52, 0xab, 0xf4, 0xb1, 0x2b, 0xa9, 0x3c, 0xa8, 0xd7, 0xb0, 0x74, 0xb1,
  0xc6, 0x31, 0x1f, 0x30, 0x08, 0xb1, 0x89, 0xb0, 0x8e, 0x2c, 0x1d, 0x2a,
  0x1b, 0xb0, 0x7e, 0xa8, 0x6d, 0xb1, 0x18, 0x27, 0x2f, 0xaf, 0xd6, 0x9a,
  0xb2, 0x28, 0x8a, 0xb0, 0x03, 0x31, 0xa6, 0xa5, 0x38, 0x2d, 0x67, 0x29,
  0xa2, 0xae, 0xc5, 0x2f, 0x6b, 0xa5, 0x18, 0xae, 0x04, 0xa0, 0xa3, 0xb0,
  0x85, 0xa9, 0xef, 0x28, 0x0a, 0x30, 0x36, 0xab, 0x5d, 0xb3, 0x81, 0xab,
  0x25, 0xb0, 0x23, 0xa4, 0x44, 0xae, 0x06, 0x31, 0xbf, 0xaf, 0x22, 0xac,
  0x31, 0xb2, 0x66, 0x30, 0x55, 0x2d, 0x7a, 0xb2, 0x99, 0xa7, 0x90, 0x2c,
  0x8f, 0x2c, 0x1a, 0xb0, 0x89, 0xa4, 0x12, 0x2b, 0x0e, 0xb0, 0xd5, 0xb0,
  0x25, 0x2f, 0x11, 0xb2, 0x2e, 0x29, 0x11, 0xa8, 0x01, 0xa7, 0xd8, 0x28,
  0x74, 0xa9, 0xb1, 0xa9, 0xd7, 0xa8, 0x92, 0xa9, 0x18, 0x2a, 0xaf, 0x32,
  0xb3, 0x30, 0x1b, 0xaa, 0x20, 0x31, 0xbc, 0x30, 0xf3, 0x2c, 0x5b, 0x17,
  0x27, 0xb1, 0xf9, 0x2d, 0x38, 0x29, 0xfa, 0xb2, 0x6a, 0x29, 0x8d, 0xae,
  0x50, 0xa9, 0x03, 0x1c, 0x5f, 0x2c, 0x08, 0x28, 0xd9, 0xaf, 0x01, 0xae,
  0xac, 0xa8, 0x61, 0x30, 0x08, 0x2a, 0x95, 0x33, 0xd2, 0x30, 0x46, 0xaa,
  0xa0, 0xa8, 0xa1, 0xac, 0x61, 0x31, 0x12, 0x27, 0x8a, 0x31, 0xcc, 0x2e,
  0x07, 0x2f, 0x9f, 0x2e, 0xcc, 0xad, 0x76, 0x2c, 0x17, 0xad, 0x12, 0xaf,
  0x2a, 0x31, 0x90, 0xb1, 0xb5, 0x2d, 0xf7, 0x2f, 0xaa, 0xa9, 0x3e, 0xa7,
  0x2b, 0x2b, 0xe2, 0xa9, 0x4a, 0xb2, 0x5b, 0x2f, 0x49, 0x26, 0x89, 0x2c,
  0x20, 0x2f, 0x13, 0x30, 0x22, 0x25, 0xf9, 0xb0, 0x06, 0x32, 0x74, 0xb1,
  0xa4, 0x24, 0xd4, 0xac, 0xbc, 0x31, 0x09, 0x2f, 0xfe, 0xae, 0xa6, 0x30,
  0xcf, 0x2e, 0xb3, 0xb1, 0xef, 0x2f, 0x91, 0xa9, 0xc1, 0xae, 0x09, 0x32,
  0x0f, 0x33, 0x66, 0x97, 0x6e, 0xb1, 0x79, 0x9c, 0x6a, 0x2d, 0xec, 0x23,
  0x0b, 0xb2, 0x61, 0x32, 0xa2, 0x9a, 0x45, 0xae, 0x10, 0xb1, 0x91, 0x2c,
  0x32, 0x30, 0x12, 0x30, 0x0d, 0x31, 0xa6, 0x2d, 0x13, 0xb0, 0xc0, 0xaf,
  0x7e, 0x32, 0xfb, 0x2e, 0x32, 0xb1, 0xa9, 0xaf, 0x5a, 0x31, 0x45, 0xac,
  0x53, 0x2d, 0xd2, 0xa6, 0x92, 0x2d, 0x67, 0xa9, 0x38, 0x2c, 0x92, 0xaf,
  0xa5, 0x30, 0x86, 0xae, 0xf3, 0xb2, 0x12, 0x2c, 0x8e, 0x2c, 0xb5, 0xaf,
  0xc9, 0xac, 0x86, 0x31, 0x76, 0xa9, 0x1c, 0x2f, 0xe4, 0x31, 0x0b, 0x2f,
  0x37, 0x2f, 0xe3, 0xb0, 0x98, 0xb0, 0x54, 0xab, 0x5c, 0xad, 0x2a, 0xaa,
  0x31, 0x31, 0x6b, 0xb3, 0x31, 0x31, 0xd3, 0x30, 0x35, 0x31, 0x3d, 0x2f,
  0x72, 0x32, 0xa0, 0xac, 0x90, 0xa7, 0x61, 0xb1, 0xca, 0x31, 0xe8, 0xa5,
  0x52, 0x27, 0x58, 0xa9, 0x47, 0x27, 0xdc, 0xaf, 0xb6, 0xb2, 0x89, 0xac,
  0x75, 0x2b, 0x5f, 0xb1, 0xce, 0x31, 0x99, 0x2b, 0x92, 0xae, 0x05, 0x20,
  0x72, 0xab, 0xd2, 0x30, 0x32, 0xb1, 0xbd, 0x31, 0x37, 0xaf, 0x80, 0x31,
  0xd3, 0xaf, 0x27, 0xb1, 0x14, 0xad, 0x01, 0xa2, 0x70, 0xac, 0x81, 0xb1,
  0xdb, 0xb1, 0x55, 0x32, 0x7d, 0xb2, 0x9f, 0x29, 0x1a, 0xb2, 0x46, 0x32,
  0x85, 0xb0, 0x59, 0x32, 0xb6, 0x30, 0xa4, 0xb1, 0xa8, 0xae, 0x30, 0xac,
  0xb2, 0x2e, 0x62, 0xa9, 0x89, 0x28, 0x98, 0xae, 0x5d, 0xaa, 0x29, 0x31,
  0x84, 0xb1, 0xeb, 0x1a, 0x1f, 0x2e, 0xdf, 0xa5, 0x12, 0x2d, 0x00, 0xaf,
  0xe6, 0xae, 0xb9, 0x30, 0xf1, 0x18, 0xd0, 0x2d, 0xb1, 0xb0, 0x13, 0xb2,
  0xe1, 0xad, 0xa5, 0x31, 0x68, 0x31, 0x3a, 0x32, 0x16, 0xb2, 0x6a, 0x2e,
  0x86, 0xae, 0x05, 0x30, 0xc7, 0xa6, 0xa4, 0x31, 0xae, 0xae, 0xae, 0xb0,
  0x69, 0xac, 0xf3, 0x9f, 0xf4, 0xa1, 0x10, 0x30, 0x20, 0x31, 0xa1, 0xab,
  0xc4, 0x2c, 0xde, 0x2c, 0x49, 0x2c, 0x1b, 0xa4, 0x08, 0xb0, 0x57, 0x30,
  0x0a, 0x32, 0x4a, 0xae, 0xdd, 0x31, 0x3c, 0xa7, 0xa0, 0x28, 0x5c, 0xa8,
  0x84, 0x23, 0x28, 0x25, 0xce, 0xae, 0x39, 0x2c, 0xc8, 0x2d, 0x89, 0x30,
  0x27, 0x30, 0xe3, 0xac, 0x72, 0xb2, 0x38, 0x28, 0xf3, 0x9f, 0x93, 0x32,
  0xf7, 0x30, 0xd0, 0x31, 0x1a, 0x31, 0x6e, 0x2c, 0xe0, 0x99, 0x19, 0xb0,
  0x1f, 0xab, 0xa4, 0x2d, 0x3c, 0xb3, 0xc4, 0x2f, 0x0b, 0x2d, 0x81, 0xae,
  0xde, 0x23, 0x6a, 0x29, 0xe6, 0x31, 0x95, 0x29, 0xd9, 0xac, 0x8f, 0x30,
  0x39, 0xb1, 0xbb, 0xae, 0x21, 0x2c, 0x33, 0xaf, 0x61, 0x30, 0x95, 0x2d,
  0x5e, 0xad, 0x6a, 0xb2, 0x1d, 0xb1, 0x02, 0x1d, 0x49, 0x25, 0xfa, 0x25,
  0xb9, 0xb1, 0x38, 0x2d, 0xde, 0xb0, 0x21, 0x2a, 0x89, 0x10, 0x59, 0xac,
  0xe4, 0xaf, 0x58, 0xa0, 0xa3, 0xad, 0x9c, 0xab, 0x46, 0xb3, 0xe0, 0xad,
  0x27, 0x28, 0x76, 0x31, 0x2a, 0xb2, 0xbe, 0xb0, 0x61, 0xaf, 0xfe, 0xa5,
  0x46, 0xa7, 0x1f, 0x25, 0xf2, 0x2e, 0x1d, 0xac, 0x18, 0xaf, 0x7d, 0xb0,
  0x13, 0x25, 0x4b, 0x25, 0x11, 0xab, 0xd4, 0xa8, 0x6c, 0x32, 0x76, 0x32,
  0x5e, 0xa8, 0x48, 0x2e, 0xce, 0x28, 0x49, 0xb1, 0xaf, 0x2c, 0x30, 0xa7,
  0x98, 0x25, 0x56, 0xaf, 0x0e, 0x25, 0xcd, 0xaf, 0x55, 0x34, 0xc1, 0xad,
  0xa8, 0xb3, 0xaa, 0x30, 0xf6, 0xaa, 0x4d, 0x26, 0x84, 0x29, 0x1d, 0x33,
  0x4f, 0x2f, 0x0a, 0x2b, 0xb6, 0xac, 0xd1, 0x2e, 0x7f, 0x30, 0x17, 0x29,
  0x57, 0xae, 0x6c, 0xae, 0xba, 0x29, 0x43, 0xb0, 0xaf, 0x32, 0xff, 0xa0,
  0xdf, 0x2c, 0x75, 0x31, 0xc1, 0x2d, 0xc6, 0xab, 0xc5, 0x31, 0x52, 0x29,
  0x22, 0xae, 0xb3, 0x31, 0x08, 0xb2, 0xdd, 0x2d, 0xd6, 0xb0, 0xa6, 0x31,
  0x2b, 0xb2, 0xfa, 0xac, 0xd3, 0x31, 0x29, 0x2d, 0x58, 0xb3, 0x00, 0xb3,
  0xe2, 0xaf, 0x8d, 0x2d, 0x56, 0xb0, 0xfd, 0xa8, 0x94, 0xad, 0x23, 0x30,
  0xed, 0x30, 0xfc, 0xae, 0x13, 0xaa, 0x00, 0xb0, 0x4b, 0xac, 0x1b, 0xb0,
  0x78, 0x96, 0x79, 0x30, 0x96, 0xb1, 0xe4, 0x2c, 0xf4, 0xb2, 0x08, 0xad,
  0xe3, 0xad, 0xc5, 0x2f, 0x9d, 0x2c, 0x6b, 0xac, 0xc0, 0xb1, 0xb3, 0xaf,
  0xf5, 0xb1, 0x5b, 0x21, 0x63, 0x2f, 0x25, 0xa4, 0x1b, 0x2f, 0x28, 0xad,
  0x5a, 0x2c, 0x22, 0xaf, 0xcb, 0xa9, 0x14, 0x31, 0x2d, 0x32, 0x1a, 0x2d,
  0x76, 0xaa, 0x2b, 0xa0, 0x25, 0xb2, 0xd4, 0x9e, 0xda, 0xad, 0x01, 0x30,
  0xe7, 0xb1, 0x55, 0x2e, 0x05, 0x23, 0x2a, 0xb2, 0x49, 0xae, 0xfb, 0x31,
  0x0f, 0xac, 0x22, 0x2c, 0xe6, 0x31, 0xc4, 0xb0, 0x6b, 0x2d, 0x36, 0x30,
  0x16, 0xaf, 0x76, 0xb0, 0x53, 0x2e, 0x61, 0xaa, 0xa9, 0xa2, 0xeb, 0xab,
  0x7c, 0xb2, 0xff, 0x28, 0x45, 0x29, 0x6b, 0x2f, 0x5f, 0xaa, 0x6d, 0x32,
  0x82, 0xb1, 0x88, 0x2c, 0x93, 0x32, 0xcf, 0x2e, 0x7b, 0x21, 0xe6, 0xad,
  0x7d, 0x25, 0x56, 0x31, 0x7b, 0xa5, 0x8f, 0x2f, 0xaf, 0xaf, 0xe2, 0x28,
  0x2f, 0xad, 0x30, 0xb2, 0xc0, 0x32, 0x66, 0xac, 0x0c, 0x94, 0x97, 0xa9,
  0x56, 0x31, 0x02, 0xb0, 0xfa, 0xac, 0x93, 0x22, 0x84, 0x1d, 0x44, 0xb1,
  0x3f, 0x2e, 0x7b, 0xb1, 0x76, 0x32, 0xa7, 0x30, 0x9e, 0x27, 0x39, 0x31,
  0xb1, 0xb1, 0x34, 0x2f, 0xc0, 0xb1, 0xfc, 0x31, 0xb3, 0xad, 0x40, 0x2f,
  0x48, 0x28, 0xfd, 0xae, 0x12, 0xac, 0x0a, 0x32, 0x42, 0xad, 0xb9, 0x2d,
  0x81, 0x30, 0x53, 0xa4, 0x5a, 0xa7, 0xdd, 0x2c, 0x46, 0x2f, 0xd9, 0x2c,
  0x63, 0x9e, 0x40, 0xb0, 0x79, 0xb1, 0x99, 0xaa, 0xe1, 0xb0, 0x56, 0x1c,
  0xbb, 0x2e, 0x7a, 0xb0, 0x2d, 0x30, 0x5d, 0xb1, 0xb3, 0x2f, 0x3d, 0xae,
  0x30, 0x32, 0x7d, 0xb0, 0xa9, 0xb0, 0x26, 0x31, 0x46, 0x2e, 0x88, 0xb1,
  0xb7, 0xb0, 0x34, 0x32, 0xbd, 0x2e, 0x41, 0xb2, 0x4c, 0xab, 0xee, 0xa8,
  0xf4, 0xad, 0x2b, 0x27, 0x0b, 0xad, 0x62, 0xa3, 0x5b, 0x2c, 0x45, 0x33,
  0x8a, 0xb0, 0x62, 0x2c, 0x46, 0xb3, 0x58, 0xa0, 0x5f, 0xa2, 0xaf, 0xa9,
  0xce, 0xa6, 0xc6, 0x31, 0x2f, 0x2e, 0x08, 0xac, 0xf2, 0xb0, 0x9d, 0x32,
  0xc2, 0xa4, 0x03, 0xb4, 0xd6, 0xaf, 0xaa, 0x2a, 0x87, 0x2f, 0xe5, 0x9e,
  0x43, 0x2e, 0xbd, 0x31, 0xc3, 0x29, 0xde, 0x2f, 0xcc, 0x32, 0xcc, 0x31,
  0x5b, 0x32, 0xad, 0xb1, 0x2d, 0xad, 0x27, 0xae, 0xaa, 0x2c, 0x89, 0x9a,
  0x77, 0x9f, 0x50, 0x2c, 0x7f, 0xaf, 0x41, 0x32, 0x55, 0xb0, 0x49, 0x31,
  0xc3, 0x2e, 0x99, 0x2f, 0x1e, 0x30, 0x0d, 0x33, 0x70, 0xa7, 0x8f, 0x30,
  0x53, 0xaf, 0x38, 0x30, 0x08, 0x2c, 0x68, 0x30, 0x11, 0xb2, 0x78, 0x32,
  0xaa, 0xac, 0x8e, 0x2d, 0x5b, 0x31, 0x92, 0xa4, 0x96, 0xae, 0x0c, 0xa8,
  0x70, 0x2d, 0x32, 0x30, 0x25, 0xaf, 0x38, 0xb2, 0x18, 0xb1, 0x30, 0x2d,
  0x0c, 0x30, 0x2f, 0x31, 0x69, 0xa4, 0x15, 0x2c, 0x99, 0x28, 0xd5, 0xa9,
  0xee, 0xb0, 0x41, 0x26, 0x0a, 0xac, 0xa6, 0x31, 0x1e, 0x32, 0x12, 0x32,
  0xb7, 0x2e, 0xd0, 0x26, 0x17, 0xab, 0x93, 0x31, 0xf1, 0xb2, 0x88, 0x30,
  0xd9, 0x2d, 0x86, 0x28, 0x12, 0x1d, 0x51, 0xb1, 0x42, 0x30, 0x35, 0x25,
  0x1b, 0xb2, 0x3d, 0xb2, 0xc3, 0xa6, 0x86, 0x8b, 0x18, 0xb0, 0x09, 0xad,
  0x98, 0x30, 0x22, 0xac, 0x9b, 0xb1, 0x69, 0x2f, 0x50, 0x9c, 0xfc, 0x25,
  0xad, 0xb0, 0xf2, 0xb0, 0xeb, 0xa3, 0x91, 0x1c, 0xa7, 0xb1, 0xba, 0xaf,
  0xa5, 0x27, 0xf6, 0x28, 0xde, 0x24, 0xf9, 0x2b, 0xf6, 0xb2, 0xae, 0xab,
  0x06, 0x32, 0x49, 0xb0, 0x9d, 0x2c, 0x1d, 0x28, 0x72, 0xae, 0xf1, 0x2e,
  0xcb, 0x30, 0x7f, 0x31, 0x25, 0x32, 0x19, 0x11, 0xf2, 0x32, 0x04, 0x82,
  0xe0, 0xae, 0x67, 0xac, 0x8a, 0xae, 0xa6, 0xa8, 0x6a, 0xb2, 0x75, 0xad,
  0xd0, 0xb2, 0x28, 0x2e, 0x7e, 0xb1, 0x62, 0x9c, 0x90, 0xad, 0x94, 0x9c,
  0x9d, 0x2f, 0xb4, 0x28, 0xf7, 0xb1, 0xab, 0xb0, 0xa4, 0xae, 0x60, 0x29,
  0xf1, 0x9f, 0xd3, 0x95, 0xfe, 0x30, 0x52, 0xaf, 0x85, 0xab, 0x2b, 0x32,
  0xec, 0x2e, 0xbe, 0x32, 0xf8, 0x2f, 0xfe, 0xa9, 0x83, 0xac, 0x05, 0x34,
  0x2b, 0x2e, 0xfb, 0xaa, 0xcf, 0xb2, 0x7b, 0x30, 0xb4, 0x2b, 0x54, 0xae,
  0xf3, 0xb1, 0x1b, 0x2c, 0x29, 0xb2, 0xcc, 0x26, 0xa9, 0x2f, 0x0a, 0x22,
  0x90, 0x95, 0x00, 0x2e, 0x26, 0x2d, 0xc4, 0xa4, 0xe3, 0xac, 0x7e, 0xae,
  0x60, 0x2d, 0xce, 0x2d, 0x3a, 0x30, 0x89, 0x2a, 0xf7, 0xaf, 0x55, 0x2d,
  0x5c, 0xab, 0xa1, 0xac, 0x32, 0x30, 0x13, 0x9d, 0xf0, 0xa2, 0x8b, 0x2c,
  0xab, 0xb0, 0x8d, 0x2a, 0x15, 0xad, 0xe3, 0x2d, 0xf6, 0x31, 0xa3, 0x9c,
  0x02, 0xb0, 0xf9, 0xa8, 0x49, 0xb0, 0x64, 0x2c, 0x7e, 0x2f, 0xdf, 0x26,
  0xd9, 0xb1, 0x7d, 0xac, 0x48, 0xa8, 0xd6, 0x2e, 0x25, 0x27, 0xbf, 0x2d,
  0x4c, 0xaa, 0xd0, 0xaa, 0x5c, 0xa8, 0xbc, 0x2c, 0xf0, 0xb0, 0x19, 0x21,
  0x10, 0x31, 0xff, 0xb2, 0xee, 0x30, 0x67, 0xb2, 0x64, 0x31, 0x7e, 0xb1,
  0x56, 0x30, 0x64, 0x31, 0x24, 0xb3, 0xed, 0xb3, 0xf3, 0x2f, 0x1c, 0xa9,
  0x0e, 0x2c, 0x12, 0xac, 0x1c, 0x98, 0x2a, 0x2d, 0x31, 0xb0, 0x6a, 0x29,
  0xff, 0x2c, 0x66, 0x2e, 0x2d, 0xb1, 0x46, 0xb2, 0xb0, 0x9f, 0xbe, 0x32,
  0x1b, 0x2c, 0xd3, 0xb2, 0x7a, 0xa9, 0x43, 0xb0, 0xee, 0x9b, 0x0f, 0x2f,
  0xee, 0xb0, 0x5a, 0xa4, 0x7d, 0xa2, 0x9b, 0x2a, 0x8c, 0xa7, 0x16, 0xad,
  0xd5, 0x30, 0x67, 0xae, 0xbf, 0xae, 0x54, 0xa9, 0xc8, 0x2e, 0x26, 0xaf,
  0x3e, 0x31, 0x2e, 0xa9, 0x2d, 0x2d, 0xbd, 0x30, 0x0d, 0xb2, 0x1f, 0x31,
  0x16, 0xaa, 0x90, 0x2f, 0x11, 0x2c, 0xec, 0xa9, 0xe8, 0xae, 0xbe, 0x26,
  0x3a, 0x2f, 0x24, 0x30, 0x41, 0x31, 0x0e, 0x31, 0x06, 0xb2, 0x28, 0x32,
  0x57, 0x2a, 0x4f, 0xaf, 0x64, 0xb1, 0xd3, 0x32, 0x5e, 0xae, 0x53, 0x2a,
  0x4a, 0xae, 0x6a, 0xb2, 0x3b, 0x2e, 0xa7, 0xb0, 0x9a, 0x23, 0x7b, 0x32,
  0x67, 0x31, 0x1e, 0x2c, 0xaf, 0xae, 0xb5, 0xb1, 0x64, 0xae, 0xda, 0xac,
  0x37, 0x32, 0xba, 0xac, 0xd0, 0xb2, 0xd6, 0xa4, 0x3e, 0xb2, 0xc9, 0xab,
  0xcd, 0xac, 0x9b, 0x2f, 0x35, 0xa9, 0xda, 0xaf, 0xa3, 0x33, 0xe4, 0x2e,
  0x96, 0x28, 0xee, 0xb2, 0x88, 0x2e, 0x2c, 0x31, 0xeb, 0x31, 0x38, 0xb1,
  0x32, 0xb1, 0xcb, 0xab, 0x7e, 0xb1, 0x8b, 0x30, 0x13, 0xb0, 0xec, 0x25,
  0x0b, 0x32, 0x50, 0x2c, 0x07, 0xb2, 0xb7, 0x23, 0xa2, 0x31, 0x24, 0x27,
  0xb1, 0xa6, 0xc5, 0x31, 0x3e, 0xb2, 0xb3, 0xad, 0x4b, 0x25, 0x7d, 0x31,
  0x6a, 0xac, 0xfb, 0xaf, 0xa0, 0xb2, 0x71, 0xb2, 0xdf, 0x2b, 0x66, 0xb1,
  0xf5, 0x2c, 0x6d, 0x23, 0x29, 0x30, 0x03, 0xb4, 0x9b, 0x30, 0x7a, 0xaf,
  0x7d, 0xa5, 0xda, 0xad, 0x7f, 0xb0, 0xa0, 0xa6, 0xc3, 0x2e, 0x13, 0xb4,
  0x3b, 0xab, 0x64, 0xad, 0x9a, 0xb0, 0x76, 0xb0, 0xa9, 0x31, 0x1a, 0x2b,
  0x61, 0x2c, 0xd6, 0xb1, 0x93, 0xac, 0x28, 0xb2, 0xae, 0x30, 0x43, 0xb2,
  0x5f, 0xb2, 0x9e, 0xa9, 0x04, 0x2d, 0x2b, 0x2a, 0x1f, 0xa5, 0xac, 0x24,
  0xaa, 0x24, 0xf5, 0x2a, 0xae, 0xa8, 0x16, 0x31, 0x75, 0x29, 0x04, 0x30,
  0xfd, 0x27, 0xd8, 0xad, 0xc4, 0xaf, 0x3a, 0xae, 0x0b, 0xab, 0x0a, 0x29,
  0x34, 0xa8, 0x4b, 0x32, 0xe2, 0x30, 0x97, 0x28, 0x1e, 0xa5, 0xed, 0xac,
  0xf9, 0x2e, 0xaa, 0xb1, 0x88, 0xb1, 0x8f, 0x2c, 0xc1, 0x30, 0xc1, 0x2e,
  0xc6, 0x9c, 0xe9, 0xaf, 0xd9, 0x30, 0x5f, 0x31, 0x96, 0x2f, 0x2e, 0x2f,
  0x3e, 0xaf, 0xd5, 0x2a, 0x40, 0xac, 0xea, 0xac, 0x94, 0x2d, 0x00, 0x2d,
  0x58, 0x2e, 0xb9, 0xa5, 0xc6, 0xa9, 0xbb, 0x2a, 0x62, 0x2f, 0x1c, 0x29,
  0xe3, 0xb0, 0x19, 0x32, 0x9c, 0x2d, 0xe4, 0x2c, 0xde, 0xa9, 0x15, 0x32,
  0xb3, 0x0d, 0xfc, 0x0e, 0x5c, 0x2d, 0x83, 0xa6, 0x26, 0x28, 0xd5, 0x26,
  0xd2, 0x29, 0x4c, 0xaa, 0x4e, 0xb0, 0x3d, 0xac, 0xa8, 0x31, 0x53, 0x30,
  0xb1, 0xa6, 0x95, 0x24, 0x93, 0xaf, 0x5e, 0x30, 0x18, 0xb2, 0xa4, 0x2e,
  0xdc, 0x30, 0xe5, 0x28, 0x54, 0x2e, 0xf8, 0xb1, 0xfe, 0xab, 0xd8, 0xae,
  0xb7, 0x2d, 0xab, 0xb1, 0xa9, 0xaf, 0x92, 0x2d, 0x18, 0x2d, 0xdd, 0xb0,
  0x0f, 0x2f, 0x26, 0x31, 0xcd, 0x94, 0x34, 0x2a, 0x70, 0xb2, 0x4c, 0xb1,
  0x37, 0xb2, 0xd4, 0xae, 0x79, 0xb1, 0xb7, 0xae, 0xf3, 0x30, 0xbf, 0xb0,
  0xcd, 0x30, 0x9e, 0x2f, 0x5a, 0x28, 0xc5, 0x21, 0xa8, 0x2c, 0x4c, 0x26,
  0x14, 0xb1, 0x66, 0xb1, 0xe9, 0x31, 0x14, 0xac, 0xe9, 0x2e, 0x96, 0x2c,
  0xfc, 0xae, 0x95, 0xa3, 0x50, 0xa9, 0x04, 0x32, 0x82, 0x24, 0xd4, 0x2c,
  0x29, 0xb0, 0xe7, 0xae, 0xd0, 0xb1, 0x1e, 0x2c, 0x56, 0xb2, 0x22, 0x2d,
  0x07, 0x30, 0x21, 0x1f, 0xeb, 0xa8, 0xed, 0x2d, 0x13, 0xb0, 0x28, 0x2f,
  0x19, 0x28, 0x3e, 0xb2, 0x0a, 0x2e, 0x74, 0xad, 0x04, 0x32, 0x18, 0xb2,
  0x07, 0x31, 0x85, 0x2d, 0x15, 0xb2, 0xf1, 0x2d, 0x14, 0xad, 0x87, 0x2c,
  0x2f, 0x29, 0x85, 0xae, 0xd3, 0x22, 0x58, 0xad, 0xfe, 0xab, 0x5e, 0xa2,
  0x5a, 0x2e, 0xa5, 0x2a, 0x18, 0xb3, 0xf4, 0x2d, 0x00, 0xaa, 0xcb, 0xae,
  0x30, 0x32, 0xfb, 0x29, 0x2d, 0x2d, 0x89, 0xa4, 0x01, 0xb4, 0xc1, 0x2c,
  0x22, 0x30, 0xfa, 0xb0, 0xe0, 0x33, 0xa9, 0xb3, 0xfb, 0x32, 0x71, 0x28,
  0x87, 0x32, 0xf3, 0xaa, 0x91, 0xab, 0xea, 0x27, 0x04, 0xac, 0x26, 0xaf,
  0x86, 0xa4, 0x1b, 0xad, 0x60, 0x31, 0xc0, 0xb1, 0xcb, 0x30, 0x04, 0xac,
  0x66, 0xb0, 0x17, 0x2c, 0x97, 0xae, 0x21, 0x31, 0xc4, 0x2f, 0xa6, 0x31,
  0x93, 0x9d, 0x8f, 0xb2, 0x46, 0x29, 0x64, 0xaa, 0x49, 0x2c, 0xbb, 0x29,
  0xfe, 0xb1, 0x0e, 0x30, 0x2c, 0xb1, 0x58, 0xb2, 0xe6, 0xab, 0xaf, 0x31,
  0x52, 0xaf, 0x07, 0xa5, 0xd3, 0xae, 0x93, 0x2e, 0xf0, 0xa9, 0xda, 0xb1,
  0x73, 0x2e, 0x7d, 0xb1, 0xc1, 0x31, 0x2f, 0x2e, 0xba, 0x28, 0x67, 0x29,
  0x90, 0xae, 0xda, 0x32, 0x94, 0x22, 0xef, 0xb0, 0x66, 0x27, 0xd0, 0xb0,
  0xe2, 0xa5, 0x8a, 0xb0, 0x86, 0xb2, 0xa7, 0x2b, 0x86, 0xb1, 0xea, 0x2f,
  0x50, 0x31, 0xd4, 0x2c, 0x70, 0xa8, 0xa6, 0xaa, 0x0a, 0xad, 0xee, 0x9d,
  0x45, 0x30, 0x18, 0x30, 0xf9, 0x2c, 0x1f, 0x32, 0x9a, 0xb1, 0x78, 0x9c,
  0xc8, 0x31, 0x5b, 0xa7, 0x6d, 0xab, 0x1b, 0x25, 0x22, 0xac, 0xf7, 0x31,
  0x5c, 0xb2, 0x0f, 0xb0, 0x9a, 0xac, 0x8e, 0xa8, 0x61, 0xaf, 0x7a, 0x31,
  0xfa, 0x9e, 0xa6, 0x31, 0x53, 0xb0, 0x79, 0xad, 0x1b, 0xb1, 0xb1, 0x2c,
  0x75, 0x2c, 0xb4, 0xb1, 0x32, 0xb2, 0xc7, 0x2f, 0x71, 0x29, 0x7c, 0x2c,
  0xf8, 0xa4, 0xb7, 0xb1, 0x8d, 0xa9, 0xb2, 0xae, 0xfa, 0x1e, 0x97, 0x2c,
  0xc7, 0x2d, 0x61, 0x97, 0xcc, 0xb2, 0xf4, 0xa6, 0xbf, 0x30, 0x71, 0x2e,
  0xf1, 0x2b, 0x22, 0xb1, 0xd6, 0xb2, 0xc3, 0xad, 0xbd, 0xac, 0x79, 0xb0,
  0x21, 0x24, 0xcd, 0xa2, 0x7c, 0xa5, 0x54, 0x16, 0xf8, 0x9f, 0x06, 0xa8,
  0xcf, 0xb2, 0x65, 0x26, 0x74, 0x20, 0xfd, 0xad, 0xbc, 0xb1, 0xfa, 0x1c,
  0x54, 0xb1, 0xc6, 0xa7, 0x5b, 0x2c, 0x0a, 0x29, 0x6b, 0x2f, 0x61, 0x31,
  0xfa, 0xa8, 0x11, 0xaf, 0xc9, 0xb2, 0x13, 0x26, 0xe6, 0xac, 0x60, 0x32,
  0xa6, 0xa9, 0xcd, 0x9e, 0x49, 0x30, 0xf9, 0x2d, 0xb5, 0xad, 0x80, 0x2b,
  0x83, 0xac, 0x8d, 0xb2, 0xde, 0x31, 0x4c, 0xad, 0x19, 0x27, 0x05, 0xae,
  0xbe, 0xa7, 0x7a, 0xb1, 0x02, 0x2f, 0xb2, 0x2a, 0x24, 0xb0, 0x82, 0x30,
  0x28, 0xac, 0xb1, 0xb0, 0x99, 0x29, 0x76, 0xaa, 0xd5, 0xb1, 0xf2, 0xb0,
  0x0c, 0xb1, 0xed, 0xa0, 0x72, 0xb1, 0xcc, 0x2a, 0xc6, 0xb0, 0xd7, 0x31,
  0x30, 0x32, 0xbd, 0xa4, 0xe5, 0x30, 0x48, 0x31, 0x1b, 0x31, 0xa6, 0xb1,
  0x18, 0x30, 0x5b, 0x9c, 0x83, 0xaf, 0x25, 0x2a, 0x71, 0x30, 0xa2, 0x32,
  0x85, 0xad, 0x50, 0x32, 0xc8, 0xa8, 0x59, 0x2c, 0x53, 0xad, 0x6c, 0xad,
  0x9e, 0x2e, 0x7c, 0x30, 0x4b, 0xb1, 0x92, 0xaf, 0xc4, 0xac, 0x0b, 0xae,
  0xdf, 0x2d, 0xf9, 0xab, 0xab, 0xad, 0x53, 0x29, 0xec, 0xb1, 0x79, 0x31,
  0xec, 0xb1, 0xfb, 0xb0, 0x27, 0xa8, 0x70, 0xb2, 0x6b, 0x29, 0x5a, 0x9c,
  0xc9, 0x25, 0x31, 0xaa, 0x1d, 0x31, 0x34, 0x2c, 0x93, 0x2c, 0x9e, 0xb2,
  0x0a, 0x31, 0xeb, 0xa8, 0xdf, 0xaf, 0x10, 0xac, 0x8e, 0x2a, 0x9b, 0x31,
  0x3c, 0xb1, 0xd0, 0xa8, 0x93, 0x30, 0x5b, 0xb0, 0xdb, 0x2b, 0xaf, 0x2b,
  0x00, 0xaa, 0xb1, 0xb1, 0x59, 0x2a, 0x3f, 0x30, 0x30, 0x30, 0x4c, 0x32,
  0xa5, 0x2c, 0x0f, 0x2a, 0x29, 0x30, 0xe9, 0xb0, 0x0a, 0x2d, 0x97, 0x25,
  0x3d, 0x31, 0xd3, 0xaf, 0x60, 0xb0, 0x92, 0x2c, 0x7d, 0xae, 0x93, 0x32,
  0x1f, 0x2c, 0xbd, 0xa1, 0xff, 0xaf, 0x43, 0xae, 0x53, 0xac, 0x65, 0x30,
  0xbb, 0xab, 0x80, 0x31, 0x15, 0xb2, 0x9d, 0xb2, 0xa5, 0x31, 0xb4, 0x2e,
  0xe0, 0xb0, 0x3a, 0xb1, 0x2c, 0x33, 0x15, 0xb1, 0x5a, 0x2a, 0x44, 0x28,
  0x41, 0x24, 0xc2, 0xa9, 0x59, 0x29, 0x49, 0xa6, 0xdd, 0x30, 0xf2, 0xa8,
  0x8a, 0x32, 0xd8, 0x32, 0x72, 0x28, 0x0e, 0x2e, 0xa6, 0x28, 0xf5, 0x24,
  0x6d, 0x30, 0x29, 0xb0, 0xb7, 0x31, 0x69, 0x25, 0xe2, 0xb1, 0x0c, 0x2f,
  0x06, 0x2e, 0xec, 0xab, 0x39, 0xad, 0xc2, 0xb2, 0x19, 0x31, 0x95, 0xad,
  0xb8, 0xb0, 0x60, 0xad, 0xc5, 0xad, 0xf9, 0xab, 0x59, 0xb2, 0x9d, 0xae,
  0x7a, 0xa6, 0x0e, 0xb2, 0x1a, 0x2c, 0xf0, 0xa8, 0xbd, 0x29, 0xd1, 0xac,
  0x1a, 0xae, 0xd7, 0x2c, 0xab, 0x31, 0x96, 0x2f, 0xf7, 0xab, 0xff, 0xad,
  0x09, 0xaf, 0xaf, 0x2d, 0xd2, 0xaf, 0xdc, 0x2b, 0x6c, 0xa6, 0xa8, 0xa2,
  0x4e, 0xaa, 0xc7, 0xb0, 0xaf, 0xb1, 0xc9, 0x30, 0x50, 0xad, 0x6c, 0xac,
  0xc0, 0xb0, 0x13, 0x26, 0x86, 0xb1, 0x7c, 0x20, 0xa1, 0xb2, 0xcc, 0x29,
  0xa7, 0x31, 0x58, 0xb2, 0xea, 0x2d, 0x5f, 0xaf, 0x9f, 0x2c, 0x55, 0xb3,
  0xad, 0x31, 0x60, 0x2a, 0xbd, 0x33, 0xa8, 0x9e, 0x94, 0x2c, 0x12, 0xb2,
  0x36, 0x33, 0xa2, 0xa9, 0xa4, 0x32, 0x59, 0x2d, 0x1e, 0xb0, 0x4a, 0x30,
  0xde, 0x28, 0x00, 0x2d, 0x50, 0xb0, 0xa5, 0x2d, 0x5f, 0xac, 0x32, 0xab,
  0x0f, 0x8e, 0x5f, 0x2e, 0xa0, 0x2a, 0x53, 0x26, 0x30, 0x2f, 0x19, 0x32,
  0x0d, 0xa6, 0x02, 0x30, 0x1a, 0x2d, 0xf5, 0xac, 0xd7, 0xb1, 0x8f, 0x21,
  0x1c, 0xae, 0x3d, 0xb0, 0x3b, 0xb0, 0x05, 0xb2, 0x44, 0xb0, 0x0c, 0xad,
  0x18, 0xa1, 0x64, 0x2f, 0x66, 0x2c, 0x39, 0x2e, 0xc6, 0xaa, 0xc3, 0x26,
  0x99, 0x32, 0x34, 0x2e, 0x21, 0x30, 0xc6, 0xaa, 0x96, 0x31, 0x1c, 0xae,
  0x46, 0x9a, 0x81, 0xae, 0x46, 0xb2, 0xa3, 0x30, 0x6b, 0x30, 0xb6, 0x2c,
  0xb1, 0x29, 0xdb, 0xb1, 0x5e, 0xb1, 0x1b, 0x24, 0xe4, 0x2d, 0x0b, 0xa9,
  0x82, 0xb0, 0x7a, 0x27, 0xe4, 0x2d, 0xe4, 0xa8, 0xb4, 0x2f, 0xad, 0xad,
  0xba, 0xae, 0xec, 0x2c, 0xb0, 0xb1, 0x23, 0x2c, 0x60, 0xa2, 0xf6, 0x30,
  0x57, 0xad, 0xf2, 0xac, 0x2c, 0xad, 0xf7, 0x1d, 0x7a, 0xb0, 0xbc, 0xb1,
  0x62, 0x99, 0x71, 0x31, 0x60, 0x1c, 0x2c, 0x0c, 0x26, 0xb1, 0x01, 0xb3,
  0x19, 0x28, 0x6f, 0x9f, 0x15, 0x2e, 0x14, 0xaf, 0xcb, 0x1f, 0x18, 0x97,
  0xd6, 0xaf, 0x66, 0xa2, 0x40, 0xaf, 0xd5, 0x2b, 0x16, 0x2a, 0x71, 0xb0,
  0xa5, 0xb0, 0x2d, 0xb1, 0x08, 0x2d, 0x07, 0x31, 0x1e, 0xb0, 0x6a, 0xae,
  0x97, 0xb2, 0x6a, 0xb1, 0x42, 0x2d, 0x45, 0x2c, 0x49, 0x32, 0x2f, 0x30,
  0x4c, 0xb0, 0xed, 0x28, 0x37, 0x31, 0x52, 0x9f, 0xa4, 0xab, 0x3c, 0x14,
  0x58, 0xaa, 0xa8, 0x2e, 0x1e, 0xb0, 0x7c, 0xae, 0x4f, 0xaa, 0x2f, 0xab,
  0xa8, 0x2e, 0xa5, 0xaf, 0x95, 0xb1, 0x64, 0xa4, 0x91, 0xaa, 0x1d, 0xa9,
  0x23, 0x30, 0xd7, 0xb0, 0x63, 0xad, 0x6f, 0xa8, 0x68, 0xaa, 0x06, 0x31,
  0xa6, 0x31, 0x9e, 0xad, 0x71, 0xa5, 0x41, 0xa2, 0xd6, 0xb1, 0xb3, 0x32,
  0x35, 0x32, 0xbc, 0xab, 0x24, 0x32, 0xe8, 0xae, 0x02, 0xb2, 0x7b, 0x30,
  0x1b, 0x2e, 0x8f, 0xa9, 0x62, 0xb0, 0x5a, 0x30, 0x22, 0xae, 0x84, 0xb1,
  0x9a, 0xab, 0x85, 0xae, 0xca, 0xac, 0x97, 0x21, 0x94, 0x30, 0xd2, 0xb1,
  0x6c, 0x2a, 0xc7, 0x2d, 0x7a, 0xa7, 0x77, 0x30, 0x05, 0x30, 0xf4, 0xb0,
  0x5f, 0xa7, 0x4c, 0x2f, 0x82, 0x2f, 0xe1, 0x2b, 0xa5, 0x30, 0x0b, 0x30,
  0x68, 0xab, 0xad, 0xb0, 0x16, 0xb2, 0xea, 0xad, 0x31, 0x2e, 0x17, 0xa1,
  0x48, 0x2d, 0xb5, 0x2a, 0xf3, 0xad, 0x0e, 0x32, 0x16, 0xb1, 0xb6, 0xb1,
  0x0a, 0x2c, 0x23, 0x2a, 0x27, 0x32, 0x78, 0xb2, 0x68, 0xa5, 0x95, 0x30,
  0xe0, 0x2f, 0x04, 0xaf, 0x4b, 0xb0, 0xb0, 0xab, 0x25, 0xaf, 0x48, 0x2d,
  0xb6, 0xb0, 0x81, 0xb2, 0x0d, 0x33, 0x47, 0xb0, 0x5e, 0xa8, 0xe8, 0xb0,
  0xf3, 0xaf, 0xc8, 0x28, 0x4c, 0xa9, 0xf1, 0xae, 0xc4, 0xb0, 0x81, 0x2b,
  0x15, 0xb1, 0x60, 0xad, 0xd9, 0xaf, 0x6f, 0xac, 0x14, 0x31, 0x74, 0xaa,
  0x27, 0x2e, 0xa4, 0xaf, 0x7b, 0x2c, 0xc0, 0xa5, 0x97, 0xb0, 0xd7, 0xb2,
  0xd8, 0x2e, 0x4b, 0xaf, 0x9b, 0xa8, 0x53, 0x2f, 0x64, 0x2f, 0x70, 0x32,
  0x12, 0xae, 0xfa, 0xac, 0x35, 0x31, 0xe5, 0x33, 0x7c, 0xb1, 0x1b, 0x31,
  0x05, 0x2b, 0x97, 0x2b, 0x31, 0xae, 0x99, 0x92, 0x67, 0xad, 0x48, 0xac,
  0x6e, 0xab, 0x61, 0xb3, 0xb8, 0xaf, 0x7e, 0x34, 0x5d, 0xac, 0xae, 0xa3,
  0xf8, 0xa4, 0x90, 0x31, 0x90, 0xa2, 0xc7, 0xb1, 0x7b, 0xa7, 0xa6, 0xae,
  0x4c, 0x2b, 0xfd, 0x10, 0x7d, 0xb0, 0xab, 0xab, 0x38, 0xad, 0x74, 0x26,
  0xc2, 0xb2, 0xa9, 0x2b, 0x56, 0xb4, 0x39, 0xb0, 0x53, 0xb4, 0xa8, 0x2e,
  0xbc, 0xb2, 0x01, 0x2a, 0x0e, 0x2d, 0x2a, 0xb1, 0x87, 0x1d, 0xb8, 0xad,
  0x13, 0xaf, 0xbe, 0xae, 0xc3, 0xa5, 0xab, 0xb0, 0xec, 0xb1, 0x93, 0xb1,
  0x1c, 0x32, 0x22, 0x2a, 0xfa, 0xad, 0x3f, 0x2d, 0x7c, 0xb0, 0x5c, 0xb0,
  0x75, 0xb2, 0xb0, 0x26, 0x24, 0x2b, 0xf0, 0x2e, 0x3b, 0x31, 0xa1, 0xac,
  0x20, 0x9e, 0xfb, 0x2d, 0x5d, 0x2f, 0xd7, 0x30, 0xcd, 0xa6, 0xbc, 0x2e,
  0x49, 0x2c, 0xf2, 0xb1, 0x31, 0x2d, 0x51, 0x2f, 0xc7, 0xaa, 0x10, 0x30,
  0xef, 0x26, 0xbf, 0x31, 0x45, 0xaa, 0x2a, 0xad, 0xf9, 0xb1, 0x93, 0xb1,
  0x7f, 0x20, 0x68, 0x31, 0x1b, 0xaa, 0xa6, 0xa0, 0xdf, 0xac, 0xfd, 0x2e,
  0x05, 0xab, 0xda, 0x2f, 0xc2, 0x2d, 0x6f, 0xae, 0x4e, 0xb1, 0xe9, 0x2a,
  0x92, 0x2c, 0xe8, 0xaf, 0x63, 0x30, 0x5a, 0x2c, 0x16, 0xab, 0xaf, 0x2d,
  0x55, 0xb2, 0xb2, 0x31, 0x09, 0x2c, 0x09, 0x30, 0x7f, 0xae, 0x49, 0xa4,
  0xbb, 0x2e, 0xc2, 0xad, 0xa6, 0xb0, 0xe5, 0xb1, 0x49, 0xab, 0xed, 0x24,
  0x8e, 0xac, 0xb6, 0xb1, 0x1f, 0x31, 0x6d, 0x2a, 0x80, 0xaf, 0x2e, 0xad,
  0x1e, 0xb2, 0x59, 0x2b, 0x11, 0xb3, 0x16, 0xaa, 0x36, 0xb0, 0x31, 0xb0,
  0x1c, 0xa5, 0xd6, 0x2c, 0x82, 0x31, 0xc5, 0x30, 0x79, 0x9a, 0x6a, 0xa9,
  0xd1, 0x2a, 0xaa, 0x24, 0x83, 0xb0, 0x81, 0xb1, 0x12, 0x2c, 0xc2, 0xad,
  0xcf, 0xb1, 0xc5, 0x2f, 0xa1, 0xac, 0x07, 0xb0, 0x68, 0xad, 0xa8, 0x32,
  0xf3, 0xb1, 0x44, 0x31, 0x6a, 0x28, 0x4e, 0xb2, 0x51, 0xb0, 0x34, 0x20,
  0xa7, 0x2e, 0x2a, 0xac, 0xf0, 0x2c, 0x88, 0x2c, 0x63, 0x2c, 0x7d, 0xa9,
  0x1d, 0xae, 0x9b, 0xb1, 0x74, 0xb2, 0x38, 0xb0, 0xad, 0xae, 0xa7, 0x27,
  0x71, 0x30, 0x3d, 0xa6, 0x02, 0xaa, 0xe0, 0xab, 0x0b, 0x32, 0x52, 0x30,
  0x9e, 0xb1, 0x4f, 0x2f, 0xdb, 0xa9, 0x3c, 0xb0, 0x00, 0x2d, 0x7d, 0x2f,
  0x56, 0x32, 0x63, 0x16, 0x7f, 0x2d, 0x50, 0x23, 0x0b, 0x31, 0x9f, 0xb0,
  0x57, 0xb2, 0x11, 0x2c, 0x90, 0x28, 0x54, 0x2d, 0x90, 0x2f, 0x3f, 0xa9,
  0x3c, 0xb1, 0x2f, 0xac, 0xcc, 0x9d, 0xb8, 0xb0, 0x2c, 0x29, 0x36, 0x30,
  0x73, 0xa8, 0x30, 0x2d, 0x27, 0x2e, 0xca, 0x32, 0xe8, 0x0f, 0x41, 0xa6,
  0xe5, 0x26, 0x4e, 0xad, 0x33, 0x31, 0xa9, 0x22, 0x92, 0xb1, 0x0d, 0xae,
  0x89, 0xad, 0xf7, 0x25, 0xea, 0xa7, 0xb9, 0x2f, 0x14, 0x31, 0x45, 0xa8,
  0xab, 0xa0, 0x09, 0x32, 0xe8, 0xa8, 0x2e, 0x30, 0x87, 0xb0, 0x63, 0x24,
  0x67, 0x2f, 0xec, 0xb1, 0x83, 0xb0, 0x62, 0xab, 0x85, 0xb1, 0x23, 0x32,
  0x26, 0x1f, 0xc3, 0x2c, 0x00, 0xb3, 0x69, 0xb0, 0xa5, 0xac, 0xf3, 0xa6,
  0x96, 0xb1, 0x5d, 0x29, 0xe9, 0x2d, 0xb5, 0xb2, 0xf0, 0xb0, 0xeb, 0x20,
  0x80, 0x11, 0x31, 0xb0, 0x07, 0x30, 0x0e, 0xa5, 0x77, 0x2f, 0x91, 0xb1,
  0x69, 0xa9, 0x04, 0xaf, 0x46, 0xa4, 0xe3, 0x2c, 0xef, 0x2c, 0x5d, 0xb2,
  0x7d, 0x2c, 0xaf, 0xb1, 0xca, 0xae, 0xd5, 0x2e, 0x51, 0x30, 0x8b, 0x2e,
  0x92, 0x28, 0x6b, 0x24, 0xcb, 0xaf, 0x7d, 0xb1, 0x62, 0xab, 0x68, 0xb0,
  0xf8, 0x31, 0x72, 0x2c, 0xee, 0x2b, 0xe4, 0x2c, 0x8d, 0x2f, 0xda, 0xa3,
  0x25, 0x2c, 0x02, 0xb2, 0xc4, 0x31, 0x25, 0x32, 0x79, 0x30, 0x8c, 0x2e,
  0x09, 0x2f, 0x99, 0x2b, 0xb9, 0x2c, 0x04, 0xa4, 0xd6, 0x23, 0x02, 0xb1,
  0x1c, 0xa9, 0x54, 0x28, 0xb7, 0xb2, 0xd0, 0xad, 0x53, 0xa4, 0x42, 0x32,
  0x36, 0x32, 0xcd, 0x31, 0x9b, 0x28, 0xfc, 0xb0, 0xd4, 0xb0, 0x53, 0x2a,
  0x64, 0x27, 0xa9, 0x2c, 0x74, 0xb2, 0xfb, 0xaf, 0x4b, 0xb0, 0x6b, 0x31,
  0x97, 0xb2, 0xaa, 0xae, 0x34, 0x30, 0x9b, 0xa8, 0xe2, 0xb0, 0xe3, 0xb0,
  0xe4, 0x26, 0x49, 0x31, 0xce, 0x2e, 0xc1, 0x2d, 0x3d, 0xae, 0xea, 0x28,
  0x9d, 0xb0, 0x24, 0xb0, 0xa8, 0xae, 0x3b, 0x2f, 0x71, 0xac, 0x95, 0xb1,
  0xa5, 0x2f, 0x8f, 0xa5, 0xa8, 0x25, 0x86, 0x2d, 0x61, 0xa5, 0xff, 0x2c,
  0x55, 0x30, 0xd9, 0xab, 0x08, 0x31, 0x31, 0x2b, 0x8f, 0x1e, 0x4b, 0xb1,
  0x02, 0x31, 0x78, 0x29, 0xf1, 0x2f, 0xe9, 0x25, 0xaf, 0x2e, 0x2a, 0x31,
  0x0f, 0x24, 0x63, 0x25, 0xee, 0xb1, 0xf6, 0xa9, 0x69, 0xb0, 0x6a, 0x31,
  0x22, 0x29, 0x0d, 0xb1, 0x52, 0xab, 0x20, 0xac, 0x4c, 0x31, 0x99, 0x2f,
  0x54, 0x2d, 0x98, 0x30, 0xd5, 0xaf, 0xee, 0x2d, 0x9d, 0xae, 0xb3, 0xa7,
  0xda, 0xab, 0x23, 0x2c, 0xb2, 0x32, 0xd7, 0x31, 0x2c, 0xae, 0x36, 0x31,
  0x8c, 0xac, 0x81, 0xa7, 0x78, 0xae, 0x2b, 0xb1, 0x80, 0xac, 0xbd, 0xa8,
  0x1e, 0xb2, 0xe9, 0x2d, 0xfb, 0xa7, 0x0c, 0x2a, 0x78, 0xb1, 0x39, 0x26,
  0xcc, 0xaa, 0xe4, 0xb0, 0x78, 0x24, 0xbf, 0xb1, 0xbd, 0xb1, 0x02, 0xac,
  0x2f, 0x32, 0x7e, 0xaa, 0x35, 0xae, 0x05, 0x2c, 0xb6, 0x33, 0x02, 0x34,
  0xba, 0xa5, 0xb6, 0xa9, 0xe1, 0xb2, 0xa0, 0xa4, 0xcc, 0x2c, 0x2b, 0xb2,
  0xe6, 0xb2, 0x63, 0x30, 0x07, 0xb2, 0xa5, 0xaf, 0xa2, 0xae, 0x9f, 0xb0,
  0xfc, 0xae, 0xe7, 0xa0, 0x42, 0xb1, 0x25, 0xa9, 0x0a, 0xae, 0x46, 0xa8,
  0x31, 0x30, 0x65, 0xa4, 0x13, 0xb4, 0x2d, 0xb4, 0xec, 0x30, 0xad, 0xa6,
  0x25, 0xad, 0xbe, 0x2f, 0x1d, 0xac, 0x5f, 0xa9, 0xd6, 0xb2, 0x01, 0xb4,
  0x0c, 0xb3, 0x7f, 0x1f, 0xaa, 0x2d, 0xa4, 0xac, 0xbd, 0x30, 0x48, 0x34,
  0x1a, 0x2f, 0xe4, 0xa9, 0x86, 0xac, 0x45, 0x2d, 0x94, 0x2e, 0xfe, 0x30,
  0x07, 0xb4, 0xa3, 0x2e, 0x07, 0xb0, 0xa1, 0x30, 0x56, 0xae, 0x7d, 0xb0,
  0x18, 0x2c, 0x13, 0xaf, 0x00, 0xab, 0xc7, 0x29, 0xb8, 0xa9, 0x6b, 0x19,
  0xae, 0xa7, 0xf1, 0xb0, 0x79, 0x2d, 0xc3, 0x25, 0xcf, 0xb1, 0xde, 0xad,
  0x17, 0xa5, 0x13, 0xac, 0xaf, 0x2e, 0x0f, 0xb0, 0x29, 0x2d, 0x8f, 0xb2,
  0x7c, 0xa8, 0xab, 0xb1, 0xaa, 0xaa, 0x65, 0x2d, 0x0d, 0xa8, 0xcd, 0x31,
  0x99, 0xa7, 0x27, 0x2e, 0x4b, 0xa5, 0x14, 0xb0, 0xd3, 0x29, 0xce, 0xab,
  0x04, 0x2e, 0xe7, 0xab, 0x62, 0xb1, 0x4d, 0x31, 0x2f, 0xb2, 0x6f, 0x2a,
  0xe7, 0x31, 0xbd, 0xb0, 0xd7, 0xb2, 0x02, 0x31, 0x09, 0x22, 0xc9, 0x30,
  0x00, 0x28, 0x9f, 0x9d, 0x85, 0x2b, 0xdd, 0xb2, 0xb6, 0x2c, 0xff, 0xad,
  0x39, 0xb0, 0xb5, 0x29, 0xde, 0x9c, 0x31, 0x31, 0x72, 0xaf, 0xde, 0xb1,
  0x18, 0x22, 0x16, 0x20, 0xf9, 0xb0, 0x43, 0xac, 0xa1, 0x31, 0x29, 0x32,
  0x3b, 0xad, 0x8b, 0xac, 0x23, 0xac, 0xfc, 0xa5, 0x3c, 0xa9, 0x01, 0x2c,
  0x66, 0xb0, 0x23, 0x9e, 0xd9, 0xb1, 0xd9, 0x2e, 0x99, 0xa5, 0x90, 0xaf,
  0x1d, 0x31, 0xcd, 0x25, 0x6a, 0x2c, 0x1e, 0x31, 0x2a, 0x2a, 0xb8, 0xad,
  0xca, 0xb2, 0x7b, 0xae, 0xc3, 0xae, 0xb3, 0xac, 0x43, 0x2e, 0x79, 0xb3,
  0xa9, 0x2e, 0x6d, 0x2d, 0x20, 0x16, 0x71, 0xad, 0xb0, 0x2e, 0x3a, 0xb1,
  0xe1, 0xa4, 0xa8, 0x27, 0xd3, 0x2b, 0x34, 0x9d, 0x67, 0x29, 0xbd, 0xb1,
  0xa5, 0x2e, 0xce, 0xb0, 0x2f, 0x2d, 0xaf, 0xa9, 0xfc, 0xac, 0x6e, 0xa0,
  0xd6, 0xa8, 0xa2, 0x31, 0x37, 0x31, 0x1e, 0x2d, 0x5a, 0xa5, 0x1a, 0x31,
  0x68, 0xb1, 0x3c, 0x32, 0x9e, 0x2e, 0xf8, 0x2f, 0x75, 0x32, 0x06, 0x17,
  0x8c, 0x2c, 0x81, 0x2f, 0xe6, 0xaf, 0xdd, 0x32, 0xf3, 0x1a, 0x97, 0x2d,
  0x35, 0xb0, 0x35, 0x32, 0x6e, 0x2b, 0x9f, 0xb0, 0xc3, 0x30, 0x48, 0x2d,
  0xbd, 0x2e, 0xc1, 0x9f, 0x80, 0x2c, 0xc3, 0xb0, 0x22, 0x31, 0x23, 0x30,
  0x45, 0xa7, 0x46, 0xb1, 0x2c, 0xb0, 0xe5, 0xb0, 0xb5, 0x30, 0x67, 0xb0,
  0x32, 0xad, 0xb3, 0xae, 0xd6, 0xb0, 0xcd, 0x2f, 0x1a, 0x2a, 0x41, 0xb2,
  0x85, 0x31, 0xd3, 0x29, 0x2f, 0xae, 0xdf, 0x9c, 0x9c, 0x2b, 0x26, 0x2a,
  0x77, 0xae, 0xe7, 0x32, 0x25, 0x32, 0x73, 0x32, 0x2a, 0x1c, 0x2e, 0x25,
  0xd8, 0xb0, 0xa2, 0x32, 0xbb, 0xa5, 0xb7, 0xa6, 0xa9, 0xaa, 0x35, 0xaf,
  0x23, 0xb1, 0x31, 0x24, 0xfb, 0xb0, 0x0d, 0xaf, 0x0d, 0x30, 0x14, 0x2d,
  0xef, 0xb0, 0x33, 0xa8, 0x3b, 0xad, 0x91, 0x2c, 0x12, 0xa5, 0x17, 0x2d,
  0xa0, 0x2a, 0x28, 0x29, 0x81, 0x30, 0xce, 0x2c, 0x7f, 0xb2, 0x7f, 0x31,
  0x3b, 0xb1, 0x16, 0x30, 0x04, 0xa4, 0x27, 0x2e, 0xfe, 0xac, 0x5c, 0xa6,
  0xab, 0xaa, 0x0e, 0x32, 0xd5, 0xaf, 0x16, 0x30, 0x89, 0xb1, 0x4b, 0x2c,
  0x5a, 0xb1, 0x20, 0xaf, 0xf9, 0x2e, 0x35, 0x30, 0x3f, 0xa8, 0x2e, 0xb1,
  0xec, 0xb0, 0x41, 0x29, 0x8a, 0x30, 0x57, 0x2b, 0xb6, 0xb3, 0xc0, 0xb0,
  0x26, 0x29, 0xec, 0x31, 0xf3, 0x2e, 0x19, 0xac, 0x90, 0x20, 0x68, 0xad,
  0x2d, 0xa8, 0x52, 0xa9, 0x51, 0x2d, 0x66, 0xa0, 0xee, 0x25, 0x34, 0xab,
  0x17, 0x30, 0x17, 0xac, 0x55, 0x2b, 0x3c, 0xac, 0xed, 0xad, 0x8b, 0xa9,
  0x43, 0x2e, 0x94, 0x2d, 0x31, 0x2c, 0x35, 0xab, 0x5e, 0xaf, 0x37, 0x2e,
  0x7d, 0x27, 0xb1, 0xa9, 0x7b, 0x33, 0xa9, 0x2e, 0xa4, 0x31, 0xd3, 0xaf,
  0x8b, 0x2c, 0x6d, 0xb1, 0xbc, 0xae, 0x42, 0x29, 0xf5, 0x2c, 0x1d, 0x2c,
  0xd2, 0x2d, 0xc4, 0xae, 0x9e, 0xac, 0x5a, 0xaa, 0x5b, 0x29, 0x12, 0x26,
  0xde, 0xad, 0xa9, 0x30, 0x71, 0xb2, 0x43, 0x2f, 0x8c, 0xb2, 0x9f, 0xb2,
  0x07, 0x1d, 0x32, 0x32, 0xc3, 0x16, 0x22, 0xa6, 0x36, 0x31, 0x6b, 0x2b,
  0x04, 0x32, 0x40, 0x31, 0xd5, 0xaa, 0x5e, 0x2d, 0x1c, 0xb0, 0xc5, 0x31,
  0x5b, 0xac, 0x8e, 0x31, 0x52, 0xaf, 0x50, 0x2c, 0x39, 0x26, 0x07, 0x32,
  0x31, 0x31, 0xe3, 0xaf, 0x02, 0xaf, 0x5c, 0xaf, 0xdc, 0xb0, 0x78, 0x1f,
  0x51, 0xad, 0xc3, 0x2a, 0x71, 0x31, 0x48, 0xb1, 0x62, 0xb1, 0xa9, 0x2c,
  0xb7, 0xb0, 0x1e, 0xb2, 0x54, 0xb0, 0x68, 0x2d, 0xd4, 0xb2, 0xd7, 0x17,
  0xfe, 0x32, 0x1c, 0x29, 0x18, 0x31, 0x67, 0x30, 0xc9, 0xb0, 0x25, 0x2d,
  0x45, 0x2f, 0x23, 0x2b, 0x51, 0xb1, 0xf3, 0x31, 0x55, 0xb0, 0x5f, 0x31,
  0x9c, 0xb1, 0x36, 0x27, 0xd2, 0x31, 0x75, 0x9d, 0xce, 0xb1, 0xa4, 0xad,
  0xb0, 0x31, 0x6a, 0x9b, 0xf3, 0x2f, 0x93, 0x27, 0xea, 0x30, 0x48, 0xaa,
  0xe5, 0x30, 0x2e, 0x11, 0xdd, 0x2f, 0x64, 0x26, 0x53, 0x31, 0x5b, 0x32,
  0x22, 0xb2, 0x7f, 0x2d, 0x01, 0x2c, 0x09, 0xa4, 0x67, 0x2d, 0xcc, 0x30,
  0xb6, 0xac, 0x4e, 0x32, 0x8a, 0x2f, 0x56, 0x2e, 0xa2, 0xb0, 0x55, 0x32,
  0x97, 0x30, 0xc8, 0xa0, 0x5e, 0xb1, 0x34, 0xaa, 0x45, 0x30, 0xb7, 0xb0,
  0xd7, 0x2b, 0x65, 0xb0, 0x6a, 0xaa, 0x43, 0x2c, 0x5e, 0x2e, 0x97, 0xaf,
  0x8d, 0xb0, 0x62, 0x23, 0xcb, 0xa4, 0x14, 0xb1, 0xb6, 0xac, 0xf6, 0xb1,
  0x71, 0x21, 0x03, 0x30, 0xdf, 0xaa, 0xac, 0x26, 0x34, 0x2a, 0x8e, 0xae,
  0x36, 0x31, 0xac, 0x25, 0x57, 0x30, 0x1d, 0xb0, 0x7b, 0x29, 0x4a, 0xb2,
  0x8a, 0xa8, 0xbe, 0x2a, 0x8d, 0xb0, 0xba, 0xb0, 0x9b, 0xb0, 0xbb, 0xad,
  0x18, 0x30, 0xfa, 0x2a, 0xed, 0xae, 0xd3, 0x26, 0xe2, 0xb0, 0xcd, 0xb0,
  0x48, 0xa9, 0x64, 0xad, 0x42, 0x23, 0x84, 0x29, 0xbd, 0xb1, 0x51, 0xae,
  0x1b, 0xad, 0xdd, 0xb0, 0x7e, 0x2d, 0x66, 0x97, 0x91, 0xa9, 0xc9, 0xad,
  0x39, 0x32, 0x61, 0xb1, 0xf0, 0xae, 0x39, 0xb2, 0xbd, 0x2c, 0x37, 0xb1,
  0x98, 0x28, 0xad, 0xae, 0xf1, 0xb0, 0xab, 0xb1, 0x75, 0xad, 0x4d, 0x2a,
  0x12, 0xb0, 0x20, 0x9f, 0xb6, 0x24, 0x83, 0x28, 0x31, 0xae, 0xe8, 0xb0,
  0x39, 0x2e, 0x5d, 0x2a, 0xe4, 0x1c, 0x51, 0x2f, 0xe6, 0x30, 0x75, 0x2d,
  0x64, 0x2c, 0x80, 0xae, 0x88, 0x31, 0xc6, 0xa7, 0x80, 0x31, 0x80, 0xad,
  0x1b, 0xb1, 0x8c, 0xb0, 0x3d, 0xaa, 0x93, 0x2a, 0x44, 0x2b, 0xfa, 0x33,
  0xff, 0xaf, 0x40, 0xa6, 0xf4, 0x31, 0x93, 0x29, 0xa3, 0xb2, 0x9f, 0x2b,
  0xf5, 0xb2, 0xd2, 0xad, 0x39, 0xb0, 0xb5, 0x30, 0x1e, 0x30, 0x41, 0xa9,
  0x56, 0x2c, 0x2b, 0xb2, 0x9f, 0xb2, 0x7d, 0x2b, 0xba, 0xae, 0x17, 0x31,
  0x1b, 0x2c, 0xe3, 0x30, 0xeb, 0xae, 0x73, 0x2f, 0xe8, 0xac, 0xb7, 0xb1,
  0x4a, 0xac, 0xf0, 0xa4, 0x6b, 0x2b, 0xab, 0x2f, 0x65, 0xb1, 0x36, 0x30,
  0xf7, 0x2c, 0x26, 0xa8, 0x18, 0xb3, 0xd3, 0x27, 0x11, 0x2a, 0x53, 0xad,
  0xfe, 0xad, 0x9e, 0xb1, 0x57, 0x9d, 0x41, 0x28, 0xb9, 0x31, 0xf3, 0x30,
  0x63, 0xad, 0x10, 0x28, 0x84, 0x31, 0x9d, 0x2f, 0x34, 0x2b, 0xdb, 0x30,
  0x37, 0xb1, 0x55, 0x24, 0x07, 0xa6, 0x69, 0x31, 0x0b, 0xab, 0x8a, 0xb1,
  0x86, 0xaa, 0x80, 0xa7, 0xf4, 0x26, 0x57, 0xb3, 0xe8, 0xb0, 0x26, 0x2c,
  0xdc, 0x30, 0xcf, 0x21, 0xd7, 0x1e, 0x36, 0x31, 0x13, 0xb2, 0xa2, 0xa9,
  0xe8, 0x31, 0x11, 0x31, 0x8b, 0xaa, 0x25, 0x27, 0x01, 0xb1, 0x19, 0x25,
  0x58, 0x2e, 0xb3, 0x27, 0x10, 0xad, 0x38, 0xb2, 0x4b, 0x20, 0xf5, 0xb0,
  0x65, 0x2a, 0x62, 0xb1, 0x2a, 0x30, 0xcb, 0xb1, 0x62, 0x29, 0x37, 0x2d,
  0xa4, 0x31, 0xeb, 0x31, 0x01, 0xa1, 0x99, 0x30, 0xf0, 0xa9, 0x8c, 0x30,
  0x12, 0x31, 0xf7, 0xad, 0x7d, 0x2d, 0x30, 0xac, 0x11, 0x2d, 0xc3, 0x31,
  0xcc, 0xb2, 0x79, 0xb0, 0x37, 0xb3, 0xef, 0xb0, 0x0a, 0x30, 0xb0, 0x2d,
  0x23, 0xb1, 0x61, 0x2c, 0x36, 0x30, 0x02, 0xb0, 0x74, 0x2e, 0x0a, 0xad,
  0x4d, 0x2b, 0x45, 0xb2, 0x48, 0xae, 0x5c, 0x2b, 0x53, 0xb1, 0xd6, 0xad,
  0x41, 0x2d, 0x94, 0xae, 0xbb, 0x30, 0x5f, 0x2a, 0x91, 0x2f, 0xb0, 0x2e,
  0x52, 0xae, 0xe5, 0xb1, 0x71, 0xb2, 0xb7, 0xb0, 0x4a, 0xaf, 0xb7, 0x2c,
  0x82, 0xb1, 0xed, 0xb0, 0xb3, 0x2a, 0x84, 0xac, 0x3e, 0x2d, 0x02, 0x9e,
  0xf9, 0xa0, 0x1b, 0xb2, 0x85, 0x2c, 0xa4, 0x25, 0x10, 0xaf, 0x20, 0x28,
  0x0e, 0x31, 0x52, 0xa7, 0x51, 0x28, 0xee, 0x28, 0x42, 0x2c, 0x41, 0xae,
  0x86, 0x2c, 0xb7, 0xb0, 0x67, 0xb0, 0x47, 0x31, 0x4c, 0x31, 0x93, 0x33,
  0xc8, 0xaf, 0xee, 0x30, 0xf5, 0xb2, 0xcc, 0xad, 0x7a, 0x27, 0x2b, 0x31,
  0x62, 0xb2, 0x0c, 0x31, 0xa4, 0x24, 0xfb, 0x2d, 0xbc, 0xa6, 0x13, 0x33,
  0x8a, 0x9d, 0x86, 0x25, 0x0b, 0xac, 0xfa, 0xae, 0xee, 0x2d, 0xa2, 0xab,
  0xb6, 0xab, 0xd8, 0x2b, 0x75, 0xb3, 0x15, 0x2f, 0xe7, 0x2e, 0x61, 0x31,
  0xcc, 0xa6, 0x0a, 0xaf, 0x54, 0x30, 0x4d, 0x30, 0x4f, 0x32, 0xe6, 0xb0,
  0xf9, 0xae, 0x70, 0xb2, 0xba, 0xb0, 0xbb, 0x31, 0xad, 0xb2, 0x33, 0x2d,
  0x28, 0xa9, 0x2e, 0x32, 0x88, 0x32, 0x7d, 0x29, 0x76, 0xac, 0x39, 0x2f,
  0x0f, 0x2e, 0x75, 0xac, 0x0e, 0xb2, 0xb2, 0x28, 0xef, 0xac, 0x29, 0xae,
  0x0b, 0x25, 0x8b, 0x30, 0xb4, 0xb2, 0x81, 0x2e, 0xb0, 0xa8, 0xc1, 0xa6,
  0xf9, 0x31, 0x9d, 0x99, 0xcd, 0xae, 0xe5, 0xab, 0xf4, 0xab, 0x30, 0xb1,
  0xba, 0xb0, 0xde, 0x2c, 0x4c, 0xb1, 0x47, 0xab, 0x4c, 0x30, 0xb3, 0xa5,
  0x10, 0xac, 0xa1, 0xab, 0x24, 0xaa, 0x03, 0xb1, 0xea, 0xb1, 0xb5, 0xa7,
  0x01, 0x2a, 0x7f, 0x30, 0x87, 0xa3, 0xeb, 0xaf, 0xa1, 0x2d, 0x73, 0xb2,
  0x6b, 0x2b, 0x99, 0x2f, 0x96, 0xa6, 0x68, 0x2e, 0x5f, 0xb1, 0x54, 0xad,
  0x7f, 0x2e, 0x74, 0x32, 0xd8, 0x30, 0x4b, 0x2b, 0x91, 0xb1, 0xbb, 0xa9,
  0xf0, 0xb0, 0xaa, 0xb0, 0x88, 0xac, 0xe0, 0xaa, 0x63, 0x31, 0x87, 0xb1,
  0x31, 0x30, 0x40, 0x2d, 0x7d, 0xb1, 0x92, 0x1c, 0xb8, 0xae, 0x49, 0x2c,
  0x54, 0x2d, 0x35, 0xb0, 0x15, 0x31, 0xe6, 0xac, 0x8c, 0xaa, 0xc1, 0x26,
  0x4f, 0xb1, 0xd0, 0xa7, 0x28, 0xb1, 0xbc, 0x9a, 0xa4, 0x28, 0xac, 0xb0,
  0x67, 0x30, 0x6d, 0xa4, 0x2b, 0x31, 0xcf, 0x2a, 0x35, 0xaf, 0xaf, 0xa9,
  0xb8, 0xaa, 0x52, 0xac, 0x9a, 0x25, 0xdd, 0xab, 0x69, 0xb0, 0x9f, 0x29,
  0x1d, 0x32, 0xd0, 0xaa, 0x1a, 0x28, 0x63, 0xb1, 0x90, 0xb0, 0x5e, 0xb3,
  0xf8, 0xaf, 0x58, 0x2d, 0x4d, 0x31, 0x98, 0x32, 0x11, 0x28, 0x4d, 0xae,
  0xa3, 0x9d, 0xd4, 0x2c, 0xc6, 0x2e, 0xc2, 0xa7, 0xa6, 0xa8, 0x9a, 0xb1,
  0x42, 0x2c, 0x8d, 0x27, 0xdf, 0xb0, 0xc0, 0x1e, 0x10, 0x29, 0x32, 0xb0,
  0x15, 0x32, 0x08, 0xb0, 0xcf, 0x2d, 0x93, 0xab, 0x44, 0xb0, 0x16, 0xab,
  0x65, 0x9e, 0xb7, 0xa9, 0x1f, 0x2e, 0x05, 0xb2, 0xe0, 0xaf, 0xab, 0xaa,
  0x21, 0xb1, 0xfd, 0xae, 0xc7, 0xb1, 0xf4, 0x2d, 0x88, 0xae, 0x2e, 0x2f,
  0x74, 0x31, 0x7a, 0xb0, 0x00, 0x00, 0x00, 0x00, 0x92, 0xe8, 0xff, 0xff,
  0x04, 0x00, 0x00, 0x00, 0xfc, 0x00, 0x00, 0x00, 0xc1, 0xae, 0xf8, 0x35,
  0x76, 0x1d, 0x06, 0xac, 0xdb, 0xad, 0x09, 0xb2, 0x49, 0x34, 0x1d, 0xb2,
  0x97, 0x35, 0x1c, 0x34, 0xb6, 0xb4, 0xd5, 0x34, 0x0d, 0x9c, 0x8f, 0x33,
  0x9d, 0xb1, 0x64, 0x2c, 0x6d, 0x23, 0x08, 0x29, 0x1f, 0xac, 0x9f, 0xa8,
  0x20, 0xb2, 0x7b, 0x34, 0x44, 0x31, 0x05, 0xb2, 0x2f, 0xad, 0x5d, 0xb5,
  0xa7, 0xaf, 0x70, 0x2a, 0xed, 0x35, 0xd9, 0xb5, 0x11, 0xad, 0x78, 0xb3,
  0x54, 0x34, 0x89, 0xb5, 0xfb, 0x2d, 0x3f, 0x2d, 0x7e, 0x32, 0xc4, 0x2c,
  0x9c, 0x26, 0xc5, 0x35, 0x2d, 0xac, 0x7a, 0x34, 0xa8, 0x32, 0x7e, 0xad,
  0x84, 0xad, 0xf4, 0x32, 0xd9, 0xb0, 0xc1, 0x2b, 0x8d, 0xb4, 0x45, 0x33,
  0x1e, 0xb5, 0x5d, 0x2c, 0xe0, 0xb5, 0x83, 0x2a, 0xa1, 0xad, 0xea, 0xb2,
  0x3b, 0xac, 0x6a, 0x2c, 0x81, 0xa9, 0x36, 0x34, 0x1d, 0xb5, 0x1e, 0x34,
  0xa1, 0xb4, 0x78, 0xb1, 0x02, 0xa8, 0x8e, 0xb3, 0x95, 0x30, 0x92, 0x35,
  0x69, 0xb0, 0x6a, 0xad, 0x89, 0x2b, 0xc7, 0x34, 0xfb, 0x35, 0x04, 0x2e,
  0xa6, 0x2d, 0xb7, 0x35, 0x92, 0xb2, 0x60, 0x33, 0xd1, 0xb2, 0x1c, 0x2f,
  0x8d, 0xb5, 0x7b, 0xa9, 0x86, 0x35, 0xae, 0x35, 0x41, 0xad, 0x0a, 0xb2,
  0xe0, 0xa9, 0x1c, 0x33, 0x93, 0x2d, 0x57, 0xb0, 0x77, 0xb1, 0xc2, 0x33,
  0x11, 0xb4, 0xf9, 0xb0, 0xb1, 0xac, 0x8b, 0x35, 0x90, 0x34, 0x7e, 0x34,
  0x34, 0xb4, 0xe3, 0x2f, 0x31, 0xa8, 0x1d, 0x31, 0xb1, 0x33, 0xd6, 0xb4,
  0xff, 0xb4, 0x41, 0x2a, 0xe0, 0xb5, 0x73, 0x34, 0xc4, 0xb3, 0xbf, 0xb2,
  0x6d, 0x1e, 0x0b, 0x33, 0x66, 0x35, 0xf5, 0x2c, 0x46, 0x35, 0x27, 0x32,
  0x1c, 0x36, 0x89, 0xad, 0xb5, 0xad, 0x98, 0xae, 0x67, 0xaa, 0xe6, 0xb4,
  0xd8, 0x30, 0xa5, 0x34, 0xa9, 0x32, 0x33, 0xb3, 0x00, 0x00, 0x00, 0x00,
  0x00, 0x00, 0x00, 0x00, 0xa2, 0xe9, 0xff, 0xff, 0x04, 0x00, 0x00, 0x00,
  0x02, 0x00, 0x00, 0x00, 0x63, 0x25, 0x00, 0x00, 0xb2, 0xe9, 0xff, 0xff,
  0x04, 0x00, 0x00, 0x00, 0x48, 0x00, 0x00, 0x00, 0x2e, 0x99, 0x2e, 0x9d,
  0x14, 0x98, 0x62, 0xa3, 0x49, 0x21, 0x63, 0x9e, 0xbb, 0x1c, 0x83, 0xa9,
  0x02, 0x13, 0xeb, 0xa9, 0x58, 0x16, 0x4d, 0x1c, 0xfd, 0xa1, 0xed, 0x9f,
  0x65, 0x9f, 0x32, 0x21, 0x39, 0x22, 0x7a, 0x1a, 0x20, 0x19, 0xe2, 0xa7,
  0xac, 0x1f, 0x91, 0x9f, 0x2d, 0x22, 0xa9, 0x20, 0xff, 0x1d, 0x17, 0x28,
  0x1d, 0x28, 0x22, 0x28, 0xdf, 0xa7, 0x11, 0x20, 0x57, 0x1f, 0xf8, 0x29,
  0xd3, 0x23, 0xee, 0x1e, 0x0f, 0x90, 0x64, 0x9b, 0x00, 0x00, 0x00, 0x00,
  0x00, 0x00, 0x00, 0x00, 0x00, 0x00, 0x00, 0x00, 0x12, 0xea, 0xff, 0xff,
  0x04, 0x00, 0x00, 0x00, 0xd8, 0x00, 0x00, 0x00, 0x82, 0xa4, 0x2d, 0xa2,
  0x91, 0x23, 0x88, 0x15, 0x20, 0xa1, 0xb7, 0x22, 0x2d, 0x9b, 0x4c, 0x24,
  0x65, 0x22, 0xc5, 0x1d, 0x47, 0x27, 0x0e, 0x25, 0x49, 0x24, 0x69, 0xa4,
  0xd2, 0x26, 0xd6, 0x22, 0xdf, 0xa2, 0xff, 0x22, 0x27, 0xa4, 0x43, 0xa4,
  0x07, 0x25, 0x0e, 0x24, 0xbe, 0xa2, 0x6e, 0xa3, 0xa6, 0xa7, 0x87, 0x9d,
  0xf9, 0x19, 0x7f, 0xa1, 0xa0, 0x22, 0x8e, 0x24, 0x96, 0x22, 0x80, 0xa1,
  0x38, 0xa4, 0x4a, 0xa5, 0xe5, 0xa2, 0x16, 0x25, 0xc8, 0x8f, 0xad, 0x8b,
  0xd0, 0x03, 0x36, 0x07, 0x76, 0x02, 0x2f, 0x0d, 0xbd, 0x0a, 0x8d, 0x0c,
  0x27, 0x0e, 0x2c, 0x89, 0x12, 0x0f, 0x68, 0x0c, 0x7f, 0x10, 0xff, 0x8f,
  0x55, 0x11, 0x8e, 0x11, 0x4b, 0x09, 0x63, 0x0c, 0x31, 0x8c, 0x70, 0x8d,
  0x20, 0x0d, 0x82, 0x0c, 0x49, 0x0b, 0xad, 0x88, 0xd3, 0x8e, 0x17, 0x03,
  0x1d, 0x0a, 0x3e, 0x08, 0x3a, 0x05, 0x17, 0x08, 0x72, 0x0e, 0xa7, 0x06,
  0xd2, 0x86, 0x76, 0x8d, 0x11, 0x91, 0x97, 0x87, 0x33, 0x9b, 0x0e, 0x18,
  0xe2, 0x95, 0x75, 0x2b, 0x18, 0xac, 0x9b, 0x05, 0x91, 0x9e, 0x23, 0xa5,
  0x45, 0x19, 0x19, 0x95, 0xbb, 0x9d, 0xb8, 0x04, 0xf5, 0x94, 0x13, 0x9c,
  0x2c, 0xac, 0xfa, 0xa9, 0x7c, 0xa1, 0xe4, 0xa8, 0x74, 0x22, 0x0c, 0x26,
  0xc6, 0x13, 0xbb, 0x25, 0x22, 0x22, 0x0e, 0x24, 0x95, 0x9c, 0x21, 0x9b,
  0x99, 0x1d, 0xa5, 0xa9, 0x8e, 0xa8, 0x02, 0x9a, 0x86, 0xa8, 0x0c, 0x20,
  0x37, 0xa1, 0xf1, 0x1b, 0xfa, 0xa5, 0xbf, 0x9e, 0x00, 0x00, 0x00, 0x00,
  0x00, 0x00, 0x00, 0x00, 0x00, 0x00, 0x00, 0x00, 0x02, 0xeb, 0xff, 0xff,
  0x04, 0x00, 0x00, 0x00, 0x24, 0x00, 0x00, 0x00, 0x68, 0x35, 0x87, 0x0f,
  0x9c, 0xa2, 0x6c, 0xb5, 0x23, 0xb1, 0x8c, 0x2f, 0x6b, 0x2a, 0x8f, 0xb4,
  0x9c, 0x35, 0x30, 0x30, 0x9b, 0x32, 0xf9, 0xb2, 0x23, 0xb1, 0x53, 0x2f,
  0xd1, 0xb5, 0xde, 0x31, 0xe2, 0x26, 0x15, 0x34, 0x32, 0xeb, 0xff, 0xff,
  0x04, 0x00, 0x00, 0x00, 0x0c, 0x00, 0x00, 0x00, 0x24, 0x00, 0x00, 0x00,
  0x24, 0x00, 0x00, 0x00, 0x24, 0x00, 0x00, 0x00, 0x00, 0x00, 0x00, 0x00,
  0x00, 0x00, 0x00, 0x00, 0x52, 0xeb, 0xff, 0xff, 0x04, 0x00, 0x00, 0x00,
  0x04, 0x00, 0x00, 0x00, 0xff, 0xff, 0xff, 0xff, 0x62, 0xeb, 0xff, 0xff,
  0x04, 0x00, 0x00, 0x00, 0x04, 0x00, 0x00, 0x00, 0x01, 0x00, 0x00, 0x00,
  0x72, 0xeb, 0xff, 0xff, 0x04, 0x00, 0x00, 0x00, 0x04, 0x00, 0x00, 0x00,
  0x02, 0x00, 0x00, 0x00, 0x82, 0xeb, 0xff, 0xff, 0x04, 0x00, 0x00, 0x00,
  0x18, 0x00, 0x00, 0x00, 0x01, 0x00, 0x00, 0x00, 0x00, 0x00, 0x00, 0x00,
  0x03, 0x00, 0x00, 0x00, 0x00, 0x00, 0x00, 0x00, 0x01, 0x00, 0x00, 0x00,
  0x00, 0x00, 0x00, 0x00, 0x00, 0x00, 0x00, 0x00, 0x00, 0x00, 0x00, 0x00,
  0x00, 0x00, 0x00, 0x00, 0xb2, 0xeb, 0xff, 0xff, 0x04, 0x00, 0x00, 0x00,
  0x02, 0x00, 0x00, 0x00, 0x11, 0x00, 0x00, 0x00, 0xc2, 0xeb, 0xff, 0xff,
  0x04, 0x00, 0x00, 0x00, 0xb0, 0x01, 0x00, 0x00, 0x00, 0x00, 0x00, 0x3c,
  0x00, 0x00, 0x00, 0x3c, 0x00, 0x00, 0x00, 0x3c, 0x00, 0x00, 0x00, 0x3c,
  0x00, 0x00, 0x00, 0x3c, 0x00, 0x00, 0x00, 0x3c, 0x00, 0x00, 0x00, 0x3c,
  0x00, 0x00, 0x00, 0x3c, 0x00, 0x00, 0x00, 0x3c, 0xbb, 0x3a, 0x53, 0x38,
  0xa1, 0x35, 0x7d, 0x3b, 0x1f, 0x30, 0xef, 0x3b, 0xf0, 0x29, 0xfe, 0x3b,
  0x45, 0x24, 0x00, 0x3c, 0x24, 0x1e, 0x00, 0x3c, 0x6a, 0x18, 0x00, 0x3c,
  0x58, 0x12, 0x00, 0x3c, 0x8f, 0x0c, 0x00, 0x3c, 0x46, 0x3b, 0xa9, 0xb6,
  0x45, 0x39, 0x05, 0x3a, 0x16, 0x34, 0xbc, 0x3b, 0xef, 0x2d, 0xf7, 0x3b,
  0x45, 0x28, 0xff, 0x3b, 0x23, 0x22, 0x00, 0x3c, 0x6a, 0x1c, 0x00, 0x3c,
  0x58, 0x16, 0x00, 0x3c, 0x8f, 0x10, 0x00, 0x3c, 0x84, 0x30, 0xec, 0xbb,
  0x0c, 0x3b, 0x91, 0x37, 0x0c, 0x36, 0x68, 0x3b, 0x71, 0x30, 0xec, 0x3b,
  0x67, 0x2a, 0xfd, 0x3b, 0x9b, 0x24, 0x00, 0x3c, 0x9e, 0x1e, 0x00, 0x3c,
  0xc2, 0x18, 0x00, 0x3c, 0xd7, 0x12, 0x00, 0x3c, 0x0e, 0xba, 0x3b, 0xb9,
  0xee, 0x3b, 0x41, 0x30, 0xe7, 0x37, 0xf5, 0x3a, 0xe8, 0x31, 0xdd, 0x3b,
  0x44, 0x2c, 0xfb, 0x3b, 0x23, 0x26, 0xff, 0x3b, 0x6a, 0x20, 0x00, 0x3c,
  0x58, 0x1a, 0x00, 0x3c, 0x8f, 0x14, 0x00, 0x3c, 0xac, 0xbb, 0x8a, 0x34,
  0xcc, 0x3b, 0x2d, 0xb3, 0xd1, 0x38, 0x64, 0x3a, 0x5c, 0x33, 0xc9, 0x3b,
  0x55, 0x2d, 0xf9, 0x3b, 0xac, 0x27, 0xff, 0x3b, 0x84, 0x21, 0x00, 0x3c,
  0xee, 0x1b, 0x00, 0x3c, 0xb3, 0x15, 0x00, 0x3c, 0x78, 0xb4, 0xae, 0x3b,
  0xab, 0x3a, 0x6c, 0xb8, 0x99, 0x39, 0xb7, 0x39, 0x66, 0x34, 0xb1, 0x3b,
  0x65, 0x2e, 0xf6, 0x3b, 0x9a, 0x28, 0xff, 0x3b, 0x9e, 0x22, 0x00, 0x3c,
  0xc2, 0x1c, 0x00, 0x3c, 0xd7, 0x16, 0x00, 0x3c, 0x42, 0x39, 0x08, 0x3a,
  0xb0, 0x38, 0x7c, 0xba, 0x49, 0x3a, 0xf2, 0x38, 0x1c, 0x35, 0x95, 0x3b,
  0x75, 0x2f, 0xf2, 0x3b, 0x5f, 0x29, 0xfe, 0x3b, 0xb9, 0x23, 0x00, 0x3c,
  0x8d, 0x1d, 0x00, 0x3c, 0xfa, 0x17, 0x00, 0x3c, 0xea, 0x3b, 0xa8, 0xb0,
  0x37, 0x34, 0xb8, 0xbb, 0xdf, 0x3a, 0x19, 0x38, 0xce, 0x35, 0x74, 0x3b,
  0x42, 0x30, 0xee, 0x3b, 0x23, 0x2a, 0xfe, 0x3b, 0x69, 0x24, 0x00, 0x3c,
  0x58, 0x1e, 0x00, 0x3c, 0x8f, 0x18, 0x00, 0x3c, 0x98, 0x36, 0x4a, 0xbb,
  0xef, 0xad, 0xf7, 0xbb, 0x58, 0x3b, 0x5b, 0x36, 0x7e, 0x36, 0x50, 0x3b,
  0xc9, 0x30, 0xe9, 0x3b, 0xe7, 0x2a, 0xfd, 0x3b, 0xf7, 0x24, 0x00, 0x3c,
  0x23, 0x1f, 0x00, 0x3c, 0x21, 0x19, 0x00, 0x3c, 0x5a, 0xb8, 0xb6, 0xba,
  0xfe, 0xb6, 0x32, 0xbb, 0xb1, 0x3b, 0x69, 0x34, 0x2a, 0x37, 0x27, 0x3b,
  0x50, 0x31, 0xe4, 0x3b, 0xab, 0x2b, 0xfc, 0x3b, 0x84, 0x25, 0x00, 0x3c,
  0xee, 0x1f, 0x00, 0x3c, 0xb3, 0x19, 0x00, 0x3c, 0x00, 0xbc, 0x88, 0x1c,
  0xce, 0xb9, 0x82, 0xb9, 0xe9, 0x3b, 0xc9, 0x30, 0xd2, 0x37, 0xfb, 0x3a,
  0xd7, 0x31, 0xde, 0x3b, 0x38, 0x2c, 0xfc, 0x3b, 0x11, 0x26, 0xff, 0x3b,
  0x5c, 0x20, 0x00, 0x3c, 0x45, 0x1a, 0x00, 0x3c, 0x00, 0x00, 0x00, 0x00,
  0x82, 0xed, 0xff, 0xff, 0x04, 0x00, 0x00, 0x00, 0x10, 0x00, 0x00, 0x00,
  0x00, 0x00, 0x00, 0x00, 0x01, 0x00, 0x00, 0x00, 0x03, 0x00, 0x00, 0x00,
  0x02, 0x00, 0x00, 0x00, 0x00, 0x00, 0x00, 0x00, 0xa2, 0xed, 0xff, 0xff,
  0x04, 0x00, 0x00, 0x00, 0x02, 0x00, 0x00, 0x00, 0x55, 0x31, 0x00, 0x00,
  0xb2, 0xed, 0xff, 0xff, 0x04, 0x00, 0x00, 0x00, 0x18, 0x00, 0x00, 0x00,
  0x5f, 0x3c, 0x1e, 0x3c, 0xa0, 0x3b, 0x52, 0x3b, 0x63, 0x3b, 0xa4, 0x3b,
  0xc3, 0x3b, 0x89, 0x3b, 0x2b, 0x3b, 0x00, 0x3b, 0x2c, 0x3b, 0xa1, 0x3b,
  0x00, 0x00, 0x00, 0x00, 0x00, 0x00, 0x00, 0x00, 0x00, 0x00, 0x00, 0x00,
  0xe2, 0xed, 0xff, 0xff, 0x04, 0x00, 0x00, 0x00, 0x18, 0x00, 0x00, 0x00,
  0xf0, 0xb5, 0xfd, 0xb5, 0x4b, 0xb5, 0x93, 0xb4, 0x57, 0xb4, 0xb1, 0xb4,
  0x2e, 0xb5, 0x26, 0xb5, 0x7e, 0xb4, 0x6d, 0xb3, 0xb0, 0xb2, 0x57, 0xb3,
  0x00, 0x00, 0x00, 0x00, 0x00, 0x00, 0x00, 0x00, 0x00, 0x00, 0x00, 0x00,
  0x12, 0xee, 0xff, 0xff, 0x04, 0x00, 0x00, 0x00, 0x02, 0x00, 0x00, 0x00,
  0x51, 0x3e, 0x00, 0x00, 0x00, 0x00, 0x00, 0x00, 0x00, 0x00, 0x00, 0x00,
  0x78, 0xc2, 0xff, 0xff, 0x00, 0x00, 0x00, 0x00, 0x00, 0x00, 0x00, 0x00,
  0x00, 0x00, 0x00, 0x00, 0x88, 0xc2, 0xff, 0xff, 0x0f, 0x00, 0x00, 0x00,
  0x4d, 0x4c, 0x49, 0x52, 0x20, 0x43, 0x6f, 0x6e, 0x76, 0x65, 0x72, 0x74,
  0x65, 0x64, 0x2e, 0x00, 0x01, 0x00, 0x00, 0x00, 0x14, 0x00, 0x00, 0x00,
  0x00, 0x00, 0x0e, 0x00, 0x18, 0x00, 0x04, 0x00, 0x08, 0x00, 0x0c, 0x00,
  0x10, 0x00, 0x14, 0x00, 0x0e, 0x00, 0x00, 0x00, 0x80, 0x12, 0x00, 0x00,
  0x74, 0x12, 0x00, 0x00, 0x68, 0x12, 0x00, 0x00, 0x14, 0x00, 0x00, 0x00,
  0x04, 0x00, 0x00, 0x00, 0x04, 0x00, 0x00, 0x00, 0x6d, 0x61, 0x69, 0x6e,
  0x00, 0x00, 0x00, 0x00, 0x5e, 0x00, 0x00, 0x00, 0x2c, 0x12, 0x00, 0x00,
  0xfc, 0x11, 0x00, 0x00, 0xb8, 0x11, 0x00, 0x00, 0x84, 0x11, 0x00, 0x00,
  0x44, 0x11, 0x00, 0x00, 0xf8, 0x10, 0x00, 0x00, 0xa8, 0x10, 0x00, 0x00,
  0x6c, 0x10, 0x00, 0x00, 0x34, 0x10, 0x00, 0x00, 0xf8, 0x0f, 0x00, 0x00,
  0xc0, 0x0f, 0x00, 0x00, 0x84, 0x0f, 0x00, 0x00, 0x4c, 0x0f, 0x00, 0x00,
  0x0c, 0x0f, 0x00, 0x00, 0xe4, 0x0e, 0x00, 0x00, 0xb0, 0x0e, 0x00, 0x00,
  0x8c, 0x0e, 0x00, 0x00, 0x58, 0x0e, 0x00, 0x00, 0x24, 0x0e, 0x00, 0x00,
  0xec, 0x0d, 0x00, 0x00, 0xc8, 0x0d, 0x00, 0x00, 0x94, 0x0d, 0x00, 0x00,
  0x58, 0x0d, 0x00, 0x00, 0x30, 0x0d, 0x00, 0x00, 0xfc, 0x0c, 0x00, 0x00,
  0xd4, 0x0c, 0x00, 0x00, 0x98, 0x0c, 0x00, 0x00, 0x70, 0x0c, 0x00, 0x00,
  0x3c, 0x0c, 0x00, 0x00, 0x14, 0x0c, 0x00, 0x00, 0xd8, 0x0b, 0x00, 0x00,
  0xb0, 0x0b, 0x00, 0x00, 0x7c, 0x0b, 0x00, 0x00, 0x54, 0x0b, 0x00, 0x00,
  0x18, 0x0b, 0x00, 0x00, 0xf0, 0x0a, 0x00, 0x00, 0xbc, 0x0a, 0x00, 0x00,
  0x94, 0x0a, 0x00, 0x00, 0x54, 0x0a, 0x00, 0x00, 0x20, 0x0a, 0x00, 0x00,
  0xe4, 0x09, 0x00, 0x00, 0xac, 0x09, 0x00, 0x00, 0x70, 0x09, 0x00, 0x00,
  0x38, 0x09, 0x00, 0x00, 0xfc, 0x08, 0x00, 0x00, 0xc4, 0x08, 0x00, 0x00,
  0x88, 0x08, 0x00, 0x00, 0x50, 0x08, 0x00, 0x00, 0x10, 0x08, 0x00, 0x00,
  0xec, 0x07, 0x00, 0x00, 0xc8, 0x07, 0x00, 0x00, 0x90, 0x07, 0x00, 0x00,
  0x58, 0x07, 0x00, 0x00, 0x14, 0x07, 0x00, 0x00, 0xec, 0x06, 0x00, 0x00,
  0xc4, 0x06, 0x00, 0x00, 0x9c, 0x06, 0x00, 0x00, 0x68, 0x06, 0x00, 0x00,
  0x44, 0x06, 0x00, 0x00, 0x10, 0x06, 0x00, 0x00, 0xe8, 0x05, 0x00, 0x00,
  0xb4, 0x05, 0x00, 0x00, 0x8c, 0x05, 0x00, 0x00, 0x64, 0x05, 0x00, 0x00,
  0x30, 0x05, 0x00, 0x00, 0x08, 0x05, 0x00, 0x00, 0xe4, 0x04, 0x00, 0x00,
  0xc0, 0x04, 0x00, 0x00, 0x88, 0x04, 0x00, 0x00, 0x54, 0x04, 0x00, 0x00,
  0x1c, 0x04, 0x00, 0x00, 0xf4, 0x03, 0x00, 0x00, 0xb0, 0x03, 0x00, 0x00,
  0x88, 0x03, 0x00, 0x00, 0x60, 0x03, 0x00, 0x00, 0x38, 0x03, 0x00, 0x00,
  0x04, 0x03, 0x00, 0x00, 0xd0, 0x02, 0x00, 0x00, 0xa8, 0x02, 0x00, 0x00,
  0x74, 0x02, 0x00, 0x00, 0x4c, 0x02, 0x00, 0x00, 0x24, 0x02, 0x00, 0x00,
  0xf0, 0x01, 0x00, 0x00, 0xc8, 0x01, 0x00, 0x00, 0x90, 0x01, 0x00, 0x00,
  0x68, 0x01, 0x00, 0x00, 0x34, 0x01, 0x00, 0x00, 0x10, 0x01, 0x00, 0x00,
  0xdc, 0x00, 0x00, 0x00, 0xb8, 0x00, 0x00, 0x00, 0x84, 0x00, 0x00, 0x00,
  0x60, 0x00, 0x00, 0x00, 0x3c, 0x00, 0x00, 0x00, 0x04, 0x00, 0x00, 0x00,
  0x2a, 0xf9, 0xff, 0xff, 0x00, 0x00, 0x00, 0x08, 0x1c, 0x00, 0x00, 0x00,
  0x10, 0x00, 0x00, 0x00, 0x04, 0x00, 0x00, 0x00, 0xb6, 0xef, 0xff, 0xff,
  0x00, 0x00, 0x00, 0x01, 0x01, 0x00, 0x00, 0x00, 0x7c, 0x00, 0x00, 0x00,
  0x03, 0x00, 0x00, 0x00, 0x7b, 0x00, 0x00, 0x00, 0x84, 0x00, 0x00, 0x00,
  0x85, 0x00, 0x00, 0x00, 0x8a, 0xef, 0xff, 0xff, 0x0d, 0x00, 0x00, 0x00,
  0x10, 0x00, 0x00, 0x00, 0x04, 0x00, 0x00, 0x00, 0x01, 0x00, 0x00, 0x00,
  0x85, 0x00, 0x00, 0x00, 0x01, 0x00, 0x00, 0x00, 0x10, 0x00, 0x00, 0x00,
  0xaa, 0xef, 0xff, 0xff, 0x0d, 0x00, 0x00, 0x00, 0x10, 0x00, 0x00, 0x00,
  0x04, 0x00, 0x00, 0x00, 0x01, 0x00, 0x00, 0x00, 0x84, 0x00, 0x00, 0x00,
  0x01, 0x00, 0x00, 0x00, 0x15, 0x00, 0x00, 0x00, 0xee, 0xf0, 0xff, 0xff,
  0x00, 0x00, 0x00, 0x0b, 0x06, 0x00, 0x00, 0x00, 0x18, 0x00, 0x00, 0x00,
  0x0c, 0x00, 0x00, 0x00, 0x04, 0x00, 0x00, 0x00, 0xe4, 0xc4, 0xff, 0xff,
  0x01, 0x00, 0x00, 0x00, 0x7b, 0x00, 0x00, 0x00, 0x02, 0x00, 0x00, 0x00,
  0x7a, 0x00, 0x00, 0x00, 0x83, 0x00, 0x00, 0x00, 0xfa, 0xef, 0xff, 0xff,
  0x0d, 0x00, 0x00, 0x00, 0x10, 0x00, 0x00, 0x00, 0x04, 0x00, 0x00, 0x00,
  0x01, 0x00, 0x00, 0x00, 0x83, 0x00, 0x00, 0x00, 0x01, 0x00, 0x00, 0x00,
  0x02, 0x00, 0x00, 0x00, 0x3e, 0xf1, 0xff, 0xff, 0x00, 0x00, 0x00, 0x15,
  0x07, 0x00, 0x00, 0x00, 0x18, 0x00, 0x00, 0x00, 0x0c, 0x00, 0x00, 0x00,
  0x04, 0x00, 0x00, 0x00, 0x34, 0xc5, 0xff, 0xff, 0x01, 0x00, 0x00, 0x00,
  0x7a, 0x00, 0x00, 0x00, 0x02, 0x00, 0x00, 0x00, 0x79, 0x00, 0x00, 0x00,
  0x82, 0x00, 0x00, 0x00, 0x4a, 0xf0, 0xff, 0xff, 0x0d, 0x00, 0x00, 0x00,
  0x10, 0x00, 0x00, 0x00, 0x04, 0x00, 0x00, 0x00, 0x01, 0x00, 0x00, 0x00,
  0x82, 0x00, 0x00, 0x00, 0x01, 0x00, 0x00, 0x00, 0x03, 0x00, 0x00, 0x00,
  0x8e, 0xf1, 0xff, 0xff, 0x00, 0x00, 0x00, 0x0b, 0x06, 0x00, 0x00, 0x00,
  0x18, 0x00, 0x00, 0x00, 0x0c, 0x00, 0x00, 0x00, 0x04, 0x00, 0x00, 0x00,
  0x84, 0xc5, 0xff, 0xff, 0x01, 0x00, 0x00, 0x00, 0x79, 0x00, 0x00, 0x00,
  0x02, 0x00, 0x00, 0x00, 0x2a, 0x00, 0x00, 0x00, 0x78, 0x00, 0x00, 0x00,
  0x9a, 0xf0, 0xff, 0xff, 0x04, 0x00, 0x00, 0x00, 0x10, 0x00, 0x00, 0x00,
  0x04, 0x00, 0x00, 0x00, 0x01, 0x00, 0x00, 0x00, 0x78, 0x00, 0x00, 0x00,
  0x02, 0x00, 0x00, 0x00, 0x77, 0x00, 0x00, 0x00, 0x08, 0x00, 0x00, 0x00,
  0x92, 0xfa, 0xff, 0xff, 0x00, 0x00, 0x00, 0x08, 0x1c, 0x00, 0x00, 0x00,
  0x10, 0x00, 0x00, 0x00, 0x04, 0x00, 0x00, 0x00, 0x1e, 0xf1, 0xff, 0xff,
  0x00, 0x00, 0x00, 0x01, 0x01, 0x00, 0x00, 0x00, 0x77, 0x00, 0x00, 0x00,
  0x03, 0x00, 0x00, 0x00, 0x76, 0x00, 0x00, 0x00, 0x88, 0x00, 0x00, 0x00,
  0x87, 0x00, 0x00, 0x00, 0xf2, 0xf0, 0xff, 0xff, 0x09, 0x00, 0x00, 0x00,
  0x10, 0x00, 0x00, 0x00, 0x04, 0x00, 0x00, 0x00, 0x01, 0x00, 0x00, 0x00,
  0x76, 0x00, 0x00, 0x00, 0x02, 0x00, 0x00, 0x00, 0x75, 0x00, 0x00, 0x00,
  0x24, 0x00, 0x00, 0x00, 0xea, 0xfa, 0xff, 0xff, 0x00, 0x00, 0x00, 0x08,
  0x18, 0x00, 0x00, 0x00, 0x0c, 0x00, 0x00, 0x00, 0x04, 0x00, 0x00, 0x00,
  0x2c, 0xc6, 0xff, 0xff, 0x01, 0x00, 0x00, 0x00, 0x75, 0x00, 0x00, 0x00,
  0x03, 0x00, 0x00, 0x00, 0x72, 0x00, 0x00, 0x00, 0x74, 0x00, 0x00, 0x00,
  0xff, 0xff, 0xff, 0xff, 0x46, 0xf1, 0xff, 0xff, 0x0c, 0x00, 0x00, 0x00,
  0x10, 0x00, 0x00, 0x00, 0x04, 0x00, 0x00, 0x00, 0x01, 0x00, 0x00, 0x00,
  0x74, 0x00, 0x00, 0x00, 0x02, 0x00, 0x00, 0x00, 0x73, 0x00, 0x00, 0x00,
  0x13, 0x00, 0x00, 0x00, 0x6a, 0xf1, 0xff, 0xff, 0x09, 0x00, 0x00, 0x00,
  0x10, 0x00, 0x00, 0x00, 0x04, 0x00, 0x00, 0x00, 0x01, 0x00, 0x00, 0x00,
  0x73, 0x00, 0x00, 0x00, 0x02, 0x00, 0x00, 0x00, 0x6b, 0x00, 0x00, 0x00,
  0x23, 0x00, 0x00, 0x00, 0xb2, 0xf2, 0xff, 0xff, 0x00, 0x00, 0x00, 0x09,
  0x0a, 0x00, 0x00, 0x00, 0x1c, 0x00, 0x00, 0x00, 0x10, 0x00, 0x00, 0x00,
  0x04, 0x00, 0x00, 0x00, 0x5a, 0xf2, 0xff, 0xff, 0x00, 0x00, 0x80, 0x3f,
  0x01, 0x00, 0x00, 0x00, 0x72, 0x00, 0x00, 0x00, 0x01, 0x00, 0x00, 0x00,
  0x71, 0x00, 0x00, 0x00, 0xbe, 0xf1, 0xff, 0xff, 0x09, 0x00, 0x00, 0x00,
  0x10, 0x00, 0x00, 0x00, 0x04, 0x00, 0x00, 0x00, 0x01, 0x00, 0x00, 0x00,
  0x71, 0x00, 0x00, 0x00, 0x02, 0x00, 0x00, 0x00, 0x70, 0x00, 0x00, 0x00,
  0x22, 0x00, 0x00, 0x00, 0x06, 0xf3, 0xff, 0xff, 0x00, 0x00, 0x00, 0x15,
  0x07, 0x00, 0x00, 0x00, 0x18, 0x00, 0x00, 0x00, 0x0c, 0x00, 0x00, 0x00,
  0x04, 0x00, 0x00, 0x00, 0xfc, 0xc6, 0xff, 0xff, 0x01, 0x00, 0x00, 0x00,
  0x70, 0x00, 0x00, 0x00, 0x02, 0x00, 0x00, 0x00, 0x6f, 0x00, 0x00, 0x00,
  0x80, 0x00, 0x00, 0x00, 0xe6, 0xfb, 0xff, 0xff, 0x00, 0x00, 0x00, 0x08,
  0x18, 0x00, 0x00, 0x00, 0x0c, 0x00, 0x00, 0x00, 0x04, 0x00, 0x00, 0x00,
  0x28, 0xc7, 0xff, 0xff, 0x01, 0x00, 0x00, 0x00, 0x6f, 0x00, 0x00, 0x00,
  0x03, 0x00, 0x00, 0x00, 0x69, 0x00, 0x00, 0x00, 0x6e, 0x00, 0x00, 0x00,
  0xff, 0xff, 0xff, 0xff, 0x42, 0xf2, 0xff, 0xff, 0x0c, 0x00, 0x00, 0x00,
  0x10, 0x00, 0x00, 0x00, 0x04, 0x00, 0x00, 0x00, 0x01, 0x00, 0x00, 0x00,
  0x6e, 0x00, 0x00, 0x00, 0x02, 0x00, 0x00, 0x00, 0x6d, 0x00, 0x00, 0x00,
  0x13, 0x00, 0x00, 0x00, 0x66, 0xf2, 0xff, 0xff, 0x09, 0x00, 0x00, 0x00,
  0x10, 0x00, 0x00, 0x00, 0x04, 0x00, 0x00, 0x00, 0x01, 0x00, 0x00, 0x00,
  0x6d, 0x00, 0x00, 0x00, 0x02, 0x00, 0x00, 0x00, 0x6c, 0x00, 0x00, 0x00,
  0x21, 0x00, 0x00, 0x00, 0x8a, 0xf2, 0xff, 0xff, 0x0c, 0x00, 0x00, 0x00,
  0x10, 0x00, 0x00, 0x00, 0x04, 0x00, 0x00, 0x00, 0x01, 0x00, 0x00, 0x00,
  0x6c, 0x00, 0x00, 0x00, 0x02, 0x00, 0x00, 0x00, 0x6a, 0x00, 0x00, 0x00,
  0x05, 0x00, 0x00, 0x00, 0xd2, 0xf3, 0xff, 0xff, 0x00, 0x00, 0x00, 0x4f,
  0x0b, 0x00, 0x00, 0x00, 0x24, 0x00, 0x00, 0x00, 0x10, 0x00, 0x00, 0x00,
  0x04, 0x00, 0x00, 0x00, 0x7a, 0xf3, 0xff, 0xff, 0x03, 0x00, 0x00, 0x00,
  0x03, 0x00, 0x00, 0x00, 0x69, 0x00, 0x00, 0x00, 0x6a, 0x00, 0x00, 0x00,
  0x6b, 0x00, 0x00, 0x00, 0x03, 0x00, 0x00, 0x00, 0x68, 0x00, 0x00, 0x00,
  0x0c, 0x00, 0x00, 0x00, 0x0b, 0x00, 0x00, 0x00, 0xee, 0xf2, 0xff, 0xff,
  0x09, 0x00, 0x00, 0x00, 0x10, 0x00, 0x00, 0x00, 0x04, 0x00, 0x00, 0x00,
  0x01, 0x00, 0x00, 0x00, 0x68, 0x00, 0x00, 0x00, 0x02, 0x00, 0x00, 0x00,
  0x67, 0x00, 0x00, 0x00, 0x28, 0x00, 0x00, 0x00, 0xe6, 0xfc, 0xff, 0xff,
  0x00, 0x00, 0x00, 0x08, 0x1c, 0x00, 0x00, 0x00, 0x10, 0x00, 0x00, 0x00,
  0x04, 0x00, 0x00, 0x00, 0x72, 0xf3, 0xff, 0xff, 0x00, 0x00, 0x00, 0x01,
  0x01, 0x00, 0x00, 0x00, 0x67, 0x00, 0x00, 0x00, 0x03, 0x00, 0x00, 0x00,
  0x66, 0x00, 0x00, 0x00, 0x86, 0x00, 0x00, 0x00, 0x89, 0x00, 0x00, 0x00,
  0x6a, 0xf4, 0xff, 0xff, 0x00, 0x00, 0x00, 0x0b, 0x06, 0x00, 0x00, 0x00,
