unsigned char sf_quant_tflite[] = {
  0x28, 0x00, 0x00, 0x00, 0x54, 0x46, 0x4c, 0x33, 0x00, 0x00, 0x00, 0x00,
  0x00, 0x00, 0x00, 0x00, 0x00, 0x00, 0x00, 0x00, 0x14, 0x00, 0x20, 0x00,
  0x04, 0x00, 0x08, 0x00, 0x0c, 0x00, 0x10, 0x00, 0x14, 0x00, 0x00, 0x00,
  0x18, 0x00, 0x1c, 0x00, 0x14, 0x00, 0x00, 0x00, 0x03, 0x00, 0x00, 0x00,
  0xd0, 0x96, 0x00, 0x00, 0x2c, 0x3f, 0x00, 0x00, 0x14, 0x3f, 0x00, 0x00,
  0xc0, 0x00, 0x00, 0x00, 0x88, 0x00, 0x00, 0x00, 0x04, 0x00, 0x00, 0x00,
  0x01, 0x00, 0x00, 0x00, 0x10, 0x00, 0x00, 0x00, 0x0c, 0x00, 0x14, 0x00,
  0x04, 0x00, 0x08, 0x00, 0x0c, 0x00, 0x10, 0x00, 0x0c, 0x00, 0x00, 0x00,
  0x4c, 0x00, 0x00, 0x00, 0x2c, 0x00, 0x00, 0x00, 0x14, 0x00, 0x00, 0x00,
  0x04, 0x00, 0x00, 0x00, 0x05, 0x00, 0x00, 0x00, 0x73, 0x65, 0x72, 0x76,
  0x65, 0x00, 0x00, 0x00, 0x0f, 0x00, 0x00, 0x00, 0x73, 0x65, 0x72, 0x76,
  0x69, 0x6e, 0x67, 0x5f, 0x64, 0x65, 0x66, 0x61, 0x75, 0x6c, 0x74, 0x00,
  0x01, 0x00, 0x00, 0x00, 0x04, 0x00, 0x00, 0x00, 0xc8, 0xff, 0xff, 0xff,
  0x08, 0x00, 0x00, 0x00, 0xb6, 0x00, 0x00, 0x00, 0x03, 0x00, 0x00, 0x00,
  0x34, 0x31, 0x33, 0x00, 0x01, 0x00, 0x00, 0x00, 0x04, 0x00, 0x00, 0x00,
  0x16, 0xa6, 0xff, 0xff, 0x04, 0x00, 0x00, 0x00, 0x07, 0x00, 0x00, 0x00,
  0x69, 0x6e, 0x70, 0x75, 0x74, 0x2e, 0x31, 0x00, 0x01, 0x00, 0x00, 0x00,
  0x0c, 0x00, 0x00, 0x00, 0x08, 0x00, 0x0c, 0x00, 0x04, 0x00, 0x08, 0x00,
  0x08, 0x00, 0x00, 0x00, 0x08, 0x00, 0x00, 0x00, 0xb8, 0x00, 0x00, 0x00,
  0x13, 0x00, 0x00, 0x00, 0x6d, 0x69, 0x6e, 0x5f, 0x72, 0x75, 0x6e, 0x74,
  0x69, 0x6d, 0x65, 0x5f, 0x76, 0x65, 0x72, 0x73, 0x69, 0x6f, 0x6e, 0x00,
  0xb9, 0x00, 0x00, 0x00, 0x3c, 0x3e, 0x00, 0x00, 0x28, 0x3e, 0x00, 0x00,
  0x0c, 0x3e, 0x00, 0x00, 0xd8, 0x3d, 0x00, 0x00, 0xa4, 0x3d, 0x00, 0x00,
  0x90, 0x3d, 0x00, 0x00, 0x6c, 0x3d, 0x00, 0x00, 0x58, 0x3d, 0x00, 0x00,
  0x94, 0x3b, 0x00, 0x00, 0x80, 0x3b, 0x00, 0x00, 0x6c, 0x3b, 0x00, 0x00,
  0x58, 0x3b, 0x00, 0x00, 0x34, 0x3b, 0x00, 0x00, 0x00, 0x3b, 0x00, 0x00,
  0x0c, 0x3a, 0x00, 0x00, 0xa8, 0x39, 0x00, 0x00, 0x94, 0x39, 0x00, 0x00,
  0x80, 0x38, 0x00, 0x00, 0x0c, 0x1a, 0x00, 0x00, 0xe8, 0x19, 0x00, 0x00,
  0xb4, 0x0f, 0x00, 0x00, 0x50, 0x0f, 0x00, 0x00, 0x2c, 0x0f, 0x00, 0x00,
  0x08, 0x0f, 0x00, 0x00, 0xe4, 0x0e, 0x00, 0x00, 0xc0, 0x0e, 0x00, 0x00,
  0x9c, 0x0e, 0x00, 0x00, 0x78, 0x0e, 0x00, 0x00, 0x54, 0x0e, 0x00, 0x00,
  0x30, 0x0e, 0x00, 0x00, 0x0c, 0x0e, 0x00, 0x00, 0xe8, 0x0d, 0x00, 0x00,
  0xc4, 0x0d, 0x00, 0x00, 0xa0, 0x0d, 0x00, 0x00, 0x7c, 0x0d, 0x00, 0x00,
  0x58, 0x0d, 0x00, 0x00, 0x34, 0x0d, 0x00, 0x00, 0x10, 0x0d, 0x00, 0x00,
  0xec, 0x0c, 0x00, 0x00, 0xc8, 0x0c, 0x00, 0x00, 0xa4, 0x0c, 0x00, 0x00,
  0x80, 0x0c, 0x00, 0x00, 0x5c, 0x0c, 0x00, 0x00, 0x38, 0x0c, 0x00, 0x00,
  0x14, 0x0c, 0x00, 0x00, 0xf0, 0x0b, 0x00, 0x00, 0xcc, 0x0b, 0x00, 0x00,
  0xa8, 0x0b, 0x00, 0x00, 0x84, 0x0b, 0x00, 0x00, 0x60, 0x0b, 0x00, 0x00,
  0x3c, 0x0b, 0x00, 0x00, 0x18, 0x0b, 0x00, 0x00, 0xf4, 0x0a, 0x00, 0x00,
  0xd0, 0x0a, 0x00, 0x00, 0xac, 0x0a, 0x00, 0x00, 0x88, 0x0a, 0x00, 0x00,
  0x64, 0x0a, 0x00, 0x00, 0x40, 0x0a, 0x00, 0x00, 0x1c, 0x0a, 0x00, 0x00,
  0xf8, 0x09, 0x00, 0x00, 0xd4, 0x09, 0x00, 0x00, 0xb0, 0x09, 0x00, 0x00,
  0xa4, 0x09, 0x00, 0x00, 0x90, 0x09, 0x00, 0x00, 0x7c, 0x09, 0x00, 0x00,
  0x68, 0x09, 0x00, 0x00, 0x54, 0x09, 0x00, 0x00, 0x40, 0x09, 0x00, 0x00,
  0x2c, 0x09, 0x00, 0x00, 0x18, 0x09, 0x00, 0x00, 0x04, 0x09, 0x00, 0x00,
  0xf0, 0x08, 0x00, 0x00, 0xdc, 0x08, 0x00, 0x00, 0xc8, 0x08, 0x00, 0x00,
  0xb4, 0x08, 0x00, 0x00, 0xa0, 0x08, 0x00, 0x00, 0x8c, 0x08, 0x00, 0x00,
  0x78, 0x08, 0x00, 0x00, 0x64, 0x08, 0x00, 0x00, 0x50, 0x08, 0x00, 0x00,
  0x3c, 0x08, 0x00, 0x00, 0x28, 0x08, 0x00, 0x00, 0x14, 0x08, 0x00, 0x00,
  0x00, 0x08, 0x00, 0x00, 0xec, 0x07, 0x00, 0x00, 0xd8, 0x07, 0x00, 0x00,
  0xc4, 0x07, 0x00, 0x00, 0xb0, 0x07, 0x00, 0x00, 0x9c, 0x07, 0x00, 0x00,
  0x88, 0x07, 0x00, 0x00, 0x74, 0x07, 0x00, 0x00, 0x60, 0x07, 0x00, 0x00,
  0x4c, 0x07, 0x00, 0x00, 0x38, 0x07, 0x00, 0x00, 0x24, 0x07, 0x00, 0x00,
  0x10, 0x07, 0x00, 0x00, 0xfc, 0x06, 0x00, 0x00, 0xe8, 0x06, 0x00, 0x00,
  0xd4, 0x06, 0x00, 0x00, 0xc0, 0x06, 0x00, 0x00, 0xac, 0x06, 0x00, 0x00,
  0x98, 0x06, 0x00, 0x00, 0x84, 0x06, 0x00, 0x00, 0x70, 0x06, 0x00, 0x00,
  0x5c, 0x06, 0x00, 0x00, 0x48, 0x06, 0x00, 0x00, 0x34, 0x06, 0x00, 0x00,
  0x20, 0x06, 0x00, 0x00, 0x0c, 0x06, 0x00, 0x00, 0xf8, 0x05, 0x00, 0x00,
  0xe4, 0x05, 0x00, 0x00, 0xd0, 0x05, 0x00, 0x00, 0xbc, 0x05, 0x00, 0x00,
  0xa8, 0x05, 0x00, 0x00, 0x94, 0x05, 0x00, 0x00, 0x80, 0x05, 0x00, 0x00,
  0x6c, 0x05, 0x00, 0x00, 0x58, 0x05, 0x00, 0x00, 0x44, 0x05, 0x00, 0x00,
  0x30, 0x05, 0x00, 0x00, 0x1c, 0x05, 0x00, 0x00, 0x08, 0x05, 0x00, 0x00,
  0xf4, 0x04, 0x00, 0x00, 0xe0, 0x04, 0x00, 0x00, 0xcc, 0x04, 0x00, 0x00,
  0xb8, 0x04, 0x00, 0x00, 0xa4, 0x04, 0x00, 0x00, 0x90, 0x04, 0x00, 0x00,
  0x7c, 0x04, 0x00, 0x00, 0x68, 0x04, 0x00, 0x00, 0x54, 0x04, 0x00, 0x00,
  0x40, 0x04, 0x00, 0x00, 0x2c, 0x04, 0x00, 0x00, 0x18, 0x04, 0x00, 0x00,
  0x04, 0x04, 0x00, 0x00, 0xf0, 0x03, 0x00, 0x00, 0xdc, 0x03, 0x00, 0x00,
  0xc8, 0x03, 0x00, 0x00, 0xb4, 0x03, 0x00, 0x00, 0xa0, 0x03, 0x00, 0x00,
  0x8c, 0x03, 0x00, 0x00, 0x78, 0x03, 0x00, 0x00, 0x64, 0x03, 0x00, 0x00,
  0x50, 0x03, 0x00, 0x00, 0x3c, 0x03, 0x00, 0x00, 0x28, 0x03, 0x00, 0x00,
  0x14, 0x03, 0x00, 0x00, 0x00, 0x03, 0x00, 0x00, 0xec, 0x02, 0x00, 0x00,
  0xd8, 0x02, 0x00, 0x00, 0xc4, 0x02, 0x00, 0x00, 0xb0, 0x02, 0x00, 0x00,
  0x9c, 0x02, 0x00, 0x00, 0x88, 0x02, 0x00, 0x00, 0x74, 0x02, 0x00, 0x00,
  0x60, 0x02, 0x00, 0x00, 0x4c, 0x02, 0x00, 0x00, 0x38, 0x02, 0x00, 0x00,
  0x24, 0x02, 0x00, 0x00, 0x10, 0x02, 0x00, 0x00, 0xfc, 0x01, 0x00, 0x00,
  0xe8, 0x01, 0x00, 0x00, 0xd4, 0x01, 0x00, 0x00, 0xc0, 0x01, 0x00, 0x00,
  0xac, 0x01, 0x00, 0x00, 0x98, 0x01, 0x00, 0x00, 0x84, 0x01, 0x00, 0x00,
  0x70, 0x01, 0x00, 0x00, 0x5c, 0x01, 0x00, 0x00, 0x48, 0x01, 0x00, 0x00,
  0x34, 0x01, 0x00, 0x00, 0x20, 0x01, 0x00, 0x00, 0x0c, 0x01, 0x00, 0x00,
  0xf8, 0x00, 0x00, 0x00, 0xe4, 0x00, 0x00, 0x00, 0xd0, 0x00, 0x00, 0x00,
  0xbc, 0x00, 0x00, 0x00, 0xa8, 0x00, 0x00, 0x00, 0x94, 0x00, 0x00, 0x00,
  0x80, 0x00, 0x00, 0x00, 0x6c, 0x00, 0x00, 0x00, 0x58, 0x00, 0x00, 0x00,
  0x44, 0x00, 0x00, 0x00, 0x30, 0x00, 0x00, 0x00, 0x04, 0x00, 0x00, 0x00,
  0x46, 0xa9, 0xff, 0xff, 0x04, 0x00, 0x00, 0x00, 0x10, 0x00, 0x00, 0x00,
  0x32, 0x2e, 0x30, 0x2e, 0x30, 0x00, 0x00, 0x00, 0x00, 0x00, 0x00, 0x00,
  0x00, 0x00, 0x00, 0x00, 0x00, 0x00, 0x00, 0x00, 0x00, 0x00, 0x00, 0x00,
  0x00, 0x00, 0x00, 0x00, 0x7c, 0x6c, 0xff, 0xff, 0x00, 0x00, 0x00, 0x00,
  0x00, 0x00, 0x00, 0x00, 0x00, 0x00, 0x00, 0x00, 0x8c, 0x6c, 0xff, 0xff,
  0x00, 0x00, 0x00, 0x00, 0x00, 0x00, 0x00, 0x00, 0x00, 0x00, 0x00, 0x00,
  0x9c, 0x6c, 0xff, 0xff, 0x00, 0x00, 0x00, 0x00, 0x00, 0x00, 0x00, 0x00,
  0x00, 0x00, 0x00, 0x00, 0xac, 0x6c, 0xff, 0xff, 0x00, 0x00, 0x00, 0x00,
  0x00, 0x00, 0x00, 0x00, 0x00, 0x00, 0x00, 0x00, 0xbc, 0x6c, 0xff, 0xff,
  0x00, 0x00, 0x00, 0x00, 0x00, 0x00, 0x00, 0x00, 0x00, 0x00, 0x00, 0x00,
  0xcc, 0x6c, 0xff, 0xff, 0x00, 0x00, 0x00, 0x00, 0x00, 0x00, 0x00, 0x00,
  0x00, 0x00, 0x00, 0x00, 0xdc, 0x6c, 0xff, 0xff, 0x00, 0x00, 0x00, 0x00,
  0x00, 0x00, 0x00, 0x00, 0x00, 0x00, 0x00, 0x00, 0xec, 0x6c, 0xff, 0xff,
  0x00, 0x00, 0x00, 0x00, 0x00, 0x00, 0x00, 0x00, 0x00, 0x00, 0x00, 0x00,
  0xfc, 0x6c, 0xff, 0xff, 0x00, 0x00, 0x00, 0x00, 0x00, 0x00, 0x00, 0x00,
  0x00, 0x00, 0x00, 0x00, 0x0c, 0x6d, 0xff, 0xff, 0x00, 0x00, 0x00, 0x00,
  0x00, 0x00, 0x00, 0x00, 0x00, 0x00, 0x00, 0x00, 0x1c, 0x6d, 0xff, 0xff,
  0x00, 0x00, 0x00, 0x00, 0x00, 0x00, 0x00, 0x00, 0x00, 0x00, 0x00, 0x00,
  0x2c, 0x6d, 0xff, 0xff, 0x00, 0x00, 0x00, 0x00, 0x00, 0x00, 0x00, 0x00,
  0x00, 0x00, 0x00, 0x00, 0x3c, 0x6d, 0xff, 0xff, 0x00, 0x00, 0x00, 0x00,
  0x00, 0x00, 0x00, 0x00, 0x00, 0x00, 0x00, 0x00, 0x4c, 0x6d, 0xff, 0xff,
  0x00, 0x00, 0x00, 0x00, 0x00, 0x00, 0x00, 0x00, 0x00, 0x00, 0x00, 0x00,
  0x5c, 0x6d, 0xff, 0xff, 0x00, 0x00, 0x00, 0x00, 0x00, 0x00, 0x00, 0x00,
  0x00, 0x00, 0x00, 0x00, 0x6c, 0x6d, 0xff, 0xff, 0x00, 0x00, 0x00, 0x00,
  0x00, 0x00, 0x00, 0x00, 0x00, 0x00, 0x00, 0x00, 0x7c, 0x6d, 0xff, 0xff,
  0x00, 0x00, 0x00, 0x00, 0x00, 0x00, 0x00, 0x00, 0x00, 0x00, 0x00, 0x00,
  0x8c, 0x6d, 0xff, 0xff, 0x00, 0x00, 0x00, 0x00, 0x00, 0x00, 0x00, 0x00,
  0x00, 0x00, 0x00, 0x00, 0x9c, 0x6d, 0xff, 0xff, 0x00, 0x00, 0x00, 0x00,
  0x00, 0x00, 0x00, 0x00, 0x00, 0x00, 0x00, 0x00, 0xac, 0x6d, 0xff, 0xff,
  0x00, 0x00, 0x00, 0x00, 0x00, 0x00, 0x00, 0x00, 0x00, 0x00, 0x00, 0x00,
  0xbc, 0x6d, 0xff, 0xff, 0x00, 0x00, 0x00, 0x00, 0x00, 0x00, 0x00, 0x00,
  0x00, 0x00, 0x00, 0x00, 0xcc, 0x6d, 0xff, 0xff, 0x00, 0x00, 0x00, 0x00,
  0x00, 0x00, 0x00, 0x00, 0x00, 0x00, 0x00, 0x00, 0xdc, 0x6d, 0xff, 0xff,
  0x00, 0x00, 0x00, 0x00, 0x00, 0x00, 0x00, 0x00, 0x00, 0x00, 0x00, 0x00,
  0xec, 0x6d, 0xff, 0xff, 0x00, 0x00, 0x00, 0x00, 0x00, 0x00, 0x00, 0x00,
  0x00, 0x00, 0x00, 0x00, 0xfc, 0x6d, 0xff, 0xff, 0x00, 0x00, 0x00, 0x00,
  0x00, 0x00, 0x00, 0x00, 0x00, 0x00, 0x00, 0x00, 0x0c, 0x6e, 0xff, 0xff,
  0x00, 0x00, 0x00, 0x00, 0x00, 0x00, 0x00, 0x00, 0x00, 0x00, 0x00, 0x00,
  0x1c, 0x6e, 0xff, 0xff, 0x00, 0x00, 0x00, 0x00, 0x00, 0x00, 0x00, 0x00,
  0x00, 0x00, 0x00, 0x00, 0x2c, 0x6e, 0xff, 0xff, 0x00, 0x00, 0x00, 0x00,
  0x00, 0x00, 0x00, 0x00, 0x00, 0x00, 0x00, 0x00, 0x3c, 0x6e, 0xff, 0xff,
  0x00, 0x00, 0x00, 0x00, 0x00, 0x00, 0x00, 0x00, 0x00, 0x00, 0x00, 0x00,
  0x4c, 0x6e, 0xff, 0xff, 0x00, 0x00, 0x00, 0x00, 0x00, 0x00, 0x00, 0x00,
  0x00, 0x00, 0x00, 0x00, 0x5c, 0x6e, 0xff, 0xff, 0x00, 0x00, 0x00, 0x00,
  0x00, 0x00, 0x00, 0x00, 0x00, 0x00, 0x00, 0x00, 0x6c, 0x6e, 0xff, 0xff,
  0x00, 0x00, 0x00, 0x00, 0x00, 0x00, 0x00, 0x00, 0x00, 0x00, 0x00, 0x00,
  0x7c, 0x6e, 0xff, 0xff, 0x00, 0x00, 0x00, 0x00, 0x00, 0x00, 0x00, 0x00,
  0x00, 0x00, 0x00, 0x00, 0x8c, 0x6e, 0xff, 0xff, 0x00, 0x00, 0x00, 0x00,
  0x00, 0x00, 0x00, 0x00, 0x00, 0x00, 0x00, 0x00, 0x9c, 0x6e, 0xff, 0xff,
  0x00, 0x00, 0x00, 0x00, 0x00, 0x00, 0x00, 0x00, 0x00, 0x00, 0x00, 0x00,
  0xac, 0x6e, 0xff, 0xff, 0x00, 0x00, 0x00, 0x00, 0x00, 0x00, 0x00, 0x00,
  0x00, 0x00, 0x00, 0x00, 0xbc, 0x6e, 0xff, 0xff, 0x00, 0x00, 0x00, 0x00,
  0x00, 0x00, 0x00, 0x00, 0x00, 0x00, 0x00, 0x00, 0xcc, 0x6e, 0xff, 0xff,
  0x00, 0x00, 0x00, 0x00, 0x00, 0x00, 0x00, 0x00, 0x00, 0x00, 0x00, 0x00,
  0xdc, 0x6e, 0xff, 0xff, 0x00, 0x00, 0x00, 0x00, 0x00, 0x00, 0x00, 0x00,
  0x00, 0x00, 0x00, 0x00, 0xec, 0x6e, 0xff, 0xff, 0x00, 0x00, 0x00, 0x00,
  0x00, 0x00, 0x00, 0x00, 0x00, 0x00, 0x00, 0x00, 0xfc, 0x6e, 0xff, 0xff,
  0x00, 0x00, 0x00, 0x00, 0x00, 0x00, 0x00, 0x00, 0x00, 0x00, 0x00, 0x00,
  0x0c, 0x6f, 0xff, 0xff, 0x00, 0x00, 0x00, 0x00, 0x00, 0x00, 0x00, 0x00,
  0x00, 0x00, 0x00, 0x00, 0x1c, 0x6f, 0xff, 0xff, 0x00, 0x00, 0x00, 0x00,
  0x00, 0x00, 0x00, 0x00, 0x00, 0x00, 0x00, 0x00, 0x2c, 0x6f, 0xff, 0xff,
  0x00, 0x00, 0x00, 0x00, 0x00, 0x00, 0x00, 0x00, 0x00, 0x00, 0x00, 0x00,
  0x3c, 0x6f, 0xff, 0xff, 0x00, 0x00, 0x00, 0x00, 0x00, 0x00, 0x00, 0x00,
  0x00, 0x00, 0x00, 0x00, 0x4c, 0x6f, 0xff, 0xff, 0x00, 0x00, 0x00, 0x00,
  0x00, 0x00, 0x00, 0x00, 0x00, 0x00, 0x00, 0x00, 0x5c, 0x6f, 0xff, 0xff,
  0x00, 0x00, 0x00, 0x00, 0x00, 0x00, 0x00, 0x00, 0x00, 0x00, 0x00, 0x00,
  0x6c, 0x6f, 0xff, 0xff, 0x00, 0x00, 0x00, 0x00, 0x00, 0x00, 0x00, 0x00,
  0x00, 0x00, 0x00, 0x00, 0x7c, 0x6f, 0xff, 0xff, 0x00, 0x00, 0x00, 0x00,
  0x00, 0x00, 0x00, 0x00, 0x00, 0x00, 0x00, 0x00, 0x8c, 0x6f, 0xff, 0xff,
  0x00, 0x00, 0x00, 0x00, 0x00, 0x00, 0x00, 0x00, 0x00, 0x00, 0x00, 0x00,
  0x9c, 0x6f, 0xff, 0xff, 0x00, 0x00, 0x00, 0x00, 0x00, 0x00, 0x00, 0x00,
  0x00, 0x00, 0x00, 0x00, 0xac, 0x6f, 0xff, 0xff, 0x00, 0x00, 0x00, 0x00,
  0x00, 0x00, 0x00, 0x00, 0x00, 0x00, 0x00, 0x00, 0xbc, 0x6f, 0xff, 0xff,
  0x00, 0x00, 0x00, 0x00, 0x00, 0x00, 0x00, 0x00, 0x00, 0x00, 0x00, 0x00,
  0xcc, 0x6f, 0xff, 0xff, 0x00, 0x00, 0x00, 0x00, 0x00, 0x00, 0x00, 0x00,
  0x00, 0x00, 0x00, 0x00, 0xdc, 0x6f, 0xff, 0xff, 0x00, 0x00, 0x00, 0x00,
  0x00, 0x00, 0x00, 0x00, 0x00, 0x00, 0x00, 0x00, 0xec, 0x6f, 0xff, 0xff,
  0x00, 0x00, 0x00, 0x00, 0x00, 0x00, 0x00, 0x00, 0x00, 0x00, 0x00, 0x00,
  0xfc, 0x6f, 0xff, 0xff, 0x00, 0x00, 0x00, 0x00, 0x00, 0x00, 0x00, 0x00,
  0x00, 0x00, 0x00, 0x00, 0x0c, 0x70, 0xff, 0xff, 0x00, 0x00, 0x00, 0x00,
  0x00, 0x00, 0x00, 0x00, 0x00, 0x00, 0x00, 0x00, 0x1c, 0x70, 0xff, 0xff,
  0x00, 0x00, 0x00, 0x00, 0x00, 0x00, 0x00, 0x00, 0x00, 0x00, 0x00, 0x00,
  0x2c, 0x70, 0xff, 0xff, 0x00, 0x00, 0x00, 0x00, 0x00, 0x00, 0x00, 0x00,
  0x00, 0x00, 0x00, 0x00, 0x3c, 0x70, 0xff, 0xff, 0x00, 0x00, 0x00, 0x00,
  0x00, 0x00, 0x00, 0x00, 0x00, 0x00, 0x00, 0x00, 0x4c, 0x70, 0xff, 0xff,
  0x00, 0x00, 0x00, 0x00, 0x00, 0x00, 0x00, 0x00, 0x00, 0x00, 0x00, 0x00,
  0x5c, 0x70, 0xff, 0xff, 0x00, 0x00, 0x00, 0x00, 0x00, 0x00, 0x00, 0x00,
  0x00, 0x00, 0x00, 0x00, 0x6c, 0x70, 0xff, 0xff, 0x00, 0x00, 0x00, 0x00,
  0x00, 0x00, 0x00, 0x00, 0x00, 0x00, 0x00, 0x00, 0x7c, 0x70, 0xff, 0xff,
  0x00, 0x00, 0x00, 0x00, 0x00, 0x00, 0x00, 0x00, 0x00, 0x00, 0x00, 0x00,
  0x8c, 0x70, 0xff, 0xff, 0x00, 0x00, 0x00, 0x00, 0x00, 0x00, 0x00, 0x00,
  0x00, 0x00, 0x00, 0x00, 0x9c, 0x70, 0xff, 0xff, 0x00, 0x00, 0x00, 0x00,
  0x00, 0x00, 0x00, 0x00, 0x00, 0x00, 0x00, 0x00, 0xac, 0x70, 0xff, 0xff,
  0x00, 0x00, 0x00, 0x00, 0x00, 0x00, 0x00, 0x00, 0x00, 0x00, 0x00, 0x00,
  0xbc, 0x70, 0xff, 0xff, 0x00, 0x00, 0x00, 0x00, 0x00, 0x00, 0x00, 0x00,
  0x00, 0x00, 0x00, 0x00, 0xcc, 0x70, 0xff, 0xff, 0x00, 0x00, 0x00, 0x00,
  0x00, 0x00, 0x00, 0x00, 0x00, 0x00, 0x00, 0x00, 0xdc, 0x70, 0xff, 0xff,
  0x00, 0x00, 0x00, 0x00, 0x00, 0x00, 0x00, 0x00, 0x00, 0x00, 0x00, 0x00,
  0xec, 0x70, 0xff, 0xff, 0x00, 0x00, 0x00, 0x00, 0x00, 0x00, 0x00, 0x00,
  0x00, 0x00, 0x00, 0x00, 0xfc, 0x70, 0xff, 0xff, 0x00, 0x00, 0x00, 0x00,
  0x00, 0x00, 0x00, 0x00, 0x00, 0x00, 0x00, 0x00, 0x0c, 0x71, 0xff, 0xff,
  0x00, 0x00, 0x00, 0x00, 0x00, 0x00, 0x00, 0x00, 0x00, 0x00, 0x00, 0x00,
  0x1c, 0x71, 0xff, 0xff, 0x00, 0x00, 0x00, 0x00, 0x00, 0x00, 0x00, 0x00,
  0x00, 0x00, 0x00, 0x00, 0x2c, 0x71, 0xff, 0xff, 0x00, 0x00, 0x00, 0x00,
  0x00, 0x00, 0x00, 0x00, 0x00, 0x00, 0x00, 0x00, 0x3c, 0x71, 0xff, 0xff,
  0x00, 0x00, 0x00, 0x00, 0x00, 0x00, 0x00, 0x00, 0x00, 0x00, 0x00, 0x00,
  0x4c, 0x71, 0xff, 0xff, 0x00, 0x00, 0x00, 0x00, 0x00, 0x00, 0x00, 0x00,
  0x00, 0x00, 0x00, 0x00, 0x5c, 0x71, 0xff, 0xff, 0x00, 0x00, 0x00, 0x00,
  0x00, 0x00, 0x00, 0x00, 0x00, 0x00, 0x00, 0x00, 0x6c, 0x71, 0xff, 0xff,
  0x00, 0x00, 0x00, 0x00, 0x00, 0x00, 0x00, 0x00, 0x00, 0x00, 0x00, 0x00,
  0x7c, 0x71, 0xff, 0xff, 0x00, 0x00, 0x00, 0x00, 0x00, 0x00, 0x00, 0x00,
  0x00, 0x00, 0x00, 0x00, 0x8c, 0x71, 0xff, 0xff, 0x00, 0x00, 0x00, 0x00,
  0x00, 0x00, 0x00, 0x00, 0x00, 0x00, 0x00, 0x00, 0x9c, 0x71, 0xff, 0xff,
  0x00, 0x00, 0x00, 0x00, 0x00, 0x00, 0x00, 0x00, 0x00, 0x00, 0x00, 0x00,
  0xac, 0x71, 0xff, 0xff, 0x00, 0x00, 0x00, 0x00, 0x00, 0x00, 0x00, 0x00,
  0x00, 0x00, 0x00, 0x00, 0xbc, 0x71, 0xff, 0xff, 0x00, 0x00, 0x00, 0x00,
  0x00, 0x00, 0x00, 0x00, 0x00, 0x00, 0x00, 0x00, 0xcc, 0x71, 0xff, 0xff,
  0x00, 0x00, 0x00, 0x00, 0x00, 0x00, 0x00, 0x00, 0x00, 0x00, 0x00, 0x00,
  0xdc, 0x71, 0xff, 0xff, 0x00, 0x00, 0x00, 0x00, 0x00, 0x00, 0x00, 0x00,
  0x00, 0x00, 0x00, 0x00, 0xec, 0x71, 0xff, 0xff, 0x00, 0x00, 0x00, 0x00,
  0x00, 0x00, 0x00, 0x00, 0x00, 0x00, 0x00, 0x00, 0xfc, 0x71, 0xff, 0xff,
  0x00, 0x00, 0x00, 0x00, 0x00, 0x00, 0x00, 0x00, 0x00, 0x00, 0x00, 0x00,
  0x0c, 0x72, 0xff, 0xff, 0x00, 0x00, 0x00, 0x00, 0x00, 0x00, 0x00, 0x00,
  0x00, 0x00, 0x00, 0x00, 0x1c, 0x72, 0xff, 0xff, 0x00, 0x00, 0x00, 0x00,
  0x00, 0x00, 0x00, 0x00, 0x00, 0x00, 0x00, 0x00, 0x2c, 0x72, 0xff, 0xff,
  0x00, 0x00, 0x00, 0x00, 0x00, 0x00, 0x00, 0x00, 0x00, 0x00, 0x00, 0x00,
  0x3c, 0x72, 0xff, 0xff, 0x00, 0x00, 0x00, 0x00, 0x00, 0x00, 0x00, 0x00,
  0x00, 0x00, 0x00, 0x00, 0x4c, 0x72, 0xff, 0xff, 0x00, 0x00, 0x00, 0x00,
  0x00, 0x00, 0x00, 0x00, 0x00, 0x00, 0x00, 0x00, 0x5c, 0x72, 0xff, 0xff,
  0x00, 0x00, 0x00, 0x00, 0x00, 0x00, 0x00, 0x00, 0x00, 0x00, 0x00, 0x00,
  0x6c, 0x72, 0xff, 0xff, 0x00, 0x00, 0x00, 0x00, 0x00, 0x00, 0x00, 0x00,
  0x00, 0x00, 0x00, 0x00, 0x7c, 0x72, 0xff, 0xff, 0x00, 0x00, 0x00, 0x00,
  0x00, 0x00, 0x00, 0x00, 0x00, 0x00, 0x00, 0x00, 0x8c, 0x72, 0xff, 0xff,
  0x00, 0x00, 0x00, 0x00, 0x00, 0x00, 0x00, 0x00, 0x00, 0x00, 0x00, 0x00,
  0x9c, 0x72, 0xff, 0xff, 0x00, 0x00, 0x00, 0x00, 0x00, 0x00, 0x00, 0x00,
  0x00, 0x00, 0x00, 0x00, 0xac, 0x72, 0xff, 0xff, 0x00, 0x00, 0x00, 0x00,
  0x00, 0x00, 0x00, 0x00, 0x00, 0x00, 0x00, 0x00, 0xbc, 0x72, 0xff, 0xff,
  0x00, 0x00, 0x00, 0x00, 0x00, 0x00, 0x00, 0x00, 0x00, 0x00, 0x00, 0x00,
  0xcc, 0x72, 0xff, 0xff, 0x00, 0x00, 0x00, 0x00, 0x00, 0x00, 0x00, 0x00,
  0x00, 0x00, 0x00, 0x00, 0xdc, 0x72, 0xff, 0xff, 0x00, 0x00, 0x00, 0x00,
  0x00, 0x00, 0x00, 0x00, 0x00, 0x00, 0x00, 0x00, 0xec, 0x72, 0xff, 0xff,
  0x00, 0x00, 0x00, 0x00, 0x00, 0x00, 0x00, 0x00, 0x00, 0x00, 0x00, 0x00,
  0xfc, 0x72, 0xff, 0xff, 0x00, 0x00, 0x00, 0x00, 0x00, 0x00, 0x00, 0x00,
  0x00, 0x00, 0x00, 0x00, 0x0c, 0x73, 0xff, 0xff, 0x00, 0x00, 0x00, 0x00,
  0x00, 0x00, 0x00, 0x00, 0x00, 0x00, 0x00, 0x00, 0x1c, 0x73, 0xff, 0xff,
  0x00, 0x00, 0x00, 0x00, 0x00, 0x00, 0x00, 0x00, 0x00, 0x00, 0x00, 0x00,
  0x2c, 0x73, 0xff, 0xff, 0x00, 0x00, 0x00, 0x00, 0x00, 0x00, 0x00, 0x00,
  0x00, 0x00, 0x00, 0x00, 0x3c, 0x73, 0xff, 0xff, 0x00, 0x00, 0x00, 0x00,
  0x00, 0x00, 0x00, 0x00, 0x00, 0x00, 0x00, 0x00, 0x4c, 0x73, 0xff, 0xff,
  0x00, 0x00, 0x00, 0x00, 0x00, 0x00, 0x00, 0x00, 0x00, 0x00, 0x00, 0x00,
  0x5c, 0x73, 0xff, 0xff, 0x00, 0x00, 0x00, 0x00, 0x00, 0x00, 0x00, 0x00,
  0x00, 0x00, 0x00, 0x00, 0x6c, 0x73, 0xff, 0xff, 0x00, 0x00, 0x00, 0x00,
  0x00, 0x00, 0x00, 0x00, 0x00, 0x00, 0x00, 0x00, 0x7c, 0x73, 0xff, 0xff,
  0x00, 0x00, 0x00, 0x00, 0x00, 0x00, 0x00, 0x00, 0x00, 0x00, 0x00, 0x00,
  0x8c, 0x73, 0xff, 0xff, 0x00, 0x00, 0x00, 0x00, 0x00, 0x00, 0x00, 0x00,
  0x00, 0x00, 0x00, 0x00, 0x9c, 0x73, 0xff, 0xff, 0x00, 0x00, 0x00, 0x00,
  0x00, 0x00, 0x00, 0x00, 0x00, 0x00, 0x00, 0x00, 0xac, 0x73, 0xff, 0xff,
  0x00, 0x00, 0x00, 0x00, 0x00, 0x00, 0x00, 0x00, 0x00, 0x00, 0x00, 0x00,
  0xbc, 0x73, 0xff, 0xff, 0x00, 0x00, 0x00, 0x00, 0x00, 0x00, 0x00, 0x00,
  0x00, 0x00, 0x00, 0x00, 0xcc, 0x73, 0xff, 0xff, 0x00, 0x00, 0x00, 0x00,
  0x00, 0x00, 0x00, 0x00, 0x00, 0x00, 0x00, 0x00, 0xdc, 0x73, 0xff, 0xff,
  0x00, 0x00, 0x00, 0x00, 0x00, 0x00, 0x00, 0x00, 0x00, 0x00, 0x00, 0x00,
  0xec, 0x73, 0xff, 0xff, 0x00, 0x00, 0x00, 0x00, 0x00, 0x00, 0x00, 0x00,
  0x00, 0x00, 0x00, 0x00, 0xfc, 0x73, 0xff, 0xff, 0x00, 0x00, 0x00, 0x00,
  0x00, 0x00, 0x00, 0x00, 0x00, 0x00, 0x00, 0x00, 0x0c, 0x74, 0xff, 0xff,
  0x00, 0x00, 0x00, 0x00, 0x06, 0xb1, 0xff, 0xff, 0x04, 0x00, 0x00, 0x00,
  0x10, 0x00, 0x00, 0x00, 0x01, 0x00, 0x00, 0x00, 0x01, 0x00, 0x00, 0x00,
  0x0c, 0x00, 0x00, 0x00, 0x6c, 0x00, 0x00, 0x00, 0x00, 0x00, 0x00, 0x00,
  0x26, 0xb1, 0xff, 0xff, 0x04, 0x00, 0x00, 0x00, 0x0c, 0x00, 0x00, 0x00,
  0x01, 0x00, 0x00, 0x00, 0x0c, 0x00, 0x00, 0x00, 0x01, 0x00, 0x00, 0x00,
  0x00, 0x00, 0x00, 0x00, 0x00, 0x00, 0x00, 0x00, 0x46, 0xb1, 0xff, 0xff,
  0x04, 0x00, 0x00, 0x00, 0x0c, 0x00, 0x00, 0x00, 0x01, 0x00, 0x00, 0x00,
  0x0c, 0x00, 0x00, 0x00, 0x24, 0x00, 0x00, 0x00, 0x00, 0x00, 0x00, 0x00,
  0x00, 0x00, 0x00, 0x00, 0x66, 0xb1, 0xff, 0xff, 0x04, 0x00, 0x00, 0x00,
  0x08, 0x00, 0x00, 0x00, 0x0c, 0x00, 0x00, 0x00, 0x24, 0x00, 0x00, 0x00,
  0x00, 0x00, 0x00, 0x00, 0x00, 0x00, 0x00, 0x00, 0x00, 0x00, 0x00, 0x00,
  0x86, 0xb1, 0xff, 0xff, 0x04, 0x00, 0x00, 0x00, 0x10, 0x00, 0x00, 0x00,
  0x01, 0x00, 0x00, 0x00, 0x01, 0x00, 0x00, 0x00, 0x0c, 0x00, 0x00, 0x00,
  0x0c, 0x00, 0x00, 0x00, 0x00, 0x00, 0x00, 0x00, 0xa6, 0xb1, 0xff, 0xff,
  0x04, 0x00, 0x00, 0x00, 0x08, 0x00, 0x00, 0x00, 0x24, 0x00, 0x00, 0x00,
  0x0c, 0x00, 0x00, 0x00, 0x00, 0x00, 0x00, 0x00, 0x00, 0x00, 0x00, 0x00,
  0x00, 0x00, 0x00, 0x00, 0xc6, 0xb1, 0xff, 0xff, 0x04, 0x00, 0x00, 0x00,
  0x0c, 0x00, 0x00, 0x00, 0x01, 0x00, 0x00, 0x00, 0x01, 0x00, 0x00, 0x00,
  0x01, 0x00, 0x00, 0x00, 0x00, 0x00, 0x00, 0x00, 0x00, 0x00, 0x00, 0x00,
  0xe6, 0xb1, 0xff, 0xff, 0x04, 0x00, 0x00, 0x00, 0x0c, 0x00, 0x00, 0x00,
  0x01, 0x00, 0x00, 0x00, 0x09, 0x00, 0x00, 0x00, 0x24, 0x00, 0x00, 0x00,
  0x00, 0x00, 0x00, 0x00, 0x00, 0x00, 0x00, 0x00, 0x06, 0xb2, 0xff, 0xff,
  0x04, 0x00, 0x00, 0x00, 0x0c, 0x00, 0x00, 0x00, 0x00, 0x00, 0x00, 0x00,
  0x08, 0x00, 0x00, 0x00, 0x00, 0x00, 0x00, 0x00, 0x00, 0x00, 0x00, 0x00,
  0x00, 0x00, 0x00, 0x00, 0x26, 0xb2, 0xff, 0xff, 0x04, 0x00, 0x00, 0x00,
  0x0c, 0x00, 0x00, 0x00, 0x01, 0x00, 0x00, 0x00, 0x08, 0x00, 0x00, 0x00,
  0x24, 0x00, 0x00, 0x00, 0x00, 0x00, 0x00, 0x00, 0x00, 0x00, 0x00, 0x00,
  0x46, 0xb2, 0xff, 0xff, 0x04, 0x00, 0x00, 0x00, 0x0c, 0x00, 0x00, 0x00,
  0x00, 0x00, 0x00, 0x00, 0x07, 0x00, 0x00, 0x00, 0x00, 0x00, 0x00, 0x00,
  0x00, 0x00, 0x00, 0x00, 0x00, 0x00, 0x00, 0x00, 0x66, 0xb2, 0xff, 0xff,
  0x04, 0x00, 0x00, 0x00, 0x0c, 0x00, 0x00, 0x00, 0x01, 0x00, 0x00, 0x00,
  0x07, 0x00, 0x00, 0x00, 0x24, 0x00, 0x00, 0x00, 0x00, 0x00, 0x00, 0x00,
  0x00, 0x00, 0x00, 0x00, 0x86, 0xb2, 0xff, 0xff, 0x04, 0x00, 0x00, 0x00,
  0x0c, 0x00, 0x00, 0x00, 0x00, 0x00, 0x00, 0x00, 0x06, 0x00, 0x00, 0x00,
  0x00, 0x00, 0x00, 0x00, 0x00, 0x00, 0x00, 0x00, 0x00, 0x00, 0x00, 0x00,
  0xa6, 0xb2, 0xff, 0xff, 0x04, 0x00, 0x00, 0x00, 0x0c, 0x00, 0x00, 0x00,
  0x01, 0x00, 0x00, 0x00, 0x06, 0x00, 0x00, 0x00, 0x24, 0x00, 0x00, 0x00,
  0x00, 0x00, 0x00, 0x00, 0x00, 0x00, 0x00, 0x00, 0xc6, 0xb2, 0xff, 0xff,
  0x04, 0x00, 0x00, 0x00, 0x0c, 0x00, 0x00, 0x00, 0x00, 0x00, 0x00, 0x00,
  0x05, 0x00, 0x00, 0x00, 0x00, 0x00, 0x00, 0x00, 0x00, 0x00, 0x00, 0x00,
  0x00, 0x00, 0x00, 0x00, 0xe6, 0xb2, 0xff, 0xff, 0x04, 0x00, 0x00, 0x00,
  0x0c, 0x00, 0x00, 0x00, 0x00, 0x00, 0x00, 0x00, 0x0b, 0x00, 0x00, 0x00,
  0x00, 0x00, 0x00, 0x00, 0x00, 0x00, 0x00, 0x00, 0x00, 0x00, 0x00, 0x00,
  0x06, 0xb3, 0xff, 0xff, 0x04, 0x00, 0x00, 0x00, 0x0c, 0x00, 0x00, 0x00,
  0x01, 0x00, 0x00, 0x00, 0x0b, 0x00, 0x00, 0x00, 0x24, 0x00, 0x00, 0x00,
  0x00, 0x00, 0x00, 0x00, 0x00, 0x00, 0x00, 0x00, 0x26, 0xb3, 0xff, 0xff,
  0x04, 0x00, 0x00, 0x00, 0x0c, 0x00, 0x00, 0x00, 0x00, 0x00, 0x00, 0x00,
  0x0a, 0x00, 0x00, 0x00, 0x00, 0x00, 0x00, 0x00, 0x00, 0x00, 0x00, 0x00,
  0x00, 0x00, 0x00, 0x00, 0x46, 0xb3, 0xff, 0xff, 0x04, 0x00, 0x00, 0x00,
  0x0c, 0x00, 0x00, 0x00, 0x01, 0x00, 0x00, 0x00, 0x0a, 0x00, 0x00, 0x00,
  0x24, 0x00, 0x00, 0x00, 0x00, 0x00, 0x00, 0x00, 0x00, 0x00, 0x00, 0x00,
  0x66, 0xb3, 0xff, 0xff, 0x04, 0x00, 0x00, 0x00, 0x0c, 0x00, 0x00, 0x00,
  0x00, 0x00, 0x00, 0x00, 0x09, 0x00, 0x00, 0x00, 0x00, 0x00, 0x00, 0x00,
  0x00, 0x00, 0x00, 0x00, 0x00, 0x00, 0x00, 0x00, 0x86, 0xb3, 0xff, 0xff,
  0x04, 0x00, 0x00, 0x00, 0x0c, 0x00, 0x00, 0x00, 0x01, 0x00, 0x00, 0x00,
  0x05, 0x00, 0x00, 0x00, 0x24, 0x00, 0x00, 0x00, 0x00, 0x00, 0x00, 0x00,
  0x00, 0x00, 0x00, 0x00, 0xa6, 0xb3, 0xff, 0xff, 0x04, 0x00, 0x00, 0x00,
  0x0c, 0x00, 0x00, 0x00, 0x00, 0x00, 0x00, 0x00, 0x04, 0x00, 0x00, 0x00,
  0x00, 0x00, 0x00, 0x00, 0x00, 0x00, 0x00, 0x00, 0x00, 0x00, 0x00, 0x00,
  0xc6, 0xb3, 0xff, 0xff, 0x04, 0x00, 0x00, 0x00, 0x0c, 0x00, 0x00, 0x00,
  0x01, 0x00, 0x00, 0x00, 0x04, 0x00, 0x00, 0x00, 0x24, 0x00, 0x00, 0x00,
  0x00, 0x00, 0x00, 0x00, 0x00, 0x00, 0x00, 0x00, 0xe6, 0xb3, 0xff, 0xff,
  0x04, 0x00, 0x00, 0x00, 0x0c, 0x00, 0x00, 0x00, 0x00, 0x00, 0x00, 0x00,
  0x03, 0x00, 0x00, 0x00, 0x00, 0x00, 0x00, 0x00, 0x00, 0x00, 0x00, 0x00,
  0x00, 0x00, 0x00, 0x00, 0x06, 0xb4, 0xff, 0xff, 0x04, 0x00, 0x00, 0x00,
  0x0c, 0x00, 0x00, 0x00, 0x01, 0x00, 0x00, 0x00, 0x03, 0x00, 0x00, 0x00,
  0x24, 0x00, 0x00, 0x00, 0x00, 0x00, 0x00, 0x00, 0x00, 0x00, 0x00, 0x00,
  0x26, 0xb4, 0xff, 0xff, 0x04, 0x00, 0x00, 0x00, 0x0c, 0x00, 0x00, 0x00,
  0x00, 0x00, 0x00, 0x00, 0x02, 0x00, 0x00, 0x00, 0x00, 0x00, 0x00, 0x00,
  0x00, 0x00, 0x00, 0x00, 0x00, 0x00, 0x00, 0x00, 0x46, 0xb4, 0xff, 0xff,
  0x04, 0x00, 0x00, 0x00, 0x0c, 0x00, 0x00, 0x00, 0x01, 0x00, 0x00, 0x00,
  0x02, 0x00, 0x00, 0x00, 0x24, 0x00, 0x00, 0x00, 0x00, 0x00, 0x00, 0x00,
  0x00, 0x00, 0x00, 0x00, 0x66, 0xb4, 0xff, 0xff, 0x04, 0x00, 0x00, 0x00,
  0x0c, 0x00, 0x00, 0x00, 0x00, 0x00, 0x00, 0x00, 0x01, 0x00, 0x00, 0x00,
  0x00, 0x00, 0x00, 0x00, 0x00, 0x00, 0x00, 0x00, 0x00, 0x00, 0x00, 0x00,
  0x86, 0xb4, 0xff, 0xff, 0x04, 0x00, 0x00, 0x00, 0x0c, 0x00, 0x00, 0x00,
  0x01, 0x00, 0x00, 0x00, 0x01, 0x00, 0x00, 0x00, 0x24, 0x00, 0x00, 0x00,
  0x00, 0x00, 0x00, 0x00, 0x00, 0x00, 0x00, 0x00, 0xa6, 0xb4, 0xff, 0xff,
  0x04, 0x00, 0x00, 0x00, 0x0c, 0x00, 0x00, 0x00, 0x00, 0x00, 0x00, 0x00,
  0x00, 0x00, 0x00, 0x00, 0x00, 0x00, 0x00, 0x00, 0x00, 0x00, 0x00, 0x00,
  0x00, 0x00, 0x00, 0x00, 0xc6, 0xb4, 0xff, 0xff, 0x04, 0x00, 0x00, 0x00,
  0x0c, 0x00, 0x00, 0x00, 0x01, 0x00, 0x00, 0x00, 0x0b, 0x00, 0x00, 0x00,
  0x01, 0x00, 0x00, 0x00, 0x00, 0x00, 0x00, 0x00, 0x00, 0x00, 0x00, 0x00,
  0xe6, 0xb4, 0xff, 0xff, 0x04, 0x00, 0x00, 0x00, 0x0c, 0x00, 0x00, 0x00,
  0x01, 0x00, 0x00, 0x00, 0x0a, 0x00, 0x00, 0x00, 0x01, 0x00, 0x00, 0x00,
  0x00, 0x00, 0x00, 0x00, 0x00, 0x00, 0x00, 0x00, 0x06, 0xb5, 0xff, 0xff,
  0x04, 0x00, 0x00, 0x00, 0x0c, 0x00, 0x00, 0x00, 0x01, 0x00, 0x00, 0x00,
  0x09, 0x00, 0x00, 0x00, 0x01, 0x00, 0x00, 0x00, 0x00, 0x00, 0x00, 0x00,
  0x00, 0x00, 0x00, 0x00, 0x26, 0xb5, 0xff, 0xff, 0x04, 0x00, 0x00, 0x00,
  0x0c, 0x00, 0x00, 0x00, 0x01, 0x00, 0x00, 0x00, 0x08, 0x00, 0x00, 0x00,
  0x01, 0x00, 0x00, 0x00, 0x00, 0x00, 0x00, 0x00, 0x00, 0x00, 0x00, 0x00,
  0x46, 0xb5, 0xff, 0xff, 0x04, 0x00, 0x00, 0x00, 0x0c, 0x00, 0x00, 0x00,
  0x01, 0x00, 0x00, 0x00, 0x07, 0x00, 0x00, 0x00, 0x01, 0x00, 0x00, 0x00,
  0x00, 0x00, 0x00, 0x00, 0x00, 0x00, 0x00, 0x00, 0x66, 0xb5, 0xff, 0xff,
  0x04, 0x00, 0x00, 0x00, 0x0c, 0x00, 0x00, 0x00, 0x01, 0x00, 0x00, 0x00,
  0x06, 0x00, 0x00, 0x00, 0x01, 0x00, 0x00, 0x00, 0x00, 0x00, 0x00, 0x00,
  0x00, 0x00, 0x00, 0x00, 0x86, 0xb5, 0xff, 0xff, 0x04, 0x00, 0x00, 0x00,
  0x0c, 0x00, 0x00, 0x00, 0x01, 0x00, 0x00, 0x00, 0x05, 0x00, 0x00, 0x00,
  0x01, 0x00, 0x00, 0x00, 0x00, 0x00, 0x00, 0x00, 0x00, 0x00, 0x00, 0x00,
  0xa6, 0xb5, 0xff, 0xff, 0x04, 0x00, 0x00, 0x00, 0x0c, 0x00, 0x00, 0x00,
  0x01, 0x00, 0x00, 0x00, 0x04, 0x00, 0x00, 0x00, 0x01, 0x00, 0x00, 0x00,
  0x00, 0x00, 0x00, 0x00, 0x00, 0x00, 0x00, 0x00, 0xc6, 0xb5, 0xff, 0xff,
  0x04, 0x00, 0x00, 0x00, 0x0c, 0x00, 0x00, 0x00, 0x01, 0x00, 0x00, 0x00,
  0x03, 0x00, 0x00, 0x00, 0x01, 0x00, 0x00, 0x00, 0x00, 0x00, 0x00, 0x00,
  0x00, 0x00, 0x00, 0x00, 0xe6, 0xb5, 0xff, 0xff, 0x04, 0x00, 0x00, 0x00,
  0x0c, 0x00, 0x00, 0x00, 0x01, 0x00, 0x00, 0x00, 0x02, 0x00, 0x00, 0x00,
  0x01, 0x00, 0x00, 0x00, 0x00, 0x00, 0x00, 0x00, 0x00, 0x00, 0x00, 0x00,
  0x06, 0xb6, 0xff, 0xff, 0x04, 0x00, 0x00, 0x00, 0x48, 0x00, 0x00, 0x00,
  0xba, 0xac, 0x6e, 0x30, 0x24, 0x2d, 0x21, 0xb1, 0x8a, 0x30, 0xfe, 0xae,
  0x72, 0x30, 0xbb, 0x25, 0x3c, 0xa9, 0x0d, 0x9c, 0x3b, 0xaa, 0x9d, 0x30,
  0x90, 0xab, 0xde, 0xa8, 0x67, 0xb0, 0x56, 0x2e, 0xf9, 0x30, 0x33, 0x26,
  0x79, 0xa8, 0x7c, 0x28, 0x10, 0xad, 0x3c, 0x2f, 0x96, 0xa4, 0x80, 0x2a,
  0x3c, 0x31, 0xe4, 0xa8, 0x45, 0x31, 0x7d, 0x2e, 0x37, 0x22, 0xbe, 0xaa,
  0x4e, 0x30, 0x40, 0x2c, 0x5b, 0x1f, 0x62, 0xa9, 0xbd, 0xb0, 0x31, 0xb0,
  0x00, 0x00, 0x00, 0x00, 0x00, 0x00, 0x00, 0x00, 0x00, 0x00, 0x00, 0x00,
  0x66, 0xb6, 0xff, 0xff, 0x04, 0x00, 0x00, 0x00, 0x20, 0x0a, 0x00, 0x00,
  0x03, 0x34, 0x3b, 0xa2, 0x92, 0x34, 0xdc, 0x2e, 0x57, 0x31, 0xb0, 0xac,
  0xd4, 0x2c, 0xaf, 0xa1, 0x13, 0x2e, 0xf4, 0x2a, 0x70, 0xb2, 0x58, 0x34,
  0x5c, 0xb3, 0x52, 0x34, 0xcf, 0xb1, 0xb0, 0x2c, 0xfb, 0x32, 0x1b, 0xb3,
  0x97, 0xb1, 0x8b, 0x33, 0x01, 0xb1, 0xd9, 0x31, 0x63, 0x31, 0x6a, 0xb2,
  0x4b, 0xb1, 0x9a, 0xb4, 0x05, 0xac, 0xea, 0xaf, 0x77, 0x31, 0x86, 0xb3,
  0x6e, 0xb4, 0x3d, 0x2b, 0xa6, 0xad, 0xef, 0x33, 0x32, 0x34, 0x9b, 0x2c,
  0x07, 0x30, 0x54, 0x34, 0x34, 0x29, 0x0c, 0x32, 0xe3, 0x33, 0x4a, 0xb4,
  0xff, 0x31, 0xfa, 0x30, 0xf4, 0xa5, 0x9e, 0x2e, 0x26, 0x34, 0xda, 0xad,
  0x05, 0xb3, 0x19, 0x28, 0x03, 0x34, 0x8a, 0x30, 0xe8, 0xac, 0x03, 0xab,
  0xc1, 0x2b, 0x76, 0xa7, 0x08, 0x2a, 0x6d, 0x2e, 0xe0, 0x29, 0xcc, 0xaf,
  0x9c, 0xb2, 0x3a, 0xad, 0x40, 0x34, 0xf5, 0x25, 0x2d, 0xae, 0x5a, 0xae,
  0x45, 0xb0, 0x32, 0x2f, 0x16, 0xb2, 0x51, 0x2b, 0x0a, 0x32, 0x5c, 0xb2,
  0x4e, 0x34, 0xc0, 0xb3, 0xea, 0x33, 0xab, 0x31, 0xa5, 0x20, 0xc1, 0xb2,
  0xb4, 0xaa, 0xaf, 0xad, 0x24, 0x28, 0x73, 0x34, 0x7a, 0x34, 0x56, 0x32,
  0x98, 0xb1, 0x0c, 0x34, 0x1d, 0x31, 0xd3, 0xb0, 0x85, 0x2e, 0x62, 0xb2,
  0xe8, 0xb1, 0x8e, 0x20, 0x3a, 0x30, 0x11, 0xb3, 0xa8, 0x19, 0x5b, 0x2b,
  0xaf, 0xac, 0x46, 0x31, 0x3f, 0xb0, 0x4d, 0x32, 0xa3, 0xad, 0x3c, 0x26,
  0x87, 0x2c, 0x8e, 0x27, 0x92, 0x2f, 0x98, 0xb1, 0xdc, 0x30, 0x03, 0xb4,
  0x8a, 0xa3, 0xa3, 0xae, 0x8e, 0x2e, 0x93, 0xad, 0x90, 0x2f, 0xd6, 0x30,
  0x47, 0x2f, 0x6b, 0x34, 0x63, 0x2f, 0xe9, 0x31, 0x9e, 0x33, 0x26, 0x2c,
  0x7e, 0x29, 0x42, 0xa0, 0x74, 0x34, 0xa2, 0x2c, 0xee, 0x2b, 0x73, 0x34,
  0x22, 0xb0, 0x53, 0xb2, 0x97, 0xb2, 0xb0, 0x27, 0x4e, 0x34, 0xf8, 0xaa,
  0x16, 0xa3, 0x2d, 0x2d, 0x4e, 0x2a, 0xf9, 0x30, 0x08, 0xb0, 0x2d, 0xb4,
  0xf9, 0x2b, 0x2a, 0xb1, 0xe7, 0x27, 0xd6, 0xaa, 0x3c, 0x34, 0xda, 0x2c,
  0x2e, 0x34, 0x36, 0x29, 0xc5, 0xac, 0xf9, 0xb1, 0xb5, 0x2b, 0x1d, 0xb2,
  0x3b, 0xa9, 0xe5, 0x96, 0x9d, 0xb3, 0x86, 0xa8, 0x6a, 0xb0, 0x95, 0x30,
  0x40, 0xb3, 0x76, 0x34, 0x23, 0x31, 0xaf, 0xac, 0xcd, 0x2a, 0xba, 0x2c,
  0x2d, 0xb0, 0x8a, 0x33, 0xe9, 0x31, 0x2f, 0xa8, 0xfc, 0x30, 0x7f, 0x33,
  0xa8, 0xa6, 0x3e, 0x30, 0x0d, 0x31, 0x78, 0xa5, 0x8a, 0xb2, 0x84, 0xb2,
  0x1b, 0x8c, 0xf5, 0xb2, 0x93, 0x32, 0x5e, 0xb0, 0x88, 0x33, 0xe8, 0xb2,
  0x16, 0xaf, 0x9b, 0x32, 0x2d, 0xa6, 0x86, 0x31, 0x02, 0x31, 0x12, 0x31,
  0x33, 0xaf, 0x04, 0x31, 0x5a, 0xb3, 0x32, 0xb2, 0xbd, 0xac, 0x75, 0xaf,
  0x6d, 0x32, 0x8b, 0xb2, 0xa6, 0xb0, 0x77, 0x26, 0x82, 0xb4, 0x74, 0xb4,
  0x4b, 0x31, 0x5d, 0xa8, 0x13, 0xb4, 0xfa, 0xb3, 0x74, 0x34, 0x1b, 0xb0,
  0xf8, 0x31, 0xed, 0xb0, 0x46, 0xb3, 0xb0, 0xaf, 0xcf, 0x30, 0xf2, 0xb1,
  0x00, 0x31, 0x61, 0x25, 0x60, 0x33, 0x72, 0x2b, 0xb9, 0x28, 0x40, 0x9f,
  0xaf, 0xb1, 0xcf, 0xb3, 0xc7, 0x31, 0x1e, 0x32, 0x8b, 0x30, 0x30, 0x34,
  0x4e, 0xaf, 0xbf, 0x31, 0xbe, 0xb1, 0x20, 0x30, 0x63, 0x2f, 0x80, 0xb3,
  0x26, 0x2e, 0x55, 0xa4, 0x39, 0x32, 0xba, 0x2f, 0xba, 0x26, 0x7e, 0x34,
  0x1a, 0xb0, 0xd1, 0x2d, 0x32, 0xb4, 0xc8, 0x20, 0x58, 0x22, 0x12, 0x32,
  0xd4, 0xb3, 0xf3, 0xae, 0x0e, 0xb4, 0xfc, 0xb0, 0xce, 0x31, 0xd0, 0xab,
  0x3e, 0xb4, 0xb0, 0x32, 0x93, 0x34, 0x45, 0x30, 0xf4, 0xae, 0x1b, 0x2d,
  0xd4, 0x25, 0x8e, 0xad, 0x12, 0x2f, 0x26, 0x32, 0xa4, 0x2d, 0xdb, 0xae,
  0x06, 0x34, 0x64, 0x30, 0xef, 0xb1, 0x6e, 0xac, 0x45, 0x33, 0x1a, 0xaf,
  0x54, 0x31, 0x6b, 0xb0, 0x0f, 0x9e, 0x09, 0xb4, 0xc5, 0xb0, 0x4f, 0xa0,
  0xa2, 0x2d, 0x92, 0x2d, 0x5d, 0xb2, 0xed, 0x2c, 0x7e, 0x2b, 0x86, 0x1f,
  0x5c, 0xa0, 0x2f, 0xb4, 0xfe, 0x2e, 0x9f, 0x29, 0xbc, 0x2f, 0x84, 0x26,
  0xbc, 0x2e, 0x52, 0xb2, 0xff, 0x2f, 0x26, 0xa9, 0x2f, 0xb4, 0x29, 0x33,
  0x01, 0x1b, 0x6c, 0xb4, 0x56, 0x2a, 0x95, 0xa9, 0x65, 0x31, 0x10, 0xb0,
  0x7d, 0xb4, 0xa3, 0x32, 0x0f, 0x33, 0x84, 0xb4, 0x43, 0x32, 0x69, 0xac,
  0xb2, 0x2a, 0x7e, 0x34, 0xbd, 0x29, 0x59, 0x2d, 0x9b, 0xb3, 0x59, 0xa7,
  0xbc, 0x33, 0x33, 0xab, 0xe3, 0x34, 0x7c, 0x9c, 0x0d, 0x31, 0x3d, 0x2e,
  0xb3, 0xb1, 0xa6, 0x30, 0x8f, 0xaf, 0x18, 0x34, 0x01, 0xb1, 0x10, 0x2e,
  0xc8, 0x2d, 0x17, 0x34, 0x3d, 0x31, 0x5e, 0xa9, 0x98, 0xb0, 0x3f, 0x2a,
  0x3d, 0x34, 0x2e, 0xac, 0xf0, 0x30, 0x4b, 0xaa, 0x16, 0x28, 0xd3, 0x30,
  0xff, 0x32, 0xb4, 0x9c, 0xd6, 0x28, 0x53, 0x2a, 0xcb, 0x31, 0xab, 0x34,
  0x66, 0xad, 0x9d, 0x31, 0x1a, 0x34, 0x0e, 0xb3, 0x5d, 0xb4, 0x91, 0x2c,
  0x87, 0xad, 0x7b, 0x27, 0x53, 0x2f, 0x86, 0x29, 0xa4, 0xb1, 0x21, 0xb1,
  0x94, 0x2a, 0xb5, 0x30, 0x75, 0x32, 0x3c, 0x31, 0x4d, 0x30, 0x90, 0xad,
  0xaf, 0x30, 0x2f, 0x33, 0x2d, 0x30, 0xa6, 0x2c, 0x32, 0xb4, 0x1d, 0x27,
  0xab, 0xb2, 0x47, 0x34, 0x2b, 0x32, 0x37, 0xa6, 0xd2, 0x31, 0xc6, 0xb3,
  0x25, 0xb4, 0x0c, 0xb1, 0x0f, 0x31, 0xbd, 0x31, 0x30, 0xad, 0xa8, 0xa0,
  0x12, 0x2e, 0x85, 0x2a, 0x3d, 0x2d, 0xf8, 0x33, 0x65, 0xb0, 0x54, 0xb4,
  0xce, 0x30, 0x39, 0x34, 0x19, 0x34, 0x50, 0xac, 0xf6, 0xac, 0xd8, 0xa8,
  0xfa, 0xb0, 0x1e, 0xb4, 0x19, 0x27, 0x68, 0xaa, 0xa3, 0xa8, 0xef, 0xaf,
  0xd1, 0xb2, 0xc4, 0x31, 0x62, 0x25, 0x03, 0xa9, 0xd1, 0x33, 0x78, 0x23,
  0x49, 0x2e, 0xdc, 0x33, 0x49, 0x2f, 0xd0, 0x19, 0x25, 0x2f, 0xb5, 0x30,
  0x00, 0x2b, 0x86, 0xb4, 0x20, 0x30, 0x54, 0xb1, 0x19, 0x30, 0xdc, 0xaa,
  0x95, 0x2f, 0xd9, 0x2a, 0x24, 0xb0, 0x4b, 0x31, 0xcc, 0xb2, 0xb6, 0xb3,
  0xa3, 0x2c, 0x24, 0x34, 0xa9, 0xa9, 0x41, 0x33, 0xe8, 0xad, 0x44, 0x2f,
  0xec, 0xb0, 0x9e, 0x24, 0xce, 0xb0, 0x33, 0xb1, 0x7a, 0xb1, 0x70, 0x30,
  0x3d, 0xb2, 0x9b, 0xa9, 0xf3, 0x30, 0xab, 0x33, 0x37, 0x1b, 0x37, 0xb4,
  0x04, 0x32, 0xd6, 0x33, 0xb9, 0x31, 0xc3, 0xaf, 0x84, 0xaf, 0xbe, 0x30,
  0xb9, 0xa9, 0x40, 0xb4, 0x75, 0x21, 0x25, 0xa1, 0x27, 0xa4, 0xdd, 0x20,
  0xab, 0xb4, 0xb7, 0xb4, 0xdf, 0xb0, 0x10, 0xb2, 0x34, 0xaf, 0x01, 0xb4,
  0x23, 0x28, 0xb0, 0xb0, 0xbf, 0xb1, 0xcf, 0xae, 0x5b, 0x30, 0x87, 0x33,
  0x24, 0x28, 0x4c, 0x34, 0x0d, 0xb0, 0x9c, 0x2d, 0x4b, 0x31, 0xd2, 0x2c,
  0x30, 0x30, 0xde, 0x15, 0x44, 0xa9, 0xe9, 0x2d, 0x4a, 0x34, 0x7c, 0x2c,
  0x5a, 0xa8, 0x7d, 0xa4, 0x4d, 0xb2, 0xc0, 0xae, 0x37, 0xb4, 0x15, 0xae,
  0xfd, 0x30, 0x70, 0x34, 0xcb, 0x26, 0x6e, 0x2b, 0x63, 0x9c, 0xce, 0xb3,
  0x23, 0x33, 0x19, 0x23, 0xb7, 0xb1, 0x4a, 0xae, 0x15, 0xac, 0x6b, 0x23,
  0xe8, 0x27, 0xfd, 0xa1, 0x34, 0x34, 0xe1, 0xb2, 0x31, 0xb4, 0x78, 0xb4,
  0x80, 0x2c, 0xf1, 0x32, 0x2f, 0x34, 0x18, 0x1c, 0x93, 0x9e, 0x04, 0x31,
  0xf9, 0x30, 0x5e, 0xb2, 0x77, 0xad, 0x24, 0xb4, 0x8a, 0x34, 0x49, 0x32,
  0x4d, 0xad, 0x24, 0xa9, 0x51, 0x24, 0x34, 0x33, 0xae, 0x31, 0xf0, 0xb3,
  0xb4, 0xaa, 0x45, 0x2e, 0x27, 0x34, 0xb7, 0xad, 0xc0, 0x30, 0xb3, 0x28,
  0x18, 0xb0, 0x8c, 0x2e, 0x03, 0x2b, 0xb1, 0xb0, 0x27, 0x27, 0x27, 0x26,
  0x60, 0xaa, 0x2d, 0x2c, 0xb3, 0xaf, 0xc0, 0xaf, 0x68, 0xad, 0xb4, 0x2d,
  0x2c, 0xa1, 0xa2, 0xb4, 0x65, 0xa9, 0xe5, 0x13, 0x76, 0xb1, 0xa3, 0xac,
  0xd1, 0x2c, 0xa4, 0x33, 0x3c, 0x31, 0xbe, 0xaf, 0x40, 0xb2, 0x6e, 0x30,
  0xb0, 0x27, 0xd5, 0xb0, 0xfe, 0x2f, 0x66, 0xb3, 0x5b, 0x2e, 0x39, 0x2d,
  0xe6, 0x33, 0xa9, 0xac, 0xa5, 0xb2, 0x78, 0x34, 0x35, 0xac, 0xb4, 0xb4,
  0x01, 0xae, 0xf5, 0x32, 0x8f, 0xb2, 0x4a, 0x2a, 0xa9, 0xb4, 0x73, 0xae,
  0xa1, 0xae, 0x90, 0xac, 0x02, 0xb1, 0x79, 0xb3, 0x98, 0x2e, 0x6b, 0x30,
  0x14, 0x29, 0x97, 0x2d, 0x39, 0xb2, 0x27, 0x30, 0x2e, 0x2e, 0x36, 0x33,
  0x90, 0x30, 0x85, 0x34, 0x1f, 0x30, 0x2f, 0xb4, 0x13, 0x31, 0x95, 0xaa,
  0x5f, 0x24, 0x4b, 0x2f, 0x5b, 0x19, 0x5f, 0xad, 0xef, 0x2c, 0x2c, 0x30,
  0x93, 0x2e, 0x0b, 0xaf, 0x71, 0xb2, 0xf4, 0xb3, 0xee, 0xb2, 0xc2, 0xad,
  0x63, 0xb0, 0x1a, 0x33, 0x13, 0xb0, 0x49, 0xb0, 0x33, 0xb2, 0x80, 0xb1,
  0x89, 0x31, 0xcb, 0x33, 0x7b, 0x32, 0x85, 0xb2, 0xcb, 0xad, 0xbe, 0xb3,
  0x72, 0x30, 0x38, 0x34, 0x3b, 0xb4, 0x0a, 0x33, 0x99, 0xb0, 0x8a, 0xb4,
  0x67, 0x2d, 0x80, 0xb4, 0xe3, 0xb0, 0x5f, 0x34, 0x1c, 0xb4, 0x1f, 0xb2,
  0x21, 0xaf, 0x94, 0x33, 0x02, 0x33, 0x5f, 0x32, 0xdd, 0xb0, 0x06, 0xb0,
  0x8a, 0x31, 0x0c, 0x34, 0xc9, 0x32, 0x62, 0x30, 0x26, 0xad, 0x51, 0x2d,
  0x0d, 0xb3, 0x7a, 0xa9, 0x86, 0x34, 0xed, 0x25, 0x12, 0x34, 0x49, 0x32,
  0x76, 0x34, 0xe1, 0x30, 0x83, 0xb4, 0xc7, 0xaf, 0x1b, 0x90, 0x0e, 0x34,
  0x54, 0x29, 0x74, 0x2b, 0x23, 0x20, 0x8e, 0xb0, 0x98, 0xb4, 0x26, 0x28,
  0x31, 0xae, 0x8a, 0x2d, 0x84, 0x30, 0xae, 0xb3, 0xcc, 0x2e, 0x1b, 0x30,
  0x8c, 0x2f, 0x43, 0x31, 0x85, 0xb1, 0x4a, 0xb0, 0x15, 0xb1, 0xc4, 0x33,
  0x7a, 0x30, 0x79, 0x26, 0x40, 0x2f, 0xf7, 0xb3, 0x2b, 0x34, 0xfb, 0xb2,
  0x2a, 0xac, 0xb6, 0xb1, 0x0f, 0x9f, 0xa7, 0xb1, 0x7d, 0xb0, 0xde, 0xa5,
  0x8e, 0x32, 0xe9, 0x33, 0xe6, 0xae, 0x09, 0x30, 0x69, 0x32, 0x2b, 0x34,
  0xcb, 0x31, 0x97, 0x31, 0x90, 0x34, 0xff, 0x2b, 0x7a, 0xb3, 0x46, 0x32,
  0x11, 0x34, 0xcd, 0x34, 0x07, 0xb3, 0x9e, 0x2e, 0x92, 0x33, 0x16, 0x1c,
  0x29, 0x2f, 0xdf, 0xaf, 0x42, 0x34, 0x7d, 0xb4, 0xe2, 0xa8, 0x23, 0xb4,
  0x85, 0x2f, 0x4b, 0xae, 0x15, 0x28, 0x5b, 0x32, 0x72, 0xae, 0xba, 0x32,
  0x4b, 0x31, 0x3b, 0xb1, 0xdd, 0xac, 0xca, 0x32, 0xdc, 0xb3, 0x8a, 0x2d,
  0xa5, 0xb3, 0x42, 0x18, 0xe4, 0x33, 0x8a, 0xaa, 0xa5, 0xb1, 0x26, 0xb4,
  0x1a, 0xaa, 0xfa, 0xa2, 0x1a, 0x2c, 0xe8, 0x28, 0xe3, 0x34, 0xc3, 0x27,
  0x02, 0x14, 0x14, 0x34, 0xfa, 0xae, 0x54, 0x30, 0x00, 0x33, 0x39, 0xb0,
  0xd8, 0xb0, 0xa9, 0x31, 0xdc, 0x31, 0x61, 0x34, 0x31, 0xb4, 0x37, 0x34,
  0xbb, 0x29, 0x27, 0xb2, 0x59, 0xae, 0xa1, 0x2c, 0x96, 0x31, 0x13, 0x33,
  0x05, 0x8a, 0x1e, 0xb2, 0xfd, 0xaf, 0xbf, 0xaf, 0x0d, 0x2d, 0x49, 0xb0,
  0x91, 0x34, 0x06, 0x27, 0xe9, 0xa8, 0x35, 0xb4, 0x0f, 0x31, 0xb8, 0x2f,
  0x58, 0xaa, 0xdb, 0xac, 0x62, 0x2e, 0x2c, 0xae, 0x67, 0x2c, 0xb7, 0xab,
  0xf4, 0x31, 0xc2, 0xaf, 0xe4, 0xb1, 0xad, 0x2e, 0x25, 0xb1, 0x82, 0xb2,
  0xa8, 0x32, 0x8b, 0x2c, 0xe9, 0x2c, 0x75, 0xae, 0xd0, 0xae, 0x4f, 0x31,
  0xe6, 0xb0, 0xcd, 0x28, 0x9f, 0xb4, 0x7e, 0x32, 0x8a, 0xb4, 0x94, 0xb4,
  0xa4, 0xaf, 0x3a, 0x33, 0xfb, 0xb2, 0x21, 0xa9, 0x35, 0x34, 0x5f, 0x31,
  0x9c, 0xaf, 0xaa, 0xad, 0xde, 0x22, 0x77, 0xb4, 0x67, 0xb4, 0x0f, 0x32,
  0x1d, 0x33, 0x4c, 0xa8, 0x2d, 0xb4, 0x8a, 0x31, 0x18, 0x31, 0x48, 0x31,
  0x9c, 0x2c, 0x1b, 0x2f, 0xa3, 0xb0, 0x56, 0x34, 0xdc, 0xa7, 0x08, 0x22,
  0x2e, 0xaa, 0xaf, 0x2f, 0x9c, 0xb1, 0x69, 0x31, 0xb7, 0xb0, 0xbb, 0xb4,
  0x64, 0xae, 0xf0, 0x30, 0x79, 0x33, 0x39, 0xb4, 0x8d, 0x34, 0x76, 0xb4,
  0xb2, 0x32, 0x46, 0xaa, 0xa9, 0xb2, 0x2e, 0xb3, 0x4b, 0x2f, 0x8c, 0x2c,
  0xbf, 0x30, 0x51, 0xb4, 0x9a, 0xad, 0xd1, 0x33, 0x2b, 0x32, 0x06, 0x2c,
  0xc8, 0xb1, 0x6a, 0xb3, 0x7e, 0xaf, 0xd4, 0x2f, 0x93, 0x34, 0xda, 0x24,
  0x0c, 0xaa, 0x2f, 0x30, 0x61, 0xb4, 0x03, 0x32, 0x2b, 0xb4, 0x67, 0xb2,
  0x6e, 0xb0, 0x7b, 0xa9, 0x16, 0x30, 0x93, 0x34, 0xb0, 0xb4, 0xbf, 0x2d,
  0x27, 0xb4, 0x75, 0x28, 0x1a, 0x31, 0x7f, 0x2d, 0x7f, 0xb1, 0x21, 0xb0,
  0x3a, 0x30, 0x30, 0x2f, 0xec, 0xb2, 0xaf, 0x32, 0x1e, 0xb0, 0x3f, 0xa8,
  0xef, 0x30, 0xd2, 0x33, 0xbc, 0xb3, 0x91, 0xb3, 0xe2, 0x30, 0x35, 0x92,
  0xcb, 0x30, 0x30, 0xac, 0x32, 0x2d, 0x02, 0x33, 0x4c, 0x33, 0x37, 0x31,
  0x12, 0x1e, 0x99, 0x2f, 0x96, 0x23, 0x69, 0xb3, 0x94, 0x2c, 0x7f, 0x28,
  0x62, 0x27, 0xf4, 0xad, 0xdd, 0x2e, 0x61, 0xb4, 0xb5, 0xb2, 0x8d, 0xb0,
  0xb6, 0xb4, 0xbf, 0xad, 0xee, 0x30, 0xf3, 0x32, 0x77, 0x2f, 0x30, 0x26,
  0xde, 0xac, 0xd8, 0x2f, 0x56, 0xac, 0x82, 0xb4, 0x2b, 0xa9, 0xb2, 0x33,
  0xed, 0x30, 0x21, 0x2d, 0x84, 0xae, 0xe2, 0x31, 0x72, 0x34, 0xb6, 0x2d,
  0x71, 0x33, 0xa2, 0x29, 0x04, 0x30, 0xd8, 0xa9, 0x8d, 0xb0, 0x79, 0x30,
  0xf2, 0x30, 0x21, 0xb4, 0x0f, 0xac, 0x49, 0x2d, 0x3e, 0x22, 0x7c, 0x34,
  0x4f, 0xa8, 0xce, 0xb2, 0x86, 0x33, 0xc0, 0x34, 0x92, 0xa9, 0x30, 0x2c,
  0x06, 0x34, 0x5e, 0xa0, 0xde, 0xab, 0x47, 0x33, 0x0e, 0x33, 0xa6, 0x1c,
  0x61, 0xb1, 0xf1, 0xb3, 0x55, 0xb1, 0x61, 0xb4, 0x0a, 0xb3, 0xd7, 0xa8,
  0xd6, 0x25, 0x22, 0x31, 0x90, 0xaa, 0x62, 0xa8, 0x9d, 0x33, 0x23, 0x2e,
  0x30, 0xa8, 0xc6, 0x2c, 0xf7, 0x32, 0x8e, 0xb3, 0x1c, 0x34, 0x2b, 0x34,
  0xc8, 0x31, 0xf2, 0x2d, 0x67, 0xac, 0x93, 0xb4, 0x48, 0xad, 0xf8, 0x32,
  0xeb, 0xb1, 0x6b, 0x2d, 0xea, 0xaf, 0x6f, 0x27, 0x89, 0xac, 0xe8, 0xb0,
  0xa4, 0xb4, 0x93, 0xb0, 0x9f, 0xa3, 0xd1, 0x28, 0x3c, 0x2d, 0x90, 0x32,
  0x66, 0x2e, 0xc4, 0xb4, 0x78, 0xb3, 0x93, 0xb0, 0x4c, 0xb3, 0x4f, 0x2d,
  0x22, 0xa9, 0x5b, 0x34, 0x44, 0x23, 0xb9, 0x31, 0xb6, 0xaf, 0xbc, 0x34,
  0xa0, 0xb0, 0xaf, 0x32, 0x25, 0xad, 0x9d, 0xb1, 0x89, 0x2a, 0x65, 0xb4,
  0xca, 0x2f, 0x32, 0xb0, 0x73, 0xac, 0xda, 0xab, 0xda, 0xae, 0x0b, 0x31,
  0x71, 0x34, 0xed, 0x2c, 0x22, 0xa7, 0x4a, 0xb1, 0xa8, 0x31, 0x78, 0xad,
  0xbf, 0xb3, 0x7a, 0x32, 0xe6, 0xb2, 0x68, 0xa0, 0x37, 0xac, 0x2c, 0x30,
  0xb1, 0xb2, 0xef, 0xb1, 0xc3, 0xb4, 0x29, 0xad, 0x9f, 0xb4, 0x6b, 0x30,
  0xba, 0x31, 0xa7, 0x30, 0x17, 0x32, 0x5e, 0xb2, 0xec, 0x22, 0x0e, 0x99,
  0xc1, 0xb1, 0xdb, 0xa3, 0xad, 0xac, 0x3a, 0xb4, 0xd5, 0x29, 0x9b, 0xae,
  0x2a, 0xa6, 0x0d, 0xa9, 0x31, 0xa7, 0x3b, 0x2a, 0xd7, 0x30, 0x26, 0x34,
  0x39, 0xb4, 0xbc, 0x32, 0x3b, 0x30, 0x7e, 0x32, 0x3d, 0x34, 0xf0, 0x2f,
  0xc6, 0x2e, 0x0a, 0x30, 0x6f, 0xad, 0xf3, 0xae, 0xc7, 0xb1, 0x41, 0xac,
  0x83, 0x33, 0x0f, 0xb1, 0xf7, 0xb1, 0x29, 0x32, 0x14, 0x32, 0x34, 0x33,
  0xc1, 0xb3, 0x4c, 0x23, 0x14, 0xb0, 0xe9, 0xb1, 0xcc, 0x2f, 0x52, 0xb0,
  0xcb, 0xb0, 0xf2, 0x22, 0x19, 0xb1, 0xfe, 0x21, 0xe5, 0x30, 0xd7, 0x2d,
  0xee, 0xab, 0x52, 0x32, 0x66, 0xb4, 0xd1, 0xae, 0xe7, 0x2b, 0x87, 0x35,
  0x61, 0x2d, 0xfa, 0xad, 0xde, 0x27, 0x09, 0xa8, 0xf3, 0xa4, 0x08, 0xb3,
  0x04, 0x31, 0x8b, 0xb4, 0xe7, 0x31, 0xe1, 0xb0, 0x02, 0xb1, 0xe8, 0xa6,
  0x54, 0xb4, 0x4e, 0xb1, 0xbe, 0x2f, 0x80, 0xb4, 0x13, 0x34, 0x6d, 0x2b,
  0x38, 0x34, 0x1d, 0xac, 0x2c, 0xad, 0x45, 0xb1, 0xd9, 0x21, 0xc6, 0x25,
  0x49, 0x30, 0x2a, 0xb4, 0x15, 0x30, 0xe3, 0x25, 0xf9, 0x2e, 0x9f, 0xb0,
  0xec, 0xb3, 0x4a, 0xb4, 0x64, 0x2f, 0xb1, 0xb0, 0x81, 0xb2, 0xc5, 0xb1,
  0x46, 0x27, 0x1e, 0xae, 0x35, 0x2d, 0x0f, 0xae, 0x17, 0xb4, 0x13, 0xb4,
  0x10, 0x30, 0x77, 0x2e, 0x04, 0x2f, 0xe5, 0xb2, 0x87, 0xad, 0x74, 0xb2,
  0xde, 0x9c, 0x37, 0xb4, 0xbe, 0xb4, 0xa7, 0xb4, 0x8f, 0xb3, 0xf3, 0xb2,
  0xca, 0xb0, 0x34, 0x34, 0x1c, 0xa5, 0x80, 0x34, 0xad, 0x26, 0xaf, 0x26,
  0xe8, 0x31, 0x49, 0xb3, 0x15, 0x2e, 0xb7, 0x34, 0x55, 0xb1, 0x77, 0xb2,
  0x9c, 0xae, 0xbb, 0x33, 0x82, 0x34, 0xdc, 0x30, 0x3a, 0xb1, 0x58, 0xb0,
  0x10, 0xb4, 0x0e, 0x28, 0x36, 0x2b, 0xcd, 0x21, 0x5e, 0x31, 0x21, 0x31,
  0xb6, 0xb4, 0x84, 0x33, 0x61, 0x32, 0xab, 0x33, 0xcb, 0x33, 0xbf, 0xab,
  0x44, 0x34, 0x84, 0x30, 0x64, 0x2c, 0x04, 0xae, 0xdf, 0x95, 0x6c, 0xae,
  0xbb, 0x30, 0xf3, 0xb0, 0x0f, 0x30, 0xf5, 0x32, 0x12, 0x34, 0x39, 0x33,
  0x52, 0xa8, 0x25, 0x31, 0x37, 0x31, 0xf7, 0x2a, 0x24, 0xb1, 0x03, 0xb4,
  0xdb, 0x2f, 0x4f, 0x34, 0x67, 0xaa, 0x05, 0x30, 0x09, 0xad, 0xe3, 0x2c,
  0xeb, 0x30, 0x95, 0xb1, 0x79, 0x2d, 0x26, 0xa8, 0xbd, 0xad, 0xf8, 0x25,
  0xff, 0x31, 0x8c, 0x31, 0x8e, 0xb0, 0x8b, 0x34, 0xf0, 0xb0, 0xd4, 0x30,
  0xf0, 0x32, 0x97, 0xa3, 0x45, 0xaa, 0x20, 0x30, 0xbd, 0x34, 0x47, 0xae,
  0xf5, 0x2f, 0x73, 0xad, 0x2a, 0xb4, 0xca, 0x29, 0xbc, 0x2f, 0x5e, 0xb4,
  0x1b, 0xb4, 0x23, 0xb4, 0x50, 0xa8, 0x6d, 0xb3, 0x8e, 0xaf, 0x61, 0xb4,
  0xf9, 0x2d, 0x1f, 0x2e, 0x0e, 0xb2, 0xc0, 0x31, 0x09, 0x2d, 0x51, 0xb3,
  0x99, 0x34, 0xbb, 0x33, 0x1e, 0x2a, 0xd5, 0xa9, 0x65, 0xb4, 0xfc, 0x26,
  0x4e, 0x34, 0xd6, 0xb3, 0xfd, 0xae, 0x88, 0x28, 0x27, 0xb4, 0x17, 0x31,
  0x6c, 0x33, 0x25, 0x34, 0x38, 0x9c, 0x8a, 0xb4, 0xa8, 0xae, 0x4e, 0xa8,
  0xa6, 0x29, 0xfc, 0x33, 0xb8, 0x1f, 0x87, 0x34, 0x75, 0x34, 0x60, 0xb3,
  0x42, 0xb4, 0x86, 0xb1, 0xd3, 0xb2, 0xbe, 0xac, 0x28, 0xb3, 0x7a, 0xaf,
  0x40, 0xb3, 0xb5, 0x31, 0x87, 0xa6, 0x1a, 0x31, 0x16, 0x2a, 0x6b, 0x30,
  0xef, 0x2a, 0xb3, 0xa7, 0xe7, 0xaf, 0x9d, 0xb0, 0xae, 0xa9, 0xf5, 0x30,
  0xbf, 0x31, 0x2b, 0xb4, 0x39, 0xad, 0x7e, 0x2f, 0x18, 0xb2, 0x80, 0x33,
  0x82, 0x30, 0x6c, 0xac, 0x67, 0xb3, 0xdc, 0x2c, 0xcf, 0x33, 0x67, 0x33,
  0x6f, 0x34, 0x8e, 0x24, 0x89, 0x34, 0x19, 0xb1, 0xa6, 0xae, 0x15, 0xa9,
  0x99, 0xb1, 0x8e, 0xad, 0xb9, 0xb2, 0x8f, 0x33, 0xdb, 0x2d, 0x74, 0xae,
  0xa9, 0xa4, 0xcc, 0xb0, 0x98, 0xb4, 0x5c, 0xaf, 0x19, 0x31, 0xc6, 0x1d,
  0x5f, 0x29, 0x85, 0x31, 0x1d, 0xaa, 0x6c, 0xb0, 0x49, 0x2b, 0xa4, 0xab,
  0x90, 0xab, 0x40, 0x2c, 0x2e, 0x17, 0x63, 0xa2, 0xd9, 0x2e, 0xbf, 0xaa,
  0x3f, 0x30, 0x2d, 0xac, 0xf4, 0x2b, 0x30, 0x34, 0xb8, 0xae, 0x03, 0xb1,
  0xa5, 0x2b, 0xa3, 0xac, 0xfe, 0xb1, 0x06, 0x31, 0x68, 0x32, 0xb0, 0x2e,
  0x0b, 0x1c, 0xba, 0x28, 0xd9, 0xb3, 0x6c, 0xae, 0xa6, 0x26, 0x97, 0x2e,
  0xf6, 0x32, 0xca, 0x30, 0xa0, 0x32, 0x6a, 0xb4, 0x5f, 0x30, 0x80, 0x2b,
  0x00, 0x00, 0x00, 0x00, 0x96, 0xc0, 0xff, 0xff, 0x04, 0x00, 0x00, 0x00,
  0x08, 0x00, 0x00, 0x00, 0x01, 0x00, 0x00, 0x00, 0x00, 0x00, 0x00, 0x00,
  0x00, 0x00, 0x00, 0x00, 0x00, 0x00, 0x00, 0x00, 0x00, 0x00, 0x00, 0x00,
  0xb6, 0xc0, 0xff, 0xff, 0x04, 0x00, 0x00, 0x00, 0x60, 0x1e, 0x00, 0x00,
  0x1c, 0xb1, 0xb5, 0x31, 0x8a, 0x2b, 0x0c, 0x27, 0x32, 0xae, 0x1e, 0x31,
  0x27, 0xb1, 0xd0, 0x2d, 0x13, 0xa7, 0x5a, 0xab, 0x89, 0xb1, 0xbf, 0x25,
  0x11, 0xae, 0xbe, 0xab, 0x59, 0x2f, 0xba, 0xb1, 0xca, 0x32, 0xc0, 0x31,
  0x7c, 0x2e, 0xf0, 0x9c, 0x77, 0xb1, 0x05, 0xb1, 0x0f, 0xad, 0xc7, 0xa8,
  0x25, 0xb1, 0xc2, 0xad, 0x0b, 0xa5, 0x43, 0x1b, 0x8e, 0xa9, 0xdb, 0x29,
  0x06, 0xb0, 0x4f, 0xb0, 0x5b, 0xb0, 0x2d, 0x32, 0x6c, 0x2f, 0x9d, 0xb1,
  0x63, 0xb1, 0xfc, 0x0e, 0x4b, 0xb0, 0xca, 0x2b, 0x89, 0xac, 0x61, 0x28,
  0x58, 0xa9, 0x6b, 0xb1, 0x29, 0xa5, 0x76, 0x32, 0x7b, 0x31, 0xb3, 0xb0,
  0x6d, 0x2c, 0x63, 0x32, 0xe3, 0x21, 0x90, 0xac, 0x41, 0x32, 0xa5, 0x24,
  0x03, 0xac, 0x65, 0x31, 0xf7, 0x2c, 0x92, 0xb2, 0x8e, 0x31, 0x32, 0x31,
  0x4c, 0x32, 0xf2, 0xad, 0x53, 0xab, 0x56, 0x30, 0x81, 0x31, 0x34, 0xb1,
  0x81, 0x31, 0xde, 0x2e, 0x47, 0x2b, 0xd6, 0xaa, 0xa3, 0xa4, 0x2b, 0x30,
  0x0c, 0x28, 0x8d, 0x30, 0xf7, 0xae, 0xc2, 0xac, 0x6d, 0xa9, 0x0d, 0x2d,
  0xcc, 0x2c, 0x8f, 0x2f, 0x8a, 0xae, 0x75, 0xaa, 0xa9, 0x2c, 0x91, 0xad,
  0xab, 0x30, 0xe4, 0x2f, 0x1b, 0x2f, 0x16, 0x31, 0xae, 0x2e, 0xfb, 0xb1,
  0x16, 0xa3, 0x6a, 0x31, 0xde, 0xaa, 0x38, 0x2f, 0x38, 0xad, 0x47, 0x22,
  0x22, 0xac, 0x41, 0xab, 0xec, 0x27, 0xf7, 0x31, 0xaa, 0x99, 0x1e, 0xab,
  0xe1, 0x31, 0x1a, 0xae, 0x27, 0x29, 0xf5, 0x18, 0x32, 0x2c, 0x7d, 0x2f,
  0x9b, 0x2b, 0xc4, 0xa4, 0x42, 0x2c, 0xc2, 0x25, 0xc0, 0xa8, 0x3f, 0x2b,
  0xde, 0xad, 0x51, 0x93, 0xd6, 0xaf, 0x13, 0x2e, 0xb8, 0x32, 0x9c, 0xac,
  0x53, 0xb1, 0x50, 0x32, 0xdc, 0xae, 0x88, 0x2e, 0x2f, 0x31, 0xfe, 0xaa,
  0x36, 0x96, 0xee, 0xae, 0x37, 0x31, 0xec, 0xb2, 0x17, 0x2b, 0xef, 0xaf,
  0x14, 0x33, 0x88, 0x2e, 0x65, 0x32, 0xc5, 0xad, 0x94, 0x2d, 0x6b, 0xb1,
  0x07, 0x30, 0x00, 0xac, 0xc2, 0x2b, 0xb7, 0x2e, 0x90, 0xaf, 0xb5, 0x2f,
  0x00, 0xad, 0x8f, 0x2d, 0xb1, 0xad, 0x37, 0x10, 0x52, 0x25, 0x0e, 0x32,
  0x5a, 0x2c, 0x88, 0x26, 0xbd, 0xa8, 0x00, 0xb2, 0x0f, 0xad, 0xdf, 0xac,
  0x53, 0x2d, 0xe1, 0x1c, 0xc7, 0x2b, 0x96, 0xb0, 0xea, 0xb1, 0xa3, 0x2d,
  0x8a, 0x2d, 0x84, 0x2d, 0x46, 0x31, 0x5f, 0xb4, 0x63, 0x2d, 0x0f, 0x31,
  0x7d, 0xac, 0x96, 0x2f, 0x01, 0x30, 0x42, 0x2a, 0xb3, 0xb1, 0x7e, 0x2e,
  0x01, 0x32, 0x90, 0xa5, 0xcc, 0x2c, 0x2f, 0x31, 0x93, 0xb0, 0xdf, 0xb1,
  0x8b, 0x2c, 0x56, 0x99, 0x85, 0xad, 0xcd, 0xb1, 0xa2, 0xaf, 0xcd, 0x29,
  0xee, 0xa9, 0x50, 0xb1, 0x10, 0xa7, 0xd1, 0xa5, 0x67, 0xb2, 0x31, 0x30,
  0x2e, 0x32, 0x3d, 0x30, 0xa1, 0xb1, 0x5e, 0xaf, 0x7d, 0xb1, 0x2f, 0x31,
  0x5e, 0xae, 0x56, 0x31, 0xe6, 0xad, 0xfe, 0x2e, 0x06, 0x30, 0x9b, 0xae,
  0x05, 0x2c, 0xdf, 0x2d, 0x18, 0x28, 0x7a, 0xad, 0x4e, 0xb1, 0x63, 0x28,
  0x2d, 0xb2, 0xde, 0xac, 0x58, 0x29, 0x81, 0x2f, 0xc1, 0x30, 0xc1, 0xb1,
  0x01, 0xae, 0x61, 0xa2, 0x6d, 0x25, 0x85, 0xa9, 0x18, 0xb0, 0x69, 0xab,
  0x20, 0xab, 0x8a, 0xaf, 0x86, 0x2c, 0x89, 0xb0, 0xfb, 0xb1, 0x01, 0x29,
  0x77, 0xaf, 0xbf, 0x30, 0x46, 0xb0, 0xdd, 0xae, 0x5d, 0x31, 0xad, 0x24,
  0x86, 0x32, 0x80, 0x32, 0xd2, 0x32, 0x56, 0x33, 0x19, 0x2d, 0x04, 0xaf,
  0x4d, 0xb0, 0x86, 0xa5, 0xcd, 0xa6, 0x1b, 0x31, 0x40, 0x29, 0x2a, 0xb2,
  0xfd, 0x29, 0x9e, 0x20, 0x6a, 0x2e, 0xd7, 0xad, 0x24, 0x31, 0xba, 0xb0,
  0x4d, 0x31, 0x4b, 0x31, 0x63, 0xb1, 0xf5, 0xb0, 0x35, 0x2f, 0xe4, 0xb0,
  0x37, 0x1f, 0x16, 0xaf, 0x05, 0x30, 0xd5, 0x31, 0xa1, 0x31, 0x58, 0x31,
  0xd3, 0x2f, 0xf7, 0xb1, 0x4c, 0x29, 0x70, 0x32, 0x74, 0x2f, 0x39, 0xb0,
  0x62, 0x2f, 0x15, 0x28, 0x81, 0xaf, 0x9e, 0xb2, 0xcf, 0xad, 0xc7, 0xb0,
  0x5a, 0xab, 0x8c, 0x28, 0xd4, 0xac, 0xd1, 0xa9, 0x33, 0xab, 0xe8, 0x2e,
  0x9f, 0xb0, 0x88, 0x32, 0xe4, 0x31, 0x08, 0x32, 0x58, 0x31, 0x7b, 0xa2,
  0xcd, 0xae, 0xd7, 0x31, 0x97, 0xb1, 0x1d, 0xb2, 0x34, 0x31, 0xc7, 0xad,
  0x10, 0x30, 0xc3, 0xae, 0x4c, 0xb0, 0x41, 0xb1, 0x1a, 0xa4, 0x58, 0x0b,
  0x16, 0xad, 0xd3, 0x24, 0xb2, 0x2f, 0x0b, 0xab, 0x57, 0x2e, 0xd4, 0xad,
  0xa1, 0x2d, 0x43, 0xa9, 0x33, 0xae, 0x8b, 0x34, 0x26, 0xb1, 0xb9, 0x2b,
  0xb0, 0xb3, 0xeb, 0x2e, 0x67, 0x2f, 0x44, 0xb2, 0xed, 0xb0, 0x59, 0xb2,
  0x8b, 0x2a, 0x0f, 0xb2, 0x5b, 0x2d, 0x1b, 0x32, 0x15, 0xa8, 0x2e, 0x2e,
  0xf8, 0xb0, 0x76, 0x2c, 0x54, 0xa9, 0xde, 0x2e, 0x72, 0x32, 0x4a, 0xb0,
  0xd9, 0xa4, 0x50, 0xb0, 0x7d, 0x2d, 0x73, 0x32, 0xaa, 0xa4, 0x91, 0x31,
  0xbb, 0x30, 0x23, 0xa0, 0xcd, 0x2e, 0x6f, 0x30, 0x44, 0x28, 0x0a, 0xb1,
  0xcc, 0x28, 0x7c, 0xb2, 0xd3, 0x20, 0x66, 0xb2, 0xc3, 0x32, 0x96, 0xaf,
  0x1e, 0xac, 0x86, 0x30, 0x3a, 0xaf, 0xa2, 0x32, 0x03, 0x2a, 0x58, 0x2f,
  0x5f, 0xaf, 0xac, 0x12, 0x76, 0x2d, 0x15, 0x2f, 0x12, 0x9f, 0xfd, 0x31,
  0xaa, 0x2d, 0x97, 0xac, 0x80, 0xb2, 0x1b, 0x31, 0x63, 0x30, 0xda, 0xae,
  0xfe, 0x25, 0x9d, 0x2e, 0x50, 0x31, 0xda, 0xad, 0xf0, 0x2d, 0x9c, 0xaf,
  0x2e, 0x27, 0x28, 0xab, 0x10, 0x28, 0xa9, 0x2f, 0x8d, 0xa2, 0xb1, 0x30,
  0x88, 0xab, 0x35, 0xb0, 0x76, 0x31, 0x80, 0xa7, 0x96, 0xa6, 0xbc, 0x29,
  0x41, 0x2c, 0x86, 0xa6, 0x2a, 0xad, 0xae, 0xae, 0x53, 0xa6, 0x18, 0x28,
  0xbb, 0xb1, 0x1d, 0x31, 0x3e, 0xa1, 0x67, 0x20, 0x3b, 0x2b, 0xa9, 0x28,
  0x35, 0x2b, 0xde, 0x96, 0x16, 0xa9, 0xa3, 0xb0, 0xfc, 0x2d, 0x6b, 0x32,
  0x99, 0x30, 0x85, 0xb2, 0x7d, 0x30, 0x8a, 0x2d, 0x88, 0xb1, 0xd8, 0x31,
  0xa9, 0x31, 0x74, 0x32, 0xe9, 0xb1, 0x7a, 0xad, 0x4a, 0x28, 0x36, 0xae,
  0x49, 0xa4, 0x7b, 0xab, 0xf3, 0x2b, 0x15, 0xb2, 0xf3, 0x1c, 0x62, 0x31,
  0x9a, 0x31, 0xc7, 0x2a, 0xaa, 0xad, 0x42, 0xaf, 0x3a, 0x32, 0x96, 0x27,
  0x7d, 0xa0, 0x2e, 0xb1, 0xe1, 0xac, 0x07, 0xb2, 0x7c, 0x2e, 0xab, 0x27,
  0xfd, 0xa6, 0x3d, 0x2a, 0x14, 0x28, 0xc2, 0x27, 0x53, 0x30, 0x9f, 0xae,
  0x0c, 0x8d, 0xb9, 0x31, 0x02, 0x18, 0xc9, 0x9d, 0x55, 0x30, 0x54, 0x1f,
  0xcd, 0x9c, 0x41, 0x2e, 0x13, 0x2b, 0x00, 0xb2, 0x44, 0x2d, 0x6f, 0xa8,
  0xa3, 0x2b, 0x55, 0x90, 0xa6, 0x30, 0x90, 0xb2, 0x07, 0x2f, 0x5d, 0x2f,
  0x56, 0xb0, 0x44, 0x9e, 0x3c, 0x30, 0xbc, 0x29, 0xaf, 0x30, 0xc0, 0x31,
  0x18, 0x32, 0xdd, 0x32, 0xdb, 0x31, 0x5b, 0xa3, 0x54, 0xa8, 0x54, 0xb0,
  0x36, 0xa9, 0x62, 0x2d, 0xe8, 0x2d, 0x19, 0x20, 0xa2, 0x30, 0x1d, 0x32,
  0x28, 0x30, 0x88, 0x28, 0xff, 0xa0, 0xaf, 0xaf, 0x21, 0x30, 0x08, 0xae,
  0x56, 0xa0, 0x96, 0x31, 0x68, 0x32, 0xb5, 0xab, 0x29, 0x31, 0xa4, 0x31,
  0x1f, 0xb2, 0xc5, 0xa7, 0xec, 0x2b, 0x29, 0x2f, 0xa6, 0xb0, 0xce, 0xac,
  0x1e, 0x31, 0x2e, 0x31, 0x7b, 0xad, 0x0e, 0x30, 0xed, 0x20, 0x88, 0xad,
  0xdd, 0x2c, 0x3d, 0x31, 0x4f, 0xb0, 0x34, 0xb0, 0x95, 0x30, 0xfe, 0x23,
  0x59, 0x2e, 0x74, 0xb1, 0x8c, 0xb0, 0x09, 0x31, 0x5f, 0x1f, 0xcd, 0x99,
  0x10, 0xae, 0x3f, 0x30, 0xbf, 0x29, 0xe1, 0xb2, 0xab, 0x2d, 0x51, 0x28,
  0x8b, 0xad, 0x15, 0x30, 0x52, 0x2d, 0xb2, 0x2f, 0x95, 0xb1, 0x43, 0x2e,
  0x9c, 0xb0, 0xd3, 0xab, 0x13, 0x2c, 0xcd, 0xa8, 0x2f, 0x2e, 0x4e, 0x2f,
  0x68, 0x1e, 0x7a, 0x30, 0x75, 0xa7, 0xa9, 0xac, 0xa5, 0x2f, 0x7a, 0xa0,
  0x24, 0xb0, 0xf1, 0xad, 0xba, 0x2c, 0x0c, 0xa7, 0x59, 0xaa, 0x2d, 0x2c,
  0x49, 0xb2, 0x40, 0xae, 0x98, 0xb1, 0x4b, 0x24, 0x9a, 0x2a, 0x92, 0x25,
  0x8a, 0x23, 0x2b, 0x2c, 0xdb, 0x28, 0x17, 0x28, 0x7c, 0xad, 0xdb, 0x31,
  0x5c, 0xac, 0x18, 0x2d, 0x4b, 0x32, 0xa4, 0x2c, 0x3a, 0xb0, 0x05, 0xac,
  0x74, 0xb0, 0x95, 0xaf, 0xec, 0x27, 0x5a, 0x34, 0xd4, 0xaa, 0xe6, 0x9d,
  0xc0, 0xa1, 0x13, 0xaf, 0x59, 0xaf, 0x12, 0xb1, 0x0f, 0xa5, 0xf6, 0x2a,
  0x05, 0x31, 0x99, 0xb2, 0x05, 0x2e, 0x94, 0xb1, 0x8a, 0x2e, 0xb6, 0xb0,
  0x21, 0xb0, 0xcc, 0xb0, 0xda, 0x30, 0x86, 0xb1, 0xf9, 0x30, 0xe6, 0x31,
  0x41, 0xb0, 0x6c, 0x30, 0xcc, 0x31, 0xc8, 0xb1, 0xd9, 0xaf, 0xdd, 0x30,
  0xc9, 0xaf, 0x04, 0x31, 0x79, 0xaf, 0xe0, 0xac, 0x2c, 0xaf, 0xc2, 0x29,
  0x36, 0xb1, 0x6f, 0xb0, 0xbf, 0x23, 0x91, 0xaf, 0x6b, 0x21, 0x3d, 0xaf,
  0x0c, 0x31, 0xf6, 0x31, 0x69, 0x30, 0x10, 0xb1, 0xff, 0xb0, 0x24, 0xb0,
  0xd1, 0x98, 0xc3, 0xa1, 0xfc, 0x28, 0x65, 0x2c, 0xac, 0x2f, 0xa5, 0x2e,
  0xb2, 0x2a, 0x6c, 0xad, 0x15, 0x9d, 0xa3, 0xac, 0x59, 0xb1, 0xd0, 0xa6,
  0xe2, 0xb1, 0x29, 0x31, 0x10, 0x31, 0x32, 0x95, 0x65, 0xb0, 0x08, 0xac,
  0x7a, 0x2a, 0x9f, 0x30, 0x3f, 0x31, 0x11, 0x2f, 0xe2, 0x2c, 0x10, 0xac,
  0xd3, 0xad, 0x90, 0xae, 0x89, 0xa9, 0x04, 0x2d, 0x2e, 0x0f, 0xef, 0x30,
  0x1f, 0x31, 0x59, 0xb0, 0x8a, 0x2d, 0xa2, 0xac, 0x4f, 0x2e, 0xe4, 0xb1,
  0xbd, 0xa9, 0x50, 0x2f, 0x59, 0xab, 0x3e, 0xae, 0x05, 0x31, 0x11, 0xb0,
  0x3c, 0xb0, 0xe5, 0xa1, 0x8b, 0x2d, 0x78, 0xb0, 0x6b, 0x30, 0xf3, 0xb1,
  0x5c, 0x31, 0x51, 0xb1, 0xd7, 0x20, 0x8d, 0xaf, 0x26, 0xb1, 0x42, 0x32,
  0x30, 0x2e, 0xb8, 0xb0, 0xcb, 0xb1, 0xb5, 0xa9, 0xcb, 0x30, 0x1d, 0x30,
  0x09, 0xa0, 0x76, 0x1c, 0x17, 0xb1, 0x08, 0x2b, 0x6a, 0x1e, 0x87, 0xb1,
  0x6d, 0xae, 0x11, 0xa9, 0xea, 0xae, 0xf5, 0xab, 0xea, 0x32, 0x9e, 0x22,
  0xf1, 0xae, 0x41, 0x31, 0xe6, 0x31, 0x68, 0x26, 0x00, 0x1b, 0x94, 0x27,
  0x0f, 0xa9, 0x38, 0x2b, 0xfc, 0x28, 0xd3, 0x30, 0x21, 0x2f, 0x4e, 0x2a,
  0x0b, 0xa3, 0xa2, 0x30, 0xe3, 0x2c, 0x3d, 0x2d, 0xcc, 0x30, 0xe5, 0x28,
  0xe3, 0xaa, 0xe1, 0x2c, 0x55, 0xae, 0x83, 0x2c, 0xc2, 0xa9, 0xef, 0x2b,
  0xfa, 0x23, 0xbc, 0xb1, 0x38, 0xb2, 0x10, 0x26, 0xb4, 0xb1, 0x81, 0xad,
  0xfa, 0x30, 0x57, 0x2a, 0xc8, 0x32, 0x61, 0xb2, 0x74, 0x2d, 0xee, 0xac,
  0x9a, 0x2c, 0xdb, 0x30, 0xc2, 0x30, 0x69, 0xb2, 0xd0, 0xac, 0xa9, 0x30,
  0xb7, 0x2d, 0xba, 0xb1, 0x76, 0x2f, 0x25, 0x30, 0x27, 0xaf, 0x5b, 0xaa,
  0x49, 0xb0, 0x4b, 0xb1, 0x5a, 0xad, 0xfb, 0xaa, 0x27, 0x24, 0x3c, 0x2f,
  0x59, 0x32, 0xee, 0x27, 0x07, 0x2f, 0x76, 0x2f, 0xc8, 0x2a, 0x77, 0xad,
  0x33, 0x2e, 0x8a, 0x24, 0xf3, 0xb0, 0x21, 0xae, 0x10, 0xab, 0xd7, 0x2c,
  0xd8, 0xab, 0x36, 0x2e, 0x28, 0x21, 0x00, 0xa6, 0xc9, 0x2d, 0x59, 0x30,
  0xd3, 0x2c, 0x01, 0x2a, 0x69, 0xa6, 0x52, 0xa6, 0xfe, 0x2e, 0xbc, 0xa7,
  0xe8, 0x30, 0xea, 0x2e, 0x28, 0xb2, 0xe7, 0x27, 0x8d, 0xab, 0x27, 0x2c,
  0x8a, 0x31, 0x54, 0x24, 0xb3, 0xad, 0xf5, 0xa9, 0xb5, 0xad, 0x3d, 0x2f,
  0x75, 0x2f, 0x78, 0xa0, 0x80, 0xb1, 0xcf, 0x28, 0xe5, 0x31, 0x0c, 0xa5,
  0xf6, 0x2e, 0x42, 0xb1, 0x80, 0x2c, 0x3a, 0x30, 0x12, 0x26, 0x58, 0xa4,
  0x30, 0x2b, 0xa9, 0xb1, 0x39, 0x24, 0x04, 0xac, 0x8c, 0x32, 0x6c, 0xa6,
  0xae, 0x31, 0x4c, 0xac, 0x2e, 0xaf, 0x78, 0x2d, 0xaf, 0x2c, 0x1e, 0xb2,
  0x26, 0xae, 0xc1, 0xa4, 0x06, 0x2e, 0xa0, 0x2e, 0x52, 0xae, 0x5f, 0xb1,
  0xe0, 0x31, 0x7a, 0xad, 0x10, 0x2e, 0x35, 0xb1, 0x55, 0xa0, 0x82, 0x29,
  0x1d, 0x31, 0xeb, 0xae, 0xd6, 0xb0, 0x54, 0xb0, 0x30, 0x31, 0x96, 0xad,
  0x05, 0xb4, 0x97, 0xad, 0x5e, 0x31, 0x27, 0xb4, 0x87, 0x2c, 0x62, 0x31,
  0xa0, 0x30, 0x10, 0x32, 0x2a, 0xaa, 0xa4, 0x30, 0x59, 0xb1, 0x18, 0x2f,
  0x1c, 0x2d, 0x15, 0x30, 0x76, 0x30, 0xe7, 0x30, 0x89, 0x30, 0x3b, 0xb1,
  0x2f, 0x2a, 0xc8, 0xb1, 0xda, 0x29, 0xdd, 0xad, 0x2f, 0xae, 0x25, 0x22,
  0x0a, 0x29, 0x87, 0xb0, 0xfc, 0xb1, 0x18, 0x32, 0x1f, 0x2c, 0x1a, 0x32,
  0xbb, 0x2c, 0xfd, 0x30, 0xdf, 0xb1, 0x55, 0xa8, 0xdd, 0x32, 0x89, 0x22,
  0xe9, 0xad, 0x0a, 0x24, 0xe3, 0xb0, 0x4e, 0xb2, 0x63, 0xad, 0xd0, 0x28,
  0xc6, 0xaf, 0x27, 0x2f, 0xf0, 0xac, 0x6b, 0xb1, 0xaa, 0xaf, 0x13, 0x25,
  0xf5, 0x2e, 0xa8, 0xa6, 0x88, 0xb2, 0x05, 0x1e, 0x58, 0x32, 0xb3, 0xae,
  0x09, 0x26, 0x9b, 0x2c, 0x1e, 0xae, 0x67, 0xb0, 0x33, 0x2f, 0x00, 0xb0,
  0xc6, 0x9c, 0x88, 0x31, 0xe4, 0x2c, 0xf5, 0x2f, 0x39, 0x30, 0x9e, 0xad,
  0xaf, 0x29, 0xf5, 0x30, 0x89, 0xb0, 0x88, 0x2d, 0x10, 0xae, 0xdf, 0xb1,
  0x99, 0xb1, 0x07, 0x2a, 0x7e, 0xb0, 0xc2, 0x31, 0x00, 0xac, 0x79, 0xa9,
  0x78, 0xb2, 0x0e, 0x2d, 0xcc, 0xb0, 0x7d, 0x30, 0x19, 0xa8, 0x1f, 0xb1,
  0x7e, 0x30, 0xb8, 0x30, 0x28, 0xb1, 0x2d, 0xb0, 0xc5, 0xae, 0xd7, 0xb0,
  0x51, 0x25, 0x0d, 0xb1, 0xe7, 0x2d, 0x74, 0xb1, 0x09, 0xb2, 0x0b, 0x22,
  0xd3, 0x1f, 0xbb, 0x2a, 0x94, 0xb1, 0x7a, 0x31, 0x21, 0xb1, 0x04, 0x31,
  0x52, 0x32, 0xd9, 0x29, 0x4f, 0x2a, 0x02, 0xb0, 0xc8, 0x2c, 0x4d, 0x31,
  0x5c, 0xb1, 0x02, 0x31, 0x7d, 0xae, 0xdf, 0x90, 0x97, 0x30, 0x61, 0x9c,
  0x21, 0xad, 0x03, 0xb0, 0x70, 0x28, 0xf3, 0xaf, 0x7e, 0xb0, 0x24, 0xb2,
  0x94, 0x32, 0x21, 0xb2, 0xc4, 0xb0, 0x60, 0x2d, 0x7e, 0x30, 0x35, 0x32,
  0xad, 0x2d, 0x50, 0x32, 0xb8, 0xaf, 0x17, 0x2b, 0xba, 0x28, 0x85, 0xb1,
  0xa4, 0x31, 0xa3, 0x2b, 0x1a, 0x2f, 0x06, 0x30, 0xde, 0x2c, 0x6f, 0xaf,
  0x5b, 0x2f, 0xef, 0x26, 0xf6, 0xae, 0xf2, 0x2e, 0x5a, 0x1d, 0xd6, 0x29,
  0x14, 0x2f, 0xc3, 0x31, 0x28, 0x24, 0xa0, 0x2c, 0x41, 0x1b, 0x05, 0x30,
  0x4a, 0x2c, 0x82, 0x30, 0x27, 0xad, 0x70, 0xad, 0x19, 0xad, 0x22, 0x30,
  0x1c, 0x31, 0xf7, 0xac, 0x50, 0x2f, 0x9b, 0x32, 0x31, 0x30, 0xce, 0x26,
  0x23, 0xa8, 0x39, 0x32, 0x14, 0x2a, 0x5a, 0xad, 0x6f, 0x29, 0x80, 0xae,
  0x3e, 0xae, 0xfd, 0x30, 0xed, 0x2e, 0x36, 0xb0, 0x0f, 0xa6, 0xde, 0xa6,
  0x86, 0xad, 0x8b, 0xad, 0x9e, 0x2f, 0x60, 0x2e, 0xb3, 0xaa, 0xbf, 0xb1,
  0x6b, 0x30, 0xc0, 0xb0, 0xc7, 0xa5, 0xaa, 0xb1, 0x0c, 0xaa, 0xf8, 0x2f,
  0x45, 0x33, 0x1f, 0xae, 0xa8, 0x31, 0x97, 0xaf, 0xbe, 0xb0, 0x9e, 0x2b,
  0x45, 0xa0, 0x17, 0x2f, 0x73, 0x30, 0x77, 0xac, 0x99, 0x2a, 0x06, 0x2d,
  0xef, 0x1d, 0x26, 0xaa, 0x2d, 0x2d, 0x5e, 0xb1, 0xb5, 0xa7, 0x55, 0xb0,
  0x42, 0xb2, 0xce, 0x31, 0x16, 0xb0, 0x6a, 0xae, 0x22, 0x31, 0xb8, 0xaf,
  0x3f, 0xa8, 0xa4, 0x30, 0xa7, 0x2d, 0x13, 0x31, 0x9b, 0x29, 0xb9, 0xa8,
  0x55, 0x32, 0x68, 0x32, 0x91, 0x1d, 0xe3, 0x2a, 0x2f, 0xaf, 0xd2, 0x28,
  0x62, 0xb2, 0xb2, 0xb1, 0xf4, 0xb2, 0xdb, 0x2d, 0xde, 0x25, 0xa0, 0x2d,
  0x02, 0x0f, 0xf3, 0xaf, 0x4c, 0x24, 0xcb, 0xa6, 0x9b, 0xab, 0xf7, 0x2f,
  0x2c, 0xad, 0x03, 0x21, 0x91, 0xae, 0xfc, 0xa0, 0xab, 0x9e, 0xad, 0xaf,
  0xbc, 0x2e, 0x99, 0xa7, 0x4a, 0xb0, 0xe6, 0x2f, 0x01, 0xae, 0xfb, 0x31,
  0x62, 0xa8, 0x6c, 0x31, 0xc6, 0xb0, 0x62, 0xab, 0xe6, 0x31, 0x2b, 0xa9,
  0x79, 0xac, 0x8f, 0x2b, 0x7b, 0xb0, 0xfe, 0x2d, 0x99, 0xa9, 0x6b, 0x31,
  0xf1, 0x30, 0xb8, 0x31, 0xa6, 0xa2, 0x75, 0xa8, 0xe8, 0x9d, 0xce, 0x2e,
  0x3c, 0xb2, 0x27, 0x2f, 0x0e, 0x31, 0x67, 0xad, 0x13, 0x31, 0xed, 0x30,
  0x78, 0x2e, 0x17, 0x1e, 0x60, 0x30, 0x12, 0x2d, 0xa8, 0xa7, 0x81, 0x31,
  0x07, 0xb1, 0xaa, 0xac, 0x47, 0xb2, 0x60, 0x2f, 0xb4, 0x30, 0x42, 0x32,
  0xf3, 0xb1, 0xe0, 0x2b, 0x88, 0xae, 0xf3, 0xaf, 0xb3, 0xae, 0xee, 0xb1,
  0xa1, 0xab, 0xe1, 0x2d, 0x5f, 0x9f, 0xf1, 0xb0, 0xb5, 0x21, 0x06, 0xb0,
  0xec, 0xa5, 0x78, 0x31, 0x21, 0xb0, 0xcf, 0x2c, 0x34, 0xb1, 0x75, 0x1a,
  0xaf, 0x2c, 0x10, 0xa2, 0x00, 0x31, 0xbd, 0x2a, 0x78, 0xa7, 0x96, 0xb1,
  0x49, 0xb0, 0xfe, 0x2d, 0x16, 0x2f, 0x84, 0x30, 0xe7, 0xaa, 0x4e, 0xb0,
  0x3f, 0x32, 0x40, 0xb1, 0x3c, 0x2c, 0x22, 0x2e, 0xa4, 0x2d, 0x92, 0x31,
  0x77, 0x26, 0x61, 0xb1, 0x8d, 0xa4, 0x17, 0xa1, 0x4c, 0xa5, 0x43, 0x2d,
  0x7f, 0x2e, 0x06, 0xaf, 0xb5, 0xab, 0x1c, 0xb0, 0x4e, 0xa8, 0x3c, 0xb2,
  0x04, 0xa2, 0x24, 0xa8, 0x6c, 0xb0, 0x9a, 0xb1, 0x26, 0x32, 0x39, 0x30,
  0x1b, 0xb1, 0x74, 0xb0, 0x63, 0x2c, 0x77, 0x2a, 0x07, 0xb0, 0xa6, 0xa7,
  0xbd, 0xb0, 0xaa, 0x24, 0x20, 0xb1, 0xa9, 0xa8, 0x59, 0x1b, 0x07, 0xaf,
  0x83, 0x31, 0x36, 0xaa, 0x83, 0x2e, 0xd6, 0x29, 0x13, 0xad, 0xcb, 0x2e,
  0x8c, 0xa4, 0xcd, 0xac, 0xe3, 0xa6, 0x99, 0xb2, 0x72, 0xa4, 0x1b, 0x2c,
  0x8f, 0x2d, 0x94, 0xaf, 0xa5, 0xb2, 0xf7, 0xb2, 0x29, 0xad, 0xdf, 0x99,
  0x56, 0xaa, 0xcb, 0x31, 0x81, 0xaa, 0x7a, 0xa9, 0x5d, 0xb1, 0x2c, 0x31,
  0xfa, 0x2f, 0xc3, 0xb1, 0x41, 0x0f, 0x42, 0x2e, 0x14, 0x2e, 0xe6, 0xae,
  0x2a, 0xa0, 0x43, 0x29, 0xa9, 0xb0, 0xdb, 0xb1, 0xe0, 0x2c, 0x91, 0xb1,
  0xa7, 0x29, 0xe3, 0xaa, 0x27, 0x14, 0x38, 0x28, 0xcb, 0xa7, 0x16, 0xaa,
  0x51, 0xa9, 0x35, 0xaa, 0x18, 0x28, 0x58, 0x32, 0x50, 0x30, 0xe4, 0xa9,
  0x1e, 0x30, 0x4f, 0x2f, 0x40, 0x2f, 0x59, 0x9d, 0xb1, 0xb0, 0xc7, 0x2f,
  0x5b, 0x27, 0x1f, 0xb2, 0x4a, 0x2c, 0x93, 0xad, 0x3b, 0xa9, 0xfe, 0x27,
  0xc0, 0x2d, 0x95, 0x29, 0xcb, 0xae, 0x58, 0xac, 0x37, 0xa7, 0xb3, 0x30,
  0x07, 0x2c, 0xea, 0x32, 0x91, 0x2f, 0x67, 0xac, 0x6d, 0xaa, 0xc6, 0xaa,
  0xc7, 0x31, 0x8c, 0x18, 0xe3, 0x31, 0x5e, 0x2f, 0x1c, 0x30, 0xda, 0x2d,
  0xee, 0xad, 0x26, 0x2e, 0xdd, 0xad, 0x1a, 0xb1, 0xf2, 0x31, 0xcc, 0xb0,
  0xd1, 0x2c, 0x78, 0x2d, 0x0a, 0xa9, 0x8f, 0xae, 0x09, 0x2e, 0x6f, 0xa9,
  0xa1, 0xb0, 0x27, 0x30, 0x1d, 0x2c, 0x7e, 0x2d, 0x0a, 0x30, 0x90, 0x30,
  0x73, 0x29, 0x74, 0xb0, 0xb3, 0x32, 0xe8, 0xb0, 0x19, 0x27, 0xbf, 0xab,
  0xad, 0x31, 0x66, 0x2f, 0x8e, 0xae, 0x49, 0x31, 0xbe, 0x2f, 0xeb, 0xb1,
  0x26, 0x30, 0xb7, 0xa7, 0xd8, 0xaf, 0x26, 0x32, 0xc0, 0x32, 0x2f, 0x97,
  0x6e, 0xb1, 0x81, 0x81, 0x60, 0x2e, 0x1a, 0x26, 0xce, 0xb1, 0x8f, 0x32,
  0x38, 0x27, 0xae, 0xac, 0x99, 0xb1, 0x47, 0x2c, 0xe8, 0x2f, 0x9c, 0x2f,
  0xa6, 0x31, 0x1f, 0x2c, 0x60, 0xb0, 0x57, 0xb0, 0x97, 0x32, 0xb8, 0x2d,
  0x96, 0xb1, 0x16, 0xb0, 0x0c, 0x31, 0xa7, 0xad, 0x26, 0x2d, 0x95, 0xa8,
  0x6d, 0x2d, 0xdb, 0xa8, 0xae, 0x2a, 0xbb, 0xaf, 0xca, 0x30, 0x70, 0xad,
  0x89, 0xb2, 0xd9, 0x2a, 0x61, 0x2c, 0x5d, 0xaf, 0x2d, 0xab, 0x8e, 0x31,
  0x9a, 0xa9, 0x08, 0x30, 0xda, 0x31, 0xf4, 0x2d, 0x37, 0x30, 0xd0, 0xb0,
  0x23, 0xb0, 0x38, 0xad, 0xe3, 0xaa, 0x3e, 0xa3, 0x30, 0x30, 0x6e, 0xb2,
  0x32, 0x30, 0xd0, 0x31, 0x38, 0x30, 0xbd, 0x2f, 0x71, 0x31, 0x0e, 0xaa,
  0xf8, 0xab, 0x14, 0xb1, 0xcc, 0x30, 0x3b, 0x26, 0x60, 0xa5, 0x73, 0xaf,
  0x1f, 0x26, 0x81, 0xb0, 0x1b, 0xb2, 0x7d, 0xac, 0x70, 0x29, 0xed, 0xb1,
  0x29, 0x32, 0x94, 0x29, 0x7b, 0xad, 0x4d, 0x20, 0xb3, 0xac, 0x3f, 0x30,
  0xb4, 0xb0, 0x26, 0x31, 0xa1, 0xae, 0xaa, 0x31, 0x61, 0xb0, 0x12, 0xb1,
  0x95, 0xae, 0x09, 0xa0, 0xbf, 0xad, 0x2a, 0xb2, 0x31, 0xb1, 0xa6, 0x31,
  0xd1, 0xb1, 0xaf, 0x25, 0x6b, 0xb1, 0xfc, 0x31, 0xb5, 0xaf, 0x40, 0x31,
  0x61, 0x31, 0x30, 0xb1, 0x82, 0xad, 0xb7, 0xac, 0x3e, 0x2f, 0xa1, 0xa5,
  0x6c, 0x27, 0x6c, 0xae, 0xcd, 0xaa, 0xce, 0x30, 0x75, 0xb1, 0x85, 0x1e,
  0x02, 0x2e, 0xb1, 0xa5, 0xd6, 0x2c, 0x4c, 0xae, 0xb9, 0xae, 0xa4, 0x30,
  0x81, 0x1e, 0xe9, 0x2d, 0x71, 0xb0, 0x6c, 0xb2, 0xba, 0xad, 0xf7, 0x31,
  0xd4, 0x30, 0xcf, 0x32, 0x6a, 0xb2, 0x3e, 0x2e, 0xee, 0xad, 0x85, 0x2f,
  0x0e, 0xa4, 0x75, 0x31, 0x0a, 0xae, 0xc9, 0xb0, 0x23, 0xab, 0xf0, 0x23,
  0x66, 0xa0, 0x29, 0x30, 0x7e, 0x31, 0x44, 0xaa, 0x6f, 0x2d, 0xe2, 0x2d,
  0xfe, 0x2b, 0xa9, 0xa7, 0xba, 0xae, 0x4c, 0x30, 0xad, 0x31, 0x43, 0xaf,
  0xf0, 0x31, 0xf3, 0xa8, 0x71, 0x2a, 0x1b, 0xa8, 0x6f, 0x9a, 0x1d, 0x1e,
  0x21, 0xae, 0x5a, 0x2a, 0x57, 0x2e, 0xa6, 0x30, 0x67, 0x2f, 0xab, 0xac,
  0xc6, 0xb3, 0x9e, 0x24, 0xfd, 0xaa, 0x8b, 0x31, 0x1d, 0x32, 0x81, 0x30,
  0x53, 0x32, 0xb0, 0x26, 0x9c, 0x28, 0xcc, 0xb0, 0xbf, 0xa4, 0xb5, 0x1f,
  0xea, 0xb1, 0xf8, 0x30, 0xf2, 0x2e, 0xee, 0xb0, 0x33, 0x28, 0x40, 0x30,
  0xe4, 0x31, 0x5c, 0x29, 0x87, 0xac, 0x71, 0x30, 0x40, 0xb1, 0x2d, 0xaf,
  0x3b, 0x2b, 0x08, 0xaf, 0x69, 0x30, 0x9a, 0x2d, 0xee, 0xad, 0x70, 0xb2,
  0x1b, 0xb1, 0x20, 0x97, 0x48, 0x26, 0x68, 0x27, 0xfe, 0xb1, 0x66, 0x2d,
  0x8d, 0xb1, 0xb3, 0x2b, 0x80, 0xa9, 0xce, 0xad, 0x11, 0xae, 0xab, 0xa9,
  0x42, 0xab, 0x54, 0xae, 0x40, 0xb2, 0x77, 0xaf, 0x17, 0x2c, 0x93, 0x2f,
  0xf2, 0xb0, 0xa9, 0xaf, 0x93, 0xad, 0x93, 0xaa, 0x65, 0x24, 0x1c, 0x2d,
  0x6d, 0x30, 0x82, 0xa6, 0x75, 0xb0, 0x54, 0xb0, 0x23, 0x2b, 0x2e, 0x29,
  0xd1, 0xad, 0x0f, 0x11, 0x5e, 0x31, 0xea, 0x31, 0x9d, 0xa4, 0xa1, 0x30,
  0x25, 0xa0, 0x77, 0xb0, 0xba, 0x28, 0x6c, 0x9f, 0xb1, 0x28, 0x5e, 0xb0,
  0x7a, 0x98, 0xe6, 0xb0, 0xcf, 0x31, 0x13, 0xb1, 0x39, 0xb1, 0x82, 0x2b,
  0xbf, 0x26, 0x2f, 0xac, 0xf5, 0x2f, 0x93, 0x30, 0x33, 0x32, 0xc6, 0xa5,
  0xd2, 0x21, 0x0f, 0x30, 0xee, 0x32, 0xf4, 0xa9, 0xdd, 0xaa, 0x40, 0xa4,
  0x3a, 0x2a, 0x02, 0xaf, 0xc6, 0x31, 0xfb, 0xa2, 0x2b, 0x2e, 0x12, 0x32,
  0x9d, 0x2c, 0xf2, 0xa9, 0xf3, 0x30, 0x5d, 0x29, 0xf9, 0xac, 0x46, 0x32,
  0x6c, 0xb2, 0x50, 0x2f, 0x20, 0xb1, 0x96, 0x31, 0xb3, 0xb1, 0xfe, 0xac,
  0x6d, 0x32, 0x23, 0x2e, 0x97, 0xb1, 0x05, 0xb2, 0x31, 0xb1, 0x4b, 0x30,
  0xb8, 0xb1, 0xdf, 0x21, 0x35, 0xb0, 0x20, 0x31, 0x38, 0x2f, 0x9e, 0xa0,
  0x02, 0xae, 0x4c, 0xb1, 0x31, 0xae, 0x76, 0xad, 0x59, 0x15, 0x08, 0x2f,
  0xa3, 0xb1, 0x02, 0x2c, 0x3d, 0xb2, 0xee, 0xac, 0xa8, 0xae, 0xc3, 0x2e,
  0xd3, 0x2c, 0xef, 0xac, 0x4a, 0xb1, 0xbb, 0xaf, 0x85, 0xb2, 0x48, 0x9c,
  0x00, 0x30, 0x3e, 0xa8, 0x85, 0x2f, 0xc4, 0xac, 0xc9, 0x2a, 0x15, 0xaf,
  0x2b, 0xaf, 0x07, 0x30, 0xf2, 0x30, 0x2f, 0x2b, 0xc8, 0xa5, 0x2d, 0xa9,
  0x2f, 0xb1, 0x39, 0xa9, 0xce, 0xab, 0x49, 0x2e, 0xf9, 0xb0, 0x12, 0x24,
  0xcd, 0x29, 0x5d, 0xb0, 0xba, 0xac, 0xb5, 0x2f, 0x7d, 0xac, 0x2e, 0x31,
  0x08, 0x32, 0xc7, 0xaf, 0x1c, 0x2b, 0x1c, 0x30, 0x97, 0xad, 0x7f, 0xaf,
  0x41, 0x2d, 0x31, 0xa8, 0x14, 0xa9, 0xcd, 0xab, 0xb9, 0xb1, 0xe4, 0x2b,
  0x3b, 0x26, 0x82, 0x30, 0xa3, 0xab, 0x43, 0x32, 0xd9, 0xb0, 0x71, 0x2c,
  0x09, 0x33, 0x49, 0x2e, 0xdb, 0x29, 0xb2, 0xac, 0xdb, 0x9c, 0x6e, 0x32,
  0xf1, 0xaa, 0xea, 0x30, 0xed, 0xb0, 0xf2, 0x2a, 0x33, 0xaf, 0xcb, 0xaf,
  0x9c, 0x31, 0xb2, 0xad, 0xbe, 0xa4, 0xea, 0xa4, 0xe5, 0x30, 0xa7, 0xb0,
  0x44, 0xad, 0x43, 0x9d, 0x36, 0x27, 0x38, 0xb1, 0x44, 0x2d, 0x0c, 0xb2,
  0xab, 0x32, 0x40, 0x30, 0x05, 0x2a, 0x3b, 0x31, 0x54, 0xb2, 0x12, 0x2e,
  0x4f, 0xb1, 0x5f, 0x31, 0x28, 0xad, 0x9d, 0x2f, 0x28, 0x24, 0xd7, 0xae,
  0x7e, 0xae, 0xc2, 0x31, 0x44, 0xaf, 0x7f, 0x2c, 0x39, 0x31, 0x8a, 0xa9,
  0x8d, 0x9c, 0x25, 0x2a, 0x6d, 0x30, 0xf9, 0x2b, 0x73, 0x24, 0x27, 0xb2,
  0xa1, 0xb0, 0xcd, 0xa5, 0x4a, 0xb0, 0x40, 0xa8, 0x82, 0x2f, 0xc2, 0xac,
  0x2a, 0x30, 0x88, 0xb1, 0x5a, 0x30, 0x44, 0xae, 0x05, 0x32, 0x00, 0xb1,
  0x18, 0xb1, 0x64, 0x31, 0x86, 0x2e, 0x9f, 0xb1, 0x5e, 0xb1, 0x1b, 0x32,
  0xea, 0x2e, 0xbf, 0xb2, 0xe6, 0xaa, 0x45, 0xa6, 0x2e, 0xaf, 0x4e, 0x27,
  0x3e, 0xae, 0x88, 0x18, 0x5c, 0x28, 0x36, 0x32, 0x16, 0xaf, 0x61, 0x28,
  0x34, 0xb2, 0x81, 0xa9, 0x6f, 0x25, 0x0f, 0xac, 0x9e, 0x1e, 0xb2, 0x30,
  0x47, 0x30, 0x8a, 0xac, 0x11, 0xb0, 0x26, 0x31, 0x17, 0x28, 0xb3, 0xb1,
  0xc3, 0xaf, 0x79, 0x2a, 0x18, 0x30, 0x12, 0x98, 0x61, 0x2e, 0x64, 0x31,
  0xe5, 0x28, 0x11, 0x30, 0xde, 0x32, 0xab, 0x31, 0xe3, 0x31, 0x9d, 0xb1,
  0x59, 0xad, 0xb4, 0xae, 0xd5, 0x2c, 0x48, 0x18, 0x11, 0xa5, 0x32, 0x2c,
  0x92, 0xb0, 0x71, 0x32, 0xb9, 0xb2, 0x13, 0x30, 0xec, 0x30, 0xbc, 0x2b,
  0xd1, 0x31, 0x16, 0x31, 0x6f, 0x26, 0x66, 0x2e, 0xf7, 0xab, 0xbd, 0x29,
  0xa7, 0x2f, 0x1e, 0x31, 0xb6, 0xb0, 0x0d, 0x31, 0xc2, 0xa5, 0x53, 0x31,
  0x5b, 0x31, 0xe8, 0xa5, 0xd5, 0xad, 0x33, 0xa8, 0x25, 0x2d, 0x92, 0x2f,
  0xb1, 0xaf, 0x28, 0xb2, 0xee, 0xb0, 0x1a, 0x2d, 0x28, 0x2f, 0x0c, 0x31,
  0x30, 0xa3, 0xa6, 0x2a, 0x2f, 0x29, 0x5e, 0xa8, 0x62, 0xb1, 0x98, 0x26,
  0xf0, 0xad, 0xc7, 0x31, 0xa6, 0x30, 0xd4, 0x30, 0xb3, 0x30, 0xb2, 0xa5,
  0x64, 0xa1, 0xd6, 0x2f, 0x7c, 0xb1, 0x19, 0x2f, 0x58, 0x30, 0x90, 0xa7,
  0x44, 0x2b, 0xa3, 0xb0, 0x71, 0x31, 0x6b, 0xa5, 0xc9, 0xb0, 0x9b, 0xaf,
  0xf4, 0xa8, 0x1b, 0xa4, 0x78, 0xaf, 0x5d, 0xad, 0x22, 0x30, 0xcb, 0xac,
  0x0a, 0xb1, 0x3a, 0x2e, 0xc7, 0x20, 0xef, 0x27, 0xe1, 0xb0, 0x92, 0xb1,
  0xc3, 0x1c, 0x5e, 0xa0, 0x38, 0xb1, 0x29, 0xb0, 0xc8, 0x25, 0x35, 0x2a,
  0x4a, 0x24, 0xdd, 0x2d, 0x95, 0xb2, 0x3d, 0xaa, 0xa5, 0x31, 0xc0, 0xaf,
  0xa6, 0x2b, 0xd4, 0x29, 0x3e, 0xaf, 0x95, 0x2f, 0x70, 0x30, 0x71, 0x32,
  0xab, 0x31, 0x1e, 0x9c, 0xc8, 0x32, 0x0b, 0x2a, 0x2e, 0xaf, 0x5f, 0xae,
  0xa2, 0xae, 0xdc, 0xa8, 0x05, 0xb2, 0x7d, 0xad, 0xda, 0xb2, 0x54, 0x2d,
  0xea, 0xb1, 0xa7, 0x1a, 0x61, 0xad, 0xb5, 0x9d, 0x8d, 0x2e, 0xd9, 0x28,
  0xfd, 0xb1, 0x0c, 0xb1, 0x73, 0xae, 0x4a, 0x2a, 0xd8, 0xa5, 0xb9, 0x0c,
  0x36, 0x30, 0x5a, 0xaf, 0xb7, 0xaf, 0xff, 0x30, 0xb8, 0x30, 0x4f, 0x31,
  0x4e, 0x31, 0x1e, 0xae, 0x6d, 0xa7, 0xd6, 0x32, 0x5e, 0x30, 0xf5, 0xaf,
  0x3d, 0xb1, 0xa9, 0x30, 0x64, 0x2e, 0xc0, 0xb0, 0x01, 0xb0, 0xb2, 0x30,
  0x11, 0xb2, 0x40, 0x29, 0x8a, 0x2e, 0x9f, 0x21, 0xda, 0x21, 0x14, 0x2f,
  0xd1, 0x2c, 0xac, 0xa0, 0xc0, 0xad, 0x73, 0xae, 0x5e, 0x2e, 0xad, 0x2e,
  0xba, 0x2f, 0x65, 0x2c, 0x37, 0xb0, 0xcb, 0x2c, 0x76, 0xa9, 0xb9, 0xac,
  0xfc, 0x30, 0xa0, 0x9f, 0x0c, 0x20, 0xba, 0x2d, 0x4c, 0xb1, 0x9d, 0x2c,
  0x62, 0xae, 0x42, 0x2f, 0x4e, 0x31, 0x86, 0x19, 0xa8, 0xb0, 0x94, 0x9e,
  0xf0, 0xb0, 0x6c, 0x2b, 0x60, 0x2e, 0xef, 0x29, 0x43, 0xb2, 0x00, 0xaf,
  0xd7, 0xa8, 0x45, 0x2f, 0xfe, 0x25, 0x93, 0x2d, 0xce, 0xa8, 0xe2, 0xa9,
  0x9c, 0xa8, 0x04, 0x2d, 0x1b, 0xb1, 0x15, 0x23, 0x41, 0x31, 0xcf, 0xb2,
  0xc2, 0x30, 0x33, 0xb2, 0x7b, 0x31, 0xc6, 0xb1, 0xad, 0x30, 0x82, 0x31,
  0xb2, 0xb2, 0xc7, 0xb2, 0x18, 0x2c, 0x7e, 0xac, 0x8c, 0x2e, 0x2e, 0xaf,
  0x59, 0x29, 0x6c, 0x27, 0x7e, 0xad, 0x8a, 0x1c, 0xa7, 0x2f, 0xbf, 0x23,
  0x62, 0xaf, 0x8c, 0xb1, 0xe8, 0x25, 0x18, 0x31, 0xb7, 0x2d, 0x8b, 0xb0,
  0xdb, 0xa8, 0xd2, 0xaf, 0x66, 0xa4, 0x31, 0x2f, 0x9c, 0xb0, 0x0a, 0x9c,
  0x1f, 0xa4, 0x93, 0x2b, 0xf5, 0xa8, 0x32, 0xad, 0x37, 0x31, 0xa4, 0xad,
  0x74, 0xaf, 0x14, 0xa7, 0x49, 0x2e, 0x75, 0xaf, 0x9b, 0x31, 0xa3, 0xa9,
  0x19, 0x2e, 0x5f, 0x30, 0xb8, 0xb1, 0x55, 0x31, 0x18, 0xab, 0x11, 0x30,
  0x0e, 0x2b, 0xc2, 0xa8, 0x73, 0xaf, 0x47, 0x27, 0xa9, 0x2e, 0x63, 0x30,
  0xff, 0x30, 0x21, 0x31, 0x50, 0xb2, 0xfa, 0x31, 0xd2, 0x28, 0x2e, 0xb0,
  0x5d, 0xb1, 0x0f, 0x33, 0x29, 0xaf, 0x73, 0x2a, 0xc6, 0xad, 0xf5, 0xb1,
  0xbb, 0x2e, 0xab, 0xb0, 0x70, 0x20, 0x87, 0x32, 0x00, 0x32, 0x87, 0x2c,
  0x23, 0xaf, 0x4e, 0xb1, 0xd7, 0xae, 0x8b, 0xad, 0xc8, 0x32, 0xe1, 0xac,
  0x1f, 0xb2, 0x30, 0xa8, 0x05, 0xb1, 0x5d, 0xa7, 0xe0, 0xae, 0x0f, 0x31,
  0xd4, 0xac, 0x29, 0xad, 0x83, 0x32, 0x1c, 0x30, 0xbb, 0x12, 0x7f, 0xb1,
  0x88, 0x2b, 0xde, 0x30, 0xe6, 0x30, 0x3e, 0xb0, 0xe8, 0xb2, 0x29, 0xb0,
  0xa5, 0xb1, 0x88, 0x30, 0x3e, 0xb0, 0xc3, 0x25, 0x0d, 0x32, 0xef, 0x2c,
  0x94, 0xb1, 0x84, 0x1c, 0xa6, 0x31, 0x3b, 0x28, 0x50, 0xa3, 0x9b, 0x31,
  0x13, 0xb2, 0x33, 0xad, 0xbe, 0x25, 0xfe, 0x30, 0x43, 0xab, 0xd6, 0xaf,
  0xfa, 0xb1, 0xe5, 0xb2, 0xe9, 0x2e, 0x24, 0xb0, 0xa0, 0x28, 0x2e, 0x2c,
  0x85, 0x2d, 0x57, 0xb2, 0x61, 0x2e, 0x85, 0xad, 0x2d, 0xac, 0xfe, 0xa8,
  0x35, 0xb2, 0x2d, 0xa8, 0x13, 0x2c, 0xef, 0xb2, 0x90, 0xaf, 0xf2, 0xb0,
  0x41, 0xb0, 0x99, 0xaf, 0x3b, 0x31, 0x42, 0x2b, 0xb6, 0x2d, 0x85, 0xb1,
  0xfe, 0xad, 0x34, 0xb1, 0x19, 0x30, 0x6b, 0xb2, 0x1a, 0xb2, 0x89, 0xa2,
  0x4e, 0x2a, 0xcc, 0x2b, 0x25, 0xa8, 0xa2, 0x26, 0xc9, 0x26, 0xf9, 0x29,
  0x2c, 0xac, 0x86, 0x2f, 0xdc, 0x25, 0xfa, 0x2f, 0xc6, 0x28, 0x90, 0xae,
  0x38, 0xaf, 0x0f, 0xaf, 0xdc, 0xa9, 0xc9, 0x25, 0x55, 0xa6, 0xfc, 0x30,
  0x17, 0x31, 0x75, 0x2a, 0x30, 0xa3, 0x73, 0xb0, 0xd2, 0x2d, 0x58, 0xae,
  0x60, 0xb1, 0x4e, 0x2e, 0xe9, 0x2f, 0x54, 0x2e, 0x1e, 0x25, 0xa3, 0xae,
  0x0a, 0x30, 0xff, 0x31, 0xfe, 0x2d, 0x5f, 0x2f, 0x12, 0xae, 0x38, 0x2d,
  0x97, 0xad, 0xe9, 0xaa, 0x15, 0x2d, 0x92, 0x2c, 0x6f, 0x2f, 0x84, 0xa5,
  0xd4, 0xa9, 0x56, 0x27, 0xe9, 0x2e, 0x8e, 0x29, 0xf6, 0xb0, 0x17, 0x32,
  0x86, 0x2d, 0xd8, 0x2c, 0x0b, 0xaa, 0x36, 0x32, 0xe0, 0x94, 0x1f, 0x18,
  0x5f, 0x2d, 0xed, 0xa1, 0xcd, 0x27, 0x7b, 0x1c, 0xb8, 0x2a, 0xac, 0x1d,
  0x56, 0xb0, 0xaa, 0xac, 0x08, 0x32, 0x4b, 0x30, 0x18, 0xa8, 0x9e, 0x1d,
  0xf3, 0xaf, 0x6b, 0x30, 0xe6, 0xb1, 0x92, 0x2e, 0x6d, 0x30, 0x2e, 0x28,
  0x9a, 0x2e, 0x59, 0xb2, 0x62, 0xab, 0x31, 0xae, 0xe7, 0x2c, 0x9f, 0xb1,
  0x6f, 0xb0, 0x75, 0x2e, 0xb6, 0x29, 0xca, 0xb1, 0x85, 0x30, 0xd5, 0x2f,
  0x42, 0x28, 0xea, 0x20, 0x47, 0xb1, 0xfa, 0xb1, 0x23, 0xb1, 0x04, 0xb1,
  0x2b, 0xb0, 0x3b, 0xae, 0xd0, 0x31, 0x04, 0xb2, 0xe1, 0x31, 0xfa, 0x31,
  0x7e, 0x26, 0x74, 0xa4, 0xb2, 0x2d, 0x46, 0x26, 0xad, 0xb1, 0x65, 0xb1,
  0x58, 0x33, 0x50, 0xae, 0x6f, 0x30, 0x4e, 0x2d, 0x5a, 0xae, 0xc8, 0xa8,
  0xd5, 0xa6, 0xbb, 0x31, 0xba, 0x26, 0x48, 0x2a, 0x6a, 0xaf, 0x8f, 0xae,
  0xbd, 0xb2, 0x81, 0x26, 0xe0, 0xb2, 0xe1, 0x2b, 0x49, 0x31, 0x97, 0xa8,
  0xa3, 0x1e, 0x8a, 0x2a, 0x28, 0xad, 0xdf, 0x2d, 0xc1, 0x2c, 0xcd, 0xb3,
  0x20, 0x30, 0x6d, 0xab, 0x5f, 0x32, 0x30, 0xb2, 0x1a, 0x2d, 0xfd, 0x2a,
  0x25, 0xb2, 0xa3, 0x2d, 0x83, 0xad, 0x9a, 0x2c, 0x50, 0x28, 0x0f, 0xae,
  0x40, 0x28, 0x0b, 0xae, 0x86, 0xab, 0x7f, 0xa0, 0x4e, 0x2f, 0xb9, 0x29,
  0xdc, 0xb2, 0x42, 0x2e, 0xd3, 0xa9, 0xbc, 0xaf, 0x8e, 0x32, 0x0a, 0x2a,
  0x37, 0x30, 0x71, 0x1d, 0x54, 0xb1, 0x60, 0x2f, 0xf7, 0x2c, 0x00, 0xae,
  0x12, 0x32, 0x8f, 0xb1, 0x26, 0x31, 0x7d, 0x2d, 0xc2, 0x30, 0x1c, 0x2b,
  0xb8, 0xaf, 0x9a, 0x9e, 0x20, 0xaf, 0x47, 0xab, 0x01, 0xad, 0xac, 0xb1,
  0x81, 0x31, 0x88, 0xb1, 0x5c, 0x30, 0x9c, 0xab, 0x2e, 0xb0, 0xf8, 0x2c,
  0x0f, 0xae, 0x27, 0x31, 0x7e, 0x2f, 0x9e, 0x31, 0x60, 0x22, 0x46, 0xb2,
  0x39, 0x28, 0xb2, 0xa8, 0xbe, 0x2b, 0xa7, 0x28, 0x76, 0xb1, 0xdd, 0x2f,
  0xdb, 0xb0, 0xe1, 0xb2, 0x05, 0xaa, 0xfc, 0x31, 0xe9, 0xaf, 0x54, 0x9f,
  0x96, 0xaf, 0x63, 0x2f, 0x75, 0xab, 0xe5, 0xb1, 0xa9, 0x2d, 0x53, 0xb1,
  0x51, 0x31, 0x6a, 0x2e, 0xc0, 0x27, 0xcc, 0x2a, 0x97, 0xb0, 0x60, 0x31,
  0x24, 0x20, 0x4b, 0xb1, 0x58, 0x29, 0xd6, 0xb0, 0x54, 0xa8, 0x01, 0xb1,
  0x61, 0xb2, 0xe6, 0x2a, 0x3a, 0xb1, 0xf2, 0x2f, 0xe5, 0x30, 0x21, 0x2c,
  0x11, 0xa6, 0x50, 0xac, 0x88, 0xac, 0xc7, 0x0f, 0xac, 0x2f, 0x32, 0x30,
  0x2e, 0x2c, 0xd7, 0x32, 0xd4, 0xb1, 0x02, 0x9b, 0xde, 0x31, 0x3a, 0xa8,
  0xfb, 0xaa, 0xf0, 0x23, 0xd0, 0xab, 0x27, 0x32, 0x36, 0xb2, 0xd6, 0xaf,
  0x67, 0xac, 0x35, 0xa9, 0x21, 0xaf, 0xfd, 0x31, 0x56, 0x22, 0x06, 0x32,
  0xed, 0xaf, 0xf5, 0xac, 0x4e, 0xb1, 0x06, 0x2d, 0x10, 0x2d, 0x81, 0xb1,
  0x91, 0xb2, 0x41, 0x30, 0x8e, 0x28, 0x03, 0x2c, 0x01, 0xa4, 0x3f, 0xb1,
  0xb0, 0xab, 0x31, 0xae, 0x63, 0x9e, 0x10, 0x2d, 0x17, 0x2e, 0xba, 0xa1,
  0xa2, 0xb2, 0xc2, 0xa9, 0x83, 0x30, 0xfe, 0x2d, 0x1d, 0x2c, 0x4e, 0xb1,
  0xbf, 0xb2, 0x41, 0xae, 0x85, 0xac, 0xc8, 0xb0, 0x63, 0x24, 0x84, 0xaa,
  0xdc, 0xa2, 0x0b, 0x21, 0x44, 0xa1, 0x47, 0xac, 0xe8, 0xb2, 0x62, 0x2a,
  0xea, 0x20, 0xef, 0xad, 0x1f, 0xb2, 0x20, 0x1f, 0x62, 0xb1, 0xfd, 0xa5,
  0xb4, 0x2c, 0x49, 0x28, 0x28, 0x2f, 0x5e, 0x31, 0x48, 0xa7, 0x69, 0xaf,
  0x9c, 0xb2, 0x03, 0x28, 0xea, 0xac, 0x47, 0x32, 0xe1, 0xa8, 0x11, 0xa0,
  0x3e, 0x30, 0x7b, 0x2d, 0x12, 0xa6, 0xfa, 0x2d, 0x2c, 0xaf, 0xe1, 0xb0,
  0x66, 0x30, 0x92, 0xa6, 0xe6, 0xa4, 0xbe, 0xaa, 0xb6, 0xac, 0xa7, 0xac,
  0x05, 0x2b, 0x6f, 0x27, 0x36, 0xb1, 0x3d, 0x32, 0x71, 0xad, 0x5c, 0xb2,
  0x74, 0x29, 0x86, 0xab, 0x6b, 0xb1, 0xe9, 0xb0, 0x4a, 0xb1, 0xd5, 0xa5,
  0x5c, 0xb1, 0xb2, 0x2a, 0x8a, 0xb0, 0xd0, 0x31, 0xc6, 0x31, 0xc2, 0xa6,
  0x18, 0x31, 0xda, 0x30, 0x38, 0x31, 0x5e, 0xb1, 0x5b, 0x2f, 0x82, 0x9b,
  0x54, 0xb0, 0x89, 0x2b, 0xdf, 0x2f, 0xfe, 0x31, 0x52, 0xac, 0xc6, 0x31,
  0x00, 0xa5, 0x9c, 0x2a, 0x32, 0xac, 0x23, 0xaf, 0xcb, 0x2f, 0x38, 0x30,
  0xca, 0xb0, 0x14, 0xb0, 0x97, 0xaa, 0x98, 0xae, 0xd2, 0x2e, 0xd1, 0xa8,
  0xa5, 0xad, 0x03, 0x29, 0xa5, 0xb1, 0x65, 0x31, 0xf0, 0xb1, 0xd2, 0xb0,
  0xdb, 0xa7, 0x9a, 0xb2, 0x24, 0x2a, 0xbf, 0x93, 0xa7, 0x26, 0x5c, 0xaa,
  0x0f, 0x31, 0x55, 0x2c, 0xa3, 0x2c, 0xbd, 0xb2, 0x5b, 0x31, 0xec, 0xa8,
  0xef, 0xb0, 0x83, 0xae, 0xfb, 0x9d, 0xd9, 0x30, 0x43, 0xb0, 0xfa, 0xac,
  0xac, 0x31, 0xc6, 0xb1, 0x30, 0x2e, 0x22, 0x28, 0x94, 0xa3, 0x21, 0xb4,
  0xcd, 0x2d, 0xd3, 0x30, 0xf2, 0x30, 0x1c, 0x31, 0x74, 0x29, 0x4a, 0x2c,
  0x33, 0x30, 0xe4, 0xb0, 0xe7, 0x2c, 0xd5, 0x26, 0x42, 0x31, 0x8a, 0xaf,
  0x25, 0xb0, 0x46, 0x2c, 0x78, 0xae, 0x88, 0x32, 0x71, 0x2c, 0x8b, 0xa1,
  0x07, 0xb0, 0xf3, 0xad, 0x91, 0xac, 0x3a, 0x30, 0x03, 0xab, 0x64, 0x31,
  0xb4, 0xb1, 0x55, 0xb3, 0x64, 0x32, 0x61, 0x30, 0xd4, 0xb1, 0x43, 0xb0,
  0x29, 0x32, 0x28, 0xb0, 0xa0, 0x24, 0xba, 0x2a, 0x18, 0xa4, 0xab, 0xa5,
  0x91, 0x21, 0x3e, 0xa9, 0xca, 0x2f, 0x5a, 0xa6, 0x6d, 0x31, 0xb9, 0x31,
  0xd8, 0x26, 0x86, 0x2d, 0x83, 0x28, 0x8a, 0x24, 0x60, 0x30, 0x88, 0xaf,
  0x51, 0x32, 0x81, 0x9e, 0x85, 0xb1, 0xa3, 0x2f, 0x05, 0x2f, 0xdd, 0xac,
  0x92, 0xac, 0x7b, 0xb2, 0x57, 0x31, 0x04, 0xaf, 0x14, 0xb0, 0x0b, 0xad,
  0x92, 0xaf, 0x62, 0xaf, 0x2d, 0xb2, 0x47, 0xac, 0x2f, 0xaa, 0xab, 0xb1,
  0x01, 0x2a, 0xc3, 0xa7, 0x92, 0x27, 0xa7, 0xab, 0x5d, 0xaf, 0xd0, 0x1f,
  0x22, 0x31, 0x22, 0x32, 0x9a, 0xae, 0x6e, 0xae, 0x72, 0xb2, 0x9e, 0x2c,
  0x35, 0xb0, 0x4f, 0x2a, 0x95, 0xa5, 0x44, 0xa3, 0x2a, 0xac, 0x62, 0xb1,
  0x54, 0xb1, 0x70, 0x30, 0x09, 0xad, 0x30, 0xac, 0x2e, 0xb1, 0x35, 0x20,
  0xe8, 0xb0, 0xe9, 0x9f, 0x37, 0xb2, 0xef, 0x29, 0xe3, 0x30, 0x0f, 0xb2,
  0xee, 0x2f, 0x17, 0xab, 0x62, 0x30, 0x8f, 0xb1, 0xa4, 0x2e, 0x41, 0x30,
  0x25, 0x31, 0xee, 0x2c, 0xb2, 0xa1, 0x0d, 0xb0, 0xd1, 0x30, 0x65, 0x2c,
  0x0e, 0x30, 0x39, 0x2b, 0xa2, 0xb1, 0x99, 0x32, 0x09, 0x2b, 0x8f, 0x28,
  0x96, 0xb0, 0x58, 0x2c, 0x7d, 0xaa, 0x78, 0xab, 0x92, 0xa4, 0x66, 0x2d,
  0x4d, 0x2c, 0x72, 0x1c, 0x2e, 0x30, 0x3e, 0x32, 0xa4, 0xa8, 0xaa, 0x2e,
  0x47, 0x2e, 0x22, 0xae, 0x73, 0xb1, 0x6c, 0x1f, 0xe8, 0xae, 0x07, 0xb0,
  0xd4, 0xb0, 0xcc, 0xb1, 0x79, 0xb0, 0xcb, 0xac, 0xf0, 0xa0, 0x1c, 0x2f,
  0x89, 0x2c, 0xe6, 0x2d, 0x6b, 0xaa, 0x14, 0x27, 0xae, 0x32, 0x5e, 0x2d,
  0x35, 0x30, 0x16, 0xa9, 0x86, 0x31, 0xa1, 0xac, 0x00, 0x9f, 0x76, 0xae,
  0x38, 0xb2, 0x99, 0x30, 0x71, 0x30, 0x0b, 0x2d, 0x95, 0x29, 0xba, 0xb1,
  0x16, 0xb1, 0x94, 0x23, 0x13, 0x2e, 0x69, 0xa9, 0x5f, 0xb0, 0x86, 0x27,
  0xd2, 0x2d, 0x82, 0xa8, 0x64, 0x2f, 0xb8, 0xad, 0x59, 0xae, 0x93, 0x2c,
  0x64, 0xb1, 0x07, 0x29, 0xb7, 0x25, 0x84, 0x31, 0x7f, 0xae, 0xac, 0xaa,
  0x78, 0xae, 0x80, 0x28, 0x24, 0xb1, 0x41, 0xb1, 0x19, 0xa6, 0x73, 0x32,
  0x78, 0xa6, 0x56, 0xa4, 0xdf, 0xb1, 0x69, 0xb2, 0xff, 0xa2, 0x47, 0xab,
  0x5c, 0x2f, 0xdd, 0xaf, 0x3f, 0xa1, 0xc2, 0xa2, 0x59, 0xb0, 0x25, 0x9b,
  0xfc, 0xae, 0x7f, 0x29, 0x77, 0x2b, 0xdd, 0xb0, 0x58, 0xb0, 0x6a, 0xb1,
  0x86, 0x2d, 0xff, 0x30, 0x7f, 0xb0, 0x1b, 0xaf, 0x60, 0xb2, 0xd3, 0xb0,
  0x57, 0x2c, 0xb6, 0x2a, 0xa8, 0x32, 0x75, 0x2f, 0xcc, 0xaf, 0x44, 0x2a,
  0xdf, 0x31, 0x32, 0x1d, 0xdc, 0xa9, 0x76, 0x23, 0x3f, 0xa9, 0x60, 0x2f,
  0x71, 0xaf, 0x8c, 0xad, 0x39, 0xaa, 0x64, 0xa9, 0x4c, 0x2f, 0xc6, 0xae,
  0xd9, 0xb1, 0x79, 0x9f, 0x75, 0xa8, 0xdc, 0xa6, 0x6e, 0x30, 0x3a, 0xb1,
  0xcd, 0xad, 0xb0, 0xa6, 0x55, 0xab, 0x02, 0x31, 0x51, 0x31, 0x3c, 0xad,
  0x53, 0xa5, 0x7c, 0xa5, 0x95, 0xb1, 0x6b, 0x33, 0xd9, 0x31, 0x87, 0xac,
  0x76, 0x32, 0xf1, 0xad, 0x6c, 0xb2, 0xea, 0x30, 0x60, 0x2d, 0xe6, 0xaa,
  0xb0, 0xb0, 0x07, 0x30, 0x4f, 0xaf, 0xcf, 0xb1, 0x95, 0xac, 0x25, 0xaf,
  0x7d, 0xae, 0x2b, 0x17, 0x92, 0x30, 0x27, 0xb2, 0xe8, 0x27, 0x3b, 0x2d,
  0xf3, 0xa4, 0x48, 0x30, 0xd0, 0x2e, 0x75, 0xb1, 0xe4, 0xa8, 0x1d, 0x30,
  0xd4, 0x2f, 0x54, 0x2a, 0xe8, 0x30, 0x30, 0x2f, 0xcd, 0xa9, 0xe1, 0xb0,
  0xee, 0xb1, 0x39, 0xad, 0xa0, 0x2d, 0xbf, 0xa8, 0x30, 0x2e, 0x27, 0x2c,
  0x9b, 0xae, 0x9e, 0x31, 0xa1, 0xb0, 0x34, 0xb2, 0xe4, 0x2c, 0xa9, 0x2b,
  0x86, 0x32, 0x13, 0xb2, 0x77, 0x99, 0xf0, 0x30, 0x3e, 0x30, 0x48, 0xae,
  0x48, 0xaf, 0x45, 0xaa, 0x17, 0xaf, 0x13, 0x2e, 0x44, 0xb0, 0x2f, 0xb2,
  0xb7, 0x31, 0x87, 0xaf, 0x16, 0xa3, 0x6a, 0xb0, 0x53, 0xae, 0x2d, 0x28,
  0x18, 0xaa, 0x4f, 0xad, 0x5e, 0xb1, 0xaa, 0x2c, 0x0f, 0xb1, 0x25, 0xad,
  0x38, 0xb0, 0x1d, 0xac, 0x26, 0x32, 0x9e, 0xa9, 0x8b, 0x2c, 0xf1, 0xb0,
  0xd3, 0x2a, 0x7e, 0x1f, 0x2d, 0xb1, 0x45, 0xb2, 0x9a, 0x2d, 0x27, 0xb0,
  0x81, 0xac, 0xad, 0x2e, 0x18, 0x2e, 0xe8, 0x30, 0xad, 0xae, 0xfc, 0xad,
  0xae, 0x30, 0x0d, 0x32, 0x98, 0xb1, 0x8c, 0x30, 0x81, 0x29, 0x52, 0x25,
  0x9b, 0xa9, 0x57, 0xa8, 0x2e, 0xb0, 0x22, 0xae, 0xc3, 0xad, 0xa8, 0xb2,
  0x01, 0xb0, 0xe6, 0x32, 0xc9, 0xa8, 0x93, 0xa9, 0x85, 0x22, 0x8e, 0x30,
  0x33, 0x0c, 0xbf, 0xb0, 0x3c, 0xac, 0x4c, 0xb1, 0xe1, 0x2d, 0x5b, 0x2a,
  0x80, 0xac, 0xa1, 0xaf, 0xca, 0xaa, 0xc9, 0xa4, 0x9c, 0xb1, 0x8a, 0x2d,
  0x01, 0xb3, 0xd9, 0xad, 0x92, 0xb3, 0xc1, 0x30, 0xb7, 0xb2, 0x57, 0x2d,
  0x41, 0x2f, 0x57, 0xaf, 0xe2, 0x2a, 0xc3, 0xa9, 0x20, 0xae, 0x20, 0xac,
  0x2e, 0xa7, 0xaa, 0xb0, 0x92, 0xb1, 0x75, 0xb1, 0x22, 0x32, 0x6f, 0x29,
  0x8a, 0xae, 0x11, 0x2e, 0x95, 0xb0, 0x69, 0xb0, 0xa6, 0xb2, 0x30, 0x28,
  0x6d, 0x2b, 0xb0, 0x2d, 0x64, 0x31, 0x05, 0xac, 0x9a, 0xa3, 0x1a, 0x2d,
  0x9c, 0x30, 0x13, 0x31, 0x65, 0xa7, 0xd5, 0x2e, 0x12, 0x2c, 0x12, 0xb2,
  0x9e, 0x2c, 0x12, 0x2f, 0x2d, 0xab, 0xce, 0x2f, 0x49, 0x25, 0x9e, 0x31,
  0x49, 0xaa, 0x85, 0xad, 0xd0, 0xb1, 0xb7, 0xb1, 0x4f, 0x1d, 0x35, 0x31,
  0xdc, 0xa9, 0xcf, 0xa3, 0xa5, 0xac, 0xf3, 0x2e, 0x9e, 0xab, 0xae, 0x2f,
  0x08, 0x2d, 0xfe, 0xae, 0x51, 0xb1, 0xe0, 0x28, 0x66, 0x2c, 0x8d, 0xaf,
  0x8a, 0x30, 0x48, 0x2b, 0xe8, 0xaa, 0xaf, 0x2d, 0x81, 0xb2, 0x8a, 0x31,
  0xa7, 0x2e, 0x14, 0x30, 0x55, 0xae, 0xc1, 0xa5, 0xd5, 0x2e, 0xca, 0xad,
  0xb0, 0xb0, 0xdf, 0xb1, 0xdf, 0xaa, 0xe0, 0x24, 0xfc, 0xac, 0xb5, 0xb1,
  0x4c, 0x31, 0x65, 0x2a, 0x79, 0xae, 0x1e, 0xad, 0x23, 0xb2, 0x17, 0x2b,
  0xb9, 0xb2, 0x96, 0xa9, 0xce, 0xb0, 0x45, 0xb0, 0x7f, 0x9e, 0x04, 0x2d,
  0x00, 0x31, 0x3e, 0x30, 0x2a, 0x9c, 0x46, 0xa9, 0xd9, 0x2b, 0x0c, 0x25,
  0xd6, 0xb0, 0x1d, 0xb1, 0x33, 0x2b, 0x5b, 0xb0, 0x78, 0xb1, 0x37, 0x30,
  0xb6, 0x88, 0x87, 0xaf, 0x5d, 0xad, 0x46, 0x32, 0xce, 0xb1, 0x49, 0x31,
  0xa1, 0x29, 0x1b, 0xb2, 0x08, 0xb0, 0x29, 0x24, 0xa6, 0x2d, 0xbc, 0xab,
  0x2c, 0x2d, 0x13, 0x2d, 0x6c, 0x31, 0x57, 0xa8, 0x20, 0xad, 0x61, 0xb1,
  0xe7, 0xb2, 0xd5, 0xaf, 0x5c, 0xad, 0x47, 0x29, 0xbc, 0x30, 0x97, 0xa8,
  0xf6, 0xaa, 0x2d, 0xab, 0xd2, 0x31, 0xa0, 0x30, 0xfc, 0xb1, 0xa9, 0x2f,
  0x35, 0xab, 0x53, 0xb0, 0x92, 0x2d, 0x3a, 0x30, 0xe2, 0x31, 0xfb, 0xa5,
  0x2d, 0x2f, 0x3f, 0x27, 0xba, 0x30, 0x52, 0xb0, 0xad, 0xb2, 0xe7, 0x2a,
  0xb0, 0x24, 0xa8, 0x2c, 0xca, 0x2e, 0x97, 0xaa, 0x92, 0xb1, 0xcc, 0xac,
  0x17, 0xa4, 0x15, 0xb1, 0xdf, 0x29, 0xb4, 0x2f, 0xc5, 0xa9, 0x7d, 0x2c,
  0xe0, 0x2e, 0xab, 0x32, 0x98, 0xa5, 0xd2, 0xa8, 0xad, 0x24, 0x81, 0xac,
  0x40, 0x31, 0x54, 0x9c, 0x5b, 0xb1, 0x29, 0xaf, 0xcd, 0xac, 0xc5, 0x24,
  0x96, 0xa7, 0x37, 0x30, 0xd0, 0x30, 0xd5, 0xab, 0x73, 0x1b, 0x7c, 0x32,
  0x9c, 0xaa, 0x87, 0x2f, 0x23, 0xb0, 0x48, 0x16, 0x17, 0x30, 0x9a, 0xb1,
  0x1e, 0xb0, 0xf6, 0xa9, 0xfe, 0xb0, 0x7b, 0x32, 0xff, 0x23, 0x6c, 0x2d,
  0x89, 0xb2, 0x0f, 0xb0, 0x29, 0xac, 0x9a, 0xa3, 0x37, 0xb1, 0xa1, 0x2a,
  0xb6, 0x2d, 0x1f, 0xb2, 0x20, 0xb0, 0x0d, 0x27, 0xe9, 0x22, 0xaf, 0xb0,
  0x22, 0x30, 0xe0, 0xa5, 0x47, 0x2f, 0xd5, 0xb0, 0xdf, 0xaa, 0x10, 0xb0,
  0xb9, 0xa9, 0x09, 0x2e, 0x1e, 0x2d, 0x65, 0xb1, 0x6e, 0x2b, 0xbe, 0xb1,
  0x90, 0xad, 0x01, 0x30, 0x8d, 0x2f, 0xa9, 0x2f, 0x64, 0x25, 0xda, 0x1d,
  0x14, 0xb0, 0xde, 0xb1, 0x22, 0xad, 0x9a, 0xb0, 0xa6, 0x31, 0xa6, 0x2b,
  0xc8, 0x28, 0x87, 0x2c, 0xa7, 0x2f, 0xe6, 0xa6, 0x46, 0x2a, 0x10, 0xb2,
  0x9e, 0x31, 0x36, 0x32, 0xc7, 0x30, 0xe6, 0x2e, 0x34, 0x2f, 0xb6, 0x2a,
  0xe7, 0x2b, 0x2a, 0xa8, 0xea, 0x20, 0x13, 0xb1, 0x05, 0xaa, 0x8a, 0x29,
  0xbc, 0xb2, 0xba, 0xae, 0x7f, 0xa1, 0x68, 0x32, 0xea, 0x31, 0x6d, 0x31,
  0x5b, 0x2c, 0xbd, 0xb0, 0xf2, 0xb0, 0x70, 0x2a, 0x3f, 0x26, 0x4b, 0x2c,
  0xb2, 0xb2, 0x29, 0xb0, 0x6c, 0xb0, 0x3c, 0x31, 0xdb, 0xb2, 0x02, 0xaf,
  0x20, 0x30, 0x61, 0xa9, 0x84, 0xb0, 0x0b, 0xb1, 0xa1, 0x25, 0x10, 0x31,
  0x73, 0x2e, 0x0f, 0x2e, 0x80, 0xad, 0xc6, 0x29, 0x7b, 0xb0, 0x61, 0xb0,
  0x1e, 0xaf, 0x14, 0x30, 0xc1, 0xac, 0x81, 0xb1, 0x32, 0x2f, 0x25, 0xa4,
  0xd9, 0x24, 0xbc, 0x2c, 0xe4, 0xa3, 0x9b, 0x2d, 0x11, 0x30, 0x99, 0xac,
  0xda, 0x31, 0x20, 0x2c, 0x25, 0x13, 0x23, 0xb1, 0xd2, 0x30, 0xb2, 0x28,
  0x74, 0x2f, 0x6b, 0x24, 0x42, 0x2e, 0xf8, 0x30, 0x0b, 0x20, 0xd2, 0x23,
  0x1c, 0xb2, 0xc3, 0xaa, 0x32, 0xb0, 0x38, 0x31, 0x47, 0x28, 0x42, 0xb1,
  0x21, 0xa9, 0xb6, 0xac, 0xc3, 0x30, 0xf4, 0x2e, 0xb2, 0x2c, 0xe2, 0x30,
  0x5c, 0xaf, 0x19, 0x2d, 0x16, 0xae, 0xfa, 0xa8, 0x9e, 0xaa, 0x43, 0x2b,
  0xe2, 0x32, 0xf9, 0x31, 0xdb, 0xae, 0xe3, 0x30, 0xc6, 0xab, 0x5a, 0x9f,
  0xf2, 0xaf, 0x99, 0xb1, 0xce, 0xab, 0xf9, 0xa9, 0xca, 0xb1, 0x81, 0x2e,
  0x3d, 0xa1, 0x64, 0x2b, 0x1c, 0xb1, 0x92, 0x28, 0xb1, 0xa9, 0x94, 0xb0,
  0xce, 0x26, 0x56, 0xb1, 0xd1, 0xb1, 0x84, 0xaa, 0x74, 0x32, 0xe8, 0xa8,
  0x34, 0xab, 0x23, 0x2b, 0x08, 0x33, 0xf8, 0x32, 0x7b, 0xaa, 0x48, 0xa5,
  0x82, 0xb2, 0x53, 0xab, 0x69, 0x2f, 0x46, 0xb2, 0xcb, 0xb1, 0x74, 0x2e,
  0x79, 0xb2, 0x5a, 0xaf, 0x99, 0xb0, 0x6e, 0xb1, 0xe4, 0xac, 0x2e, 0x27,
  0x2a, 0xac, 0xf1, 0xac, 0x34, 0xac, 0xf7, 0xab, 0x50, 0x31, 0x70, 0x24,
  0x0d, 0xb3, 0xf0, 0xb2, 0x8b, 0x31, 0xdf, 0x24, 0x5f, 0xad, 0x34, 0x31,
  0x97, 0xaa, 0xbf, 0x16, 0xe1, 0xb1, 0xa1, 0xb2, 0xe6, 0xb2, 0x90, 0x2a,
  0xcf, 0x2e, 0x31, 0xae, 0x08, 0x2f, 0x31, 0x33, 0x78, 0x2c, 0x5c, 0xa2,
  0xae, 0xac, 0x75, 0x29, 0x49, 0x30, 0x6d, 0x30, 0x1c, 0xb3, 0xa2, 0x2e,
  0xc6, 0xaf, 0xd7, 0x30, 0x83, 0xaf, 0x0e, 0xb2, 0x1f, 0x2d, 0x62, 0xae,
  0xdf, 0x28, 0xe7, 0x9d, 0x32, 0x8d, 0x6c, 0xa9, 0x52, 0x22, 0x68, 0xaf,
  0xa6, 0x2e, 0x38, 0x2b, 0x7e, 0xb0, 0x71, 0xac, 0x4a, 0xa4, 0xe5, 0xa6,
  0x93, 0x30, 0xc2, 0xae, 0x81, 0x2f, 0x7b, 0xb1, 0x93, 0xa3, 0x1b, 0xb1,
  0x93, 0xaa, 0x5e, 0x2d, 0xd1, 0xa6, 0xc8, 0x31, 0x06, 0xa8, 0x03, 0x2e,
  0xf4, 0xa7, 0x6d, 0xb0, 0xb2, 0x29, 0x12, 0xac, 0xe3, 0x2d, 0x42, 0xab,
  0x65, 0xb1, 0x23, 0x31, 0x23, 0xb2, 0xee, 0x29, 0xcd, 0x31, 0xf3, 0xb0,
  0x61, 0xb1, 0x04, 0x31, 0xce, 0x22, 0xaf, 0x30, 0x17, 0x28, 0x4d, 0x9e,
  0xfc, 0x2a, 0xd5, 0xb2, 0xbe, 0x2c, 0x03, 0xae, 0x73, 0xb0, 0xbb, 0x29,
  0x4f, 0x98, 0x31, 0x31, 0xa0, 0xae, 0xdc, 0xb1, 0xcf, 0x20, 0xf1, 0x1d,
  0xa5, 0xaf, 0xfb, 0xac, 0xa1, 0x30, 0xa6, 0x31, 0x3e, 0xae, 0x6c, 0xab,
  0x8e, 0xab, 0xc3, 0xac, 0x0e, 0xa8, 0x84, 0x2a, 0xe2, 0xaf, 0xa4, 0x99,
  0xae, 0xb1, 0xb1, 0x2f, 0x2e, 0xa8, 0xa7, 0xb0, 0x84, 0x31, 0xb0, 0x2b,
  0x6d, 0x2d, 0x2e, 0x30, 0x10, 0x2c, 0x9d, 0xae, 0x47, 0xb2, 0x94, 0xad,
  0x89, 0xac, 0x76, 0xab, 0x57, 0x2f, 0x1a, 0xb3, 0x3b, 0x2f, 0x6b, 0x2e,
  0xa0, 0x23, 0x41, 0xac, 0x31, 0x2f, 0xd6, 0xb0, 0x25, 0xa0, 0x64, 0x29,
  0x8f, 0x29, 0x25, 0x21, 0x58, 0x2c, 0x2f, 0xb1, 0x9b, 0x2f, 0x4a, 0xb1,
  0xb5, 0x2c, 0x24, 0xa3, 0xbf, 0xad, 0xe3, 0x18, 0xc2, 0xaa, 0xf6, 0x31,
  0x12, 0x31, 0x7a, 0x2b, 0xc0, 0x9f, 0x0b, 0x32, 0xf0, 0xb1, 0x86, 0x31,
  0x0b, 0x2f, 0xb5, 0x30, 0xf0, 0x31, 0xda, 0x24, 0x03, 0x2b, 0x96, 0x2e,
  0x96, 0xb0, 0x58, 0x32, 0x1b, 0xa4, 0x97, 0x2c, 0x8b, 0xb0, 0xbb, 0x31,
  0x16, 0x29, 0x26, 0xb1, 0x96, 0x30, 0x37, 0x2c, 0xdd, 0x2d, 0xc0, 0xa5,
  0xda, 0x2a, 0xbf, 0xb0, 0xec, 0x30, 0x51, 0x30, 0xc8, 0xa5, 0x50, 0xb1,
  0x07, 0xb0, 0x87, 0xae, 0x76, 0x30, 0x77, 0xb0, 0x77, 0xad, 0xf3, 0xad,
  0xb1, 0xb0, 0x40, 0x2e, 0x7b, 0x2b, 0x36, 0xb2, 0x58, 0x31, 0xc0, 0x28,
  0xe9, 0xb0, 0x83, 0x8f, 0xef, 0x2a, 0xdd, 0x2a, 0xd9, 0xae, 0xbb, 0x32,
  0x9d, 0x31, 0x21, 0x32, 0x2d, 0x17, 0x0a, 0x20, 0x9c, 0xb0, 0x5e, 0x32,
  0x82, 0xa6, 0x27, 0xa9, 0x21, 0xac, 0xbe, 0xaf, 0x0b, 0xb1, 0xd2, 0x1d,
  0xca, 0xb0, 0x8c, 0xaf, 0x51, 0x2f, 0xa2, 0x2c, 0x2d, 0xb1, 0xc1, 0xa6,
  0xc2, 0xac, 0xda, 0x2c, 0xb0, 0xa2, 0x98, 0x2c, 0x6c, 0x2b, 0x51, 0x29,
  0xb8, 0x30, 0x41, 0x2c, 0xcf, 0xb2, 0x78, 0x31, 0x24, 0xb1, 0xdc, 0x2f,
  0xf1, 0xa9, 0x92, 0x2d, 0x95, 0xac, 0xd5, 0xa7, 0xc1, 0xa9, 0x46, 0x32,
  0xb7, 0xae, 0x4f, 0x30, 0x43, 0xb1, 0xc1, 0x2c, 0x1a, 0xb1, 0xb7, 0xae,
  0x6a, 0x2f, 0x8e, 0x30, 0xf7, 0xa8, 0xe5, 0xb0, 0xb4, 0xb0, 0xac, 0x2a,
  0x5a, 0x2f, 0x67, 0x2c, 0xd0, 0xb2, 0xe9, 0xad, 0x4f, 0x2c, 0x87, 0x30,
  0x61, 0x2f, 0x56, 0xa9, 0x53, 0xa6, 0x19, 0xad, 0xd5, 0xac, 0xd4, 0xa7,
  0xcf, 0x2c, 0x95, 0xa4, 0x4e, 0x2a, 0x60, 0xa4, 0x02, 0x2e, 0x7a, 0xad,
  0xae, 0xa5, 0x2e, 0xa6, 0x4a, 0xb0, 0xaf, 0x9e, 0x47, 0x2a, 0xa7, 0x28,
  0x77, 0x29, 0xb7, 0xae, 0x93, 0xb0, 0x0a, 0x2c, 0xcf, 0x27, 0xda, 0xad,
  0xa0, 0x32, 0xa7, 0x2c, 0x2e, 0x31, 0x78, 0xb1, 0xd0, 0x2b, 0x42, 0xb2,
  0xef, 0xaf, 0x37, 0x2b, 0x81, 0x2e, 0x4c, 0x2d, 0xd5, 0x2e, 0xc8, 0xaf,
  0x28, 0xad, 0x13, 0xa5, 0x5c, 0x27, 0xdd, 0x28, 0xe1, 0xae, 0x05, 0x31,
  0xc7, 0xb2, 0xcb, 0x2d, 0x17, 0xb2, 0xdb, 0xb1, 0x92, 0xa2, 0x6b, 0x31,
  0xea, 0x21, 0x37, 0x97, 0xac, 0x30, 0xc4, 0x2c, 0x7a, 0x31, 0xc2, 0x30,
  0xd2, 0xac, 0x40, 0x2c, 0xb9, 0xb0, 0x3d, 0x31, 0x0a, 0xad, 0x0c, 0x31,
  0x40, 0xb0, 0x5f, 0x2a, 0x20, 0x26, 0x78, 0x31, 0xc3, 0x30, 0x73, 0xb0,
  0x77, 0xaf, 0x40, 0xaf, 0xf8, 0xb0, 0xd0, 0x21, 0x09, 0xad, 0xbb, 0x2a,
  0xc0, 0x31, 0x4e, 0xb0, 0x71, 0xb1, 0xd2, 0x2c, 0xc2, 0xb0, 0x2c, 0xb2,
  0x52, 0xb0, 0xe2, 0x2c, 0xb8, 0xb2, 0x33, 0x20, 0xf0, 0x32, 0x34, 0x29,
  0x02, 0x2f, 0x84, 0x30, 0xee, 0xb0, 0x7f, 0x2d, 0x02, 0x2f, 0xcd, 0x2a,
  0x83, 0xb1, 0xc4, 0x31, 0x6f, 0xb0, 0x35, 0x31, 0x5a, 0xb1, 0x26, 0x26,
  0xad, 0x31, 0xb7, 0xa1, 0x51, 0xb2, 0xec, 0xad, 0xc0, 0x31, 0x47, 0x9e,
  0x48, 0x30, 0x62, 0x24, 0x8c, 0x30, 0x1e, 0xac, 0x8e, 0x30, 0xed, 0x22,
  0x48, 0x30, 0x40, 0x24, 0xad, 0x31, 0x88, 0x32, 0xc1, 0xb1, 0xd9, 0x2c,
  0x54, 0x2c, 0xca, 0x9d, 0xc0, 0x2c, 0x5d, 0x30, 0xcf, 0xab, 0xaf, 0x32,
  0xd6, 0x2e, 0x5b, 0x2d, 0x35, 0xb0, 0xfd, 0x31, 0xfc, 0x30, 0xd0, 0x1a,
  0xfd, 0xb0, 0x96, 0xa8, 0xbe, 0x30, 0x5a, 0xb0, 0x81, 0x2c, 0x04, 0xb0,
  0xed, 0xa7, 0xfe, 0x2c, 0xbb, 0x2d, 0xd7, 0xae, 0x32, 0xb0, 0x74, 0x26,
  0x28, 0xa0, 0x2c, 0xb1, 0xae, 0xad, 0x29, 0xb2, 0x27, 0x1e, 0x3c, 0x30,
  0x94, 0xa9, 0xe5, 0x22, 0x16, 0x2b, 0x89, 0xae, 0x76, 0x31, 0x33, 0x22,
  0x3f, 0x30, 0x04, 0xaf, 0x69, 0x28, 0x90, 0xb2, 0x99, 0xa6, 0xa6, 0x2c,
  0x79, 0xb1, 0x0f, 0xb1, 0x74, 0xb0, 0xff, 0xad, 0x4b, 0x30, 0xce, 0x2b,
  0x12, 0xae, 0x4c, 0x28, 0xb6, 0xb0, 0x8a, 0xb0, 0x38, 0xa8, 0xf3, 0xac,
  0x48, 0x24, 0xaf, 0x2a, 0xe8, 0xb1, 0xd5, 0xad, 0xc0, 0xac, 0x8d, 0xb0,
  0x6a, 0x2d, 0xfb, 0x1d, 0xad, 0xa9, 0xa0, 0xad, 0x5e, 0x32, 0x61, 0xb1,
  0x97, 0xae, 0x32, 0xb2, 0xc4, 0x2c, 0x72, 0xb0, 0xa5, 0x28, 0xe3, 0xae,
  0x4d, 0xb1, 0x85, 0xb1, 0x7e, 0xad, 0x62, 0x2a, 0x09, 0xb0, 0x3e, 0x9d,
  0x84, 0x9d, 0xb0, 0x28, 0x67, 0xae, 0xca, 0xb0, 0x15, 0x2e, 0x40, 0x2a,
  0x73, 0x1c, 0x35, 0x2f, 0xbe, 0x30, 0x73, 0x2d, 0x9e, 0x2c, 0x8d, 0xae,
  0x4e, 0x31, 0xd2, 0xa7, 0x3b, 0x31, 0x96, 0xad, 0x23, 0xb1, 0x83, 0xb0,
  0x52, 0xa2, 0xdb, 0x20, 0xe2, 0x25, 0x8c, 0x32, 0x51, 0xb1, 0xf0, 0x1d,
  0x17, 0x32, 0x1a, 0x9c, 0xac, 0xb1, 0xdf, 0x26, 0x04, 0xb2, 0xbf, 0xae,
  0xf2, 0xae, 0x40, 0x31, 0x63, 0x2e, 0x1e, 0xad, 0x0d, 0x2e, 0x49, 0xb1,
  0x29, 0xb0, 0x37, 0x22, 0xf4, 0xab, 0x8f, 0x2f, 0xa7, 0x2e, 0x05, 0x32,
  0x48, 0xac, 0x03, 0x31, 0x0b, 0xa7, 0x9f, 0xb0, 0x7c, 0xab, 0x10, 0x24,
  0x48, 0x2f, 0xf3, 0x30, 0xdc, 0xb0, 0x6d, 0x31, 0x8a, 0x2e, 0x8e, 0x9c,
  0x0e, 0xb2, 0x65, 0x27, 0x21, 0x29, 0x7d, 0xaf, 0x68, 0xae, 0x97, 0xb0,
  0x27, 0xa3, 0xff, 0x23, 0x8c, 0x32, 0xfe, 0x30, 0x5b, 0xa8, 0x25, 0x23,
  0xa7, 0x31, 0x21, 0x30, 0x9d, 0x1a, 0x1f, 0x30, 0xbb, 0xae, 0x33, 0x29,
  0xca, 0x29, 0x27, 0x31, 0xa9, 0xa8, 0x2e, 0xb2, 0xac, 0xa3, 0xaa, 0x18,
  0x87, 0x2a, 0x42, 0xb1, 0x8f, 0xb0, 0xf4, 0x2f, 0xa8, 0x30, 0x4a, 0x2c,
  0x8c, 0x24, 0xd4, 0x32, 0xcb, 0xb1, 0x52, 0x18, 0xed, 0x31, 0x67, 0x32,
  0x1c, 0xa9, 0xaa, 0x25, 0x8a, 0xb1, 0xaa, 0x9a, 0x52, 0x2d, 0x37, 0x2a,
  0x50, 0xac, 0x8f, 0xb2, 0x5b, 0x25, 0xbf, 0xb0, 0x22, 0x2c, 0xbc, 0xb1,
  0x2a, 0x30, 0x76, 0xb1, 0xe8, 0x27, 0xbc, 0x2b, 0x1e, 0x32, 0x54, 0x32,
  0x72, 0x24, 0x70, 0x30, 0x05, 0xa6, 0xd6, 0x2f, 0xa3, 0x31, 0xdd, 0xac,
  0x4a, 0x2e, 0x59, 0xaa, 0x53, 0x2f, 0x2f, 0x32, 0x51, 0xb2, 0xfb, 0xaf,
  0xf7, 0xb0, 0x84, 0xb0, 0x5a, 0x30, 0xa4, 0x2e, 0xd8, 0xaf, 0x29, 0x2d,
  0x72, 0x31, 0x0f, 0xb0, 0x99, 0x2f, 0xc3, 0xad, 0xe4, 0x29, 0x2b, 0xb2,
  0x89, 0xae, 0xd1, 0x28, 0x99, 0xb0, 0x90, 0xad, 0x33, 0x2e, 0x9a, 0xb0,
  0x90, 0x30, 0xd4, 0x2a, 0x7b, 0x2c, 0x2a, 0x2f, 0x9b, 0xac, 0x80, 0xb1,
  0x48, 0xb0, 0xe3, 0xb0, 0xaf, 0xae, 0xe8, 0x2b, 0x0e, 0xb1, 0x82, 0xb0,
  0xd1, 0x2c, 0x90, 0xa8, 0x7e, 0x2d, 0xad, 0x2a, 0x48, 0xa4, 0x49, 0xb1,
  0xc9, 0x2c, 0xa2, 0x2c, 0x92, 0xae, 0x56, 0x2c, 0xf6, 0x30, 0x93, 0x25,
  0xc6, 0x2a, 0xf2, 0xa1, 0x07, 0x2c, 0x43, 0xb0, 0x8e, 0x27, 0x1f, 0xb0,
  0x9e, 0xb0, 0xf0, 0x30, 0x0c, 0x32, 0x88, 0x32, 0xe9, 0xae, 0xc8, 0x30,
  0x42, 0xb2, 0xc4, 0xae, 0xd5, 0x20, 0x02, 0x31, 0x58, 0xb2, 0x20, 0x31,
  0x4a, 0x2d, 0xb9, 0x2d, 0x02, 0x24, 0x7b, 0x31, 0x46, 0x27, 0x47, 0x2a,
  0x0e, 0xaa, 0x44, 0xad, 0xc1, 0x30, 0x3b, 0xa9, 0x36, 0xac, 0x78, 0x2d,
  0x63, 0xb1, 0x1e, 0x30, 0x7f, 0x30, 0x35, 0x32, 0x58, 0x99, 0x2a, 0xae,
  0xd1, 0x30, 0x89, 0x2f, 0x9c, 0x31, 0x80, 0xb1, 0xe8, 0xaf, 0xe7, 0xb1,
  0x4d, 0xb0, 0x24, 0x31, 0x49, 0xb2, 0xa8, 0x2d, 0x3b, 0xa6, 0xc4, 0x31,
  0xaf, 0x32, 0xd9, 0x2b, 0x50, 0xad, 0x5e, 0x2d, 0x39, 0x2f, 0x61, 0xaa,
  0x74, 0xb2, 0x97, 0x22, 0xab, 0xab, 0x2d, 0xaf, 0xa1, 0x28, 0x0a, 0x31,
  0x1f, 0xb2, 0x8d, 0x2f, 0x01, 0xa4, 0xa6, 0xa1, 0x5a, 0x32, 0x78, 0x22,
  0x6d, 0xad, 0xdf, 0xa9, 0x98, 0xab, 0xaa, 0xb0, 0x42, 0xb0, 0xd2, 0x2d,
  0x14, 0xb1, 0xef, 0xab, 0xdb, 0x2f, 0xb8, 0xa6, 0x4c, 0xac, 0xf7, 0xaa,
  0xff, 0xa8, 0x7d, 0xb0, 0xc9, 0xb1, 0x89, 0xa8, 0x9b, 0x2a, 0x7c, 0x30,
  0xef, 0xa0, 0x4f, 0xb0, 0x61, 0x2d, 0x81, 0xb2, 0x04, 0x2c, 0x23, 0x30,
  0xdb, 0xab, 0x01, 0x2e, 0x44, 0xb1, 0x73, 0xad, 0xbb, 0x2e, 0x96, 0x32,
  0x14, 0x31, 0xa8, 0x2b, 0x66, 0xb1, 0x81, 0xa9, 0xac, 0xb0, 0x91, 0xb0,
  0x4a, 0xac, 0x8f, 0xaa, 0x1d, 0x31, 0x69, 0xb1, 0x62, 0x30, 0x87, 0x2d,
  0xe1, 0xb0, 0xde, 0xa1, 0x7c, 0xaf, 0xc7, 0x2a, 0x3c, 0x2c, 0xe9, 0xaf,
  0xa9, 0x30, 0xf4, 0xae, 0x51, 0xa9, 0xd4, 0x19, 0x0a, 0xb1, 0x61, 0xa7,
  0xe8, 0xb0, 0x44, 0x9e, 0x9c, 0x26, 0x3e, 0xb1, 0x99, 0x30, 0x48, 0x9e,
  0x1e, 0x33, 0xd2, 0x28, 0x35, 0xae, 0x18, 0xac, 0xcd, 0xa8, 0x33, 0xab,
  0x9c, 0x28, 0xec, 0xa9, 0xc3, 0xaf, 0x60, 0x2b, 0x04, 0x32, 0x2a, 0xa9,
  0x5d, 0x2a, 0xeb, 0xb0, 0x80, 0xaf, 0xe2, 0xb2, 0x79, 0xaf, 0xfd, 0x2d,
  0x49, 0x31, 0xc3, 0x32, 0x52, 0x29, 0x37, 0xae, 0x14, 0x9a, 0xa0, 0x2c,
  0x50, 0x2e, 0x23, 0xaa, 0xbf, 0xa8, 0x5c, 0xb1, 0x23, 0x2c, 0x23, 0x27,
  0x09, 0xb1, 0xd2, 0x25, 0x32, 0x29, 0x2b, 0xb0, 0x13, 0x32, 0x28, 0xb0,
  0x10, 0x30, 0xf4, 0xaa, 0x51, 0xb0, 0xfd, 0xaa, 0xfe, 0x9f, 0xf7, 0xa9,
  0x0b, 0x2e, 0x04, 0xb2, 0x0e, 0xb0, 0x83, 0xaa, 0x6c, 0xb1, 0x07, 0xaf,
  0xdd, 0xb1, 0x06, 0x2e, 0xe1, 0xad, 0x20, 0x2f, 0x3e, 0x31, 0x81, 0xb0,
  0x00, 0x00, 0x00, 0x00, 0x26, 0xdf, 0xff, 0xff, 0x04, 0x00, 0x00, 0x00,
  0xfc, 0x00, 0x00, 0x00, 0x14, 0xb0, 0x9d, 0x35, 0xa0, 0xa4, 0x4a, 0xac,
  0x02, 0xaf, 0xb8, 0xb2, 0xdf, 0x33, 0x63, 0xb1, 0xf5, 0x35, 0x7f, 0x34,
  0xbe, 0xb4, 0x23, 0x35, 0x31, 0x24, 0x1d, 0x34, 0x37, 0xb1, 0x32, 0x2d,
  0x3a, 0x27, 0x32, 0x29, 0x74, 0xaa, 0xf2, 0xa5, 0xb5, 0xb1, 0x49, 0x34,
  0xdf, 0x30, 0x74, 0xb2, 0xd8, 0xac, 0x8a, 0xb5, 0x36, 0xb0, 0xde, 0x28,
  0x49, 0x36, 0x7c, 0xb5, 0x18, 0xab, 0x77, 0xb3, 0x98, 0x34, 0x34, 0xb5,
  0x57, 0x2f, 0x09, 0x2c, 0xe1, 0x31, 0xdd, 0x2a, 0x1b, 0x27, 0x88, 0x35,
  0x40, 0xad, 0x33, 0x34, 0x3a, 0x33, 0x56, 0xac, 0x49, 0xac, 0xc9, 0x32,
  0x54, 0xb0, 0xfb, 0x2c, 0x45, 0xb4, 0x32, 0x34, 0x8d, 0xb4, 0xb0, 0x2e,
  0x20, 0xb5, 0x2b, 0x2e, 0xa7, 0xaa, 0xc0, 0xb1, 0x8d, 0xac, 0x18, 0x2c,
  0x38, 0xaa, 0x3d, 0x34, 0x5c, 0xb5, 0xeb, 0x33, 0xca, 0xb4, 0x38, 0xb1,
  0xee, 0xa5, 0x4a, 0xb3, 0x7d, 0x31, 0xcb, 0x35, 0x12, 0xb0, 0xb9, 0xac,
  0x28, 0x2a, 0x9a, 0x34, 0xc9, 0x35, 0x29, 0x2e, 0xf6, 0x2c, 0x8c, 0x35,
  0xe9, 0xb2, 0x13, 0x34, 0x08, 0xb2, 0x60, 0x30, 0x91, 0xb5, 0x33, 0xa6,
  0xdd, 0x35, 0x09, 0x36, 0x1a, 0xae, 0x79, 0xb2, 0xc3, 0xab, 0x5b, 0x33,
  0xf4, 0x2c, 0xb0, 0xb0, 0xd5, 0xb1, 0x6b, 0x33, 0x3d, 0xb4, 0x5a, 0xb1,
  0xaa, 0xac, 0x5c, 0x35, 0x65, 0x34, 0x53, 0x34, 0x7d, 0xb4, 0xbd, 0x2e,
  0xaa, 0xaa, 0x39, 0x31, 0x46, 0x33, 0x19, 0xb5, 0x43, 0xb5, 0x39, 0x2c,
  0x9a, 0xb5, 0xc1, 0x34, 0xdf, 0xb3, 0x5b, 0xb2, 0xd2, 0x25, 0x95, 0x33,
  0xd7, 0x35, 0xc0, 0x2e, 0xb9, 0x35, 0x05, 0x32, 0x70, 0x36, 0xe5, 0xab,
  0x13, 0xac, 0x63, 0xae, 0xfe, 0xa9, 0xd4, 0xb4, 0x38, 0x30, 0xaf, 0x34,
  0xca, 0x32, 0x12, 0xb3, 0x00, 0x00, 0x00, 0x00, 0x00, 0x00, 0x00, 0x00,
  0x36, 0xe0, 0xff, 0xff, 0x04, 0x00, 0x00, 0x00, 0x02, 0x00, 0x00, 0x00,
  0xeb, 0x20, 0x00, 0x00, 0x46, 0xe0, 0xff, 0xff, 0x04, 0x00, 0x00, 0x00,
  0x48, 0x00, 0x00, 0x00, 0x7a, 0xa0, 0x85, 0x9a, 0x40, 0x1f, 0x58, 0xa2,
  0xbc, 0x1f, 0x07, 0xa0, 0xf1, 0x1e, 0x92, 0x1d, 0x58, 0x99, 0xa6, 0x22,
  0x1c, 0x9f, 0x0d, 0x20, 0x33, 0x1d, 0xdf, 0xa0, 0xfd, 0x9f, 0x3b, 0x24,
  0x1b, 0x20, 0xeb, 0x15, 0xfd, 0x9e, 0xee, 0x15, 0xda, 0x9b, 0x4b, 0x20,
  0xf9, 0x9a, 0x8d, 0x21, 0x08, 0x1f, 0x41, 0x24, 0x70, 0x22, 0x46, 0x23,
  0x44, 0xa7, 0xad, 0x94, 0x03, 0x20, 0xd5, 0x25, 0x30, 0x20, 0x9b, 0x99,
  0x77, 0x9e, 0xf3, 0x9e, 0x00, 0x00, 0x00, 0x00, 0x00, 0x00, 0x00, 0x00,
  0x00, 0x00, 0x00, 0x00, 0xa6, 0xe0, 0xff, 0xff, 0x04, 0x00, 0x00, 0x00,
  0xd8, 0x00, 0x00, 0x00, 0x4a, 0x1c, 0x94, 0x1d, 0x4d, 0x97, 0x47, 0x1d,
  0x47, 0x1e, 0x69, 0xa0, 0x9e, 0x99, 0xf2, 0x21, 0xe6, 0x99, 0x1c, 0x20,
  0x6f, 0x1d, 0x83, 0x1f, 0x00, 0x23, 0x64, 0x1d, 0x5f, 0xa0, 0x2a, 0x9d,
  0xc1, 0x17, 0x01, 0x18, 0xf2, 0x1c, 0xf9, 0x17, 0xfe, 0x21, 0x9f, 0x96,
  0xf8, 0x1e, 0x84, 0x1e, 0xf6, 0xa0, 0x03, 0x9c, 0xe0, 0x20, 0x84, 0x1d,
  0xef, 0x98, 0x6f, 0x19, 0x20, 0x0d, 0xc0, 0x9e, 0x67, 0x1c, 0xf4, 0xa0,
  0x24, 0x16, 0xd3, 0x20, 0x15, 0x98, 0x9f, 0x90, 0xb3, 0x96, 0x31, 0x14,
  0x82, 0x16, 0x32, 0x98, 0x46, 0x0b, 0xb4, 0x00, 0xa9, 0x8f, 0x1d, 0x0c,
  0xe5, 0x16, 0x50, 0x13, 0xd6, 0x15, 0xf9, 0x08, 0xb8, 0x90, 0xb3, 0x93,
  0x24, 0x13, 0xab, 0x91, 0x8e, 0x95, 0xa3, 0x92, 0x98, 0x0c, 0xfc, 0x13,
  0x33, 0x16, 0x27, 0x8f, 0xc1, 0x90, 0x8f, 0x97, 0x4b, 0x11, 0x76, 0x14,
  0xa8, 0x93, 0x49, 0x08, 0x80, 0x8f, 0x88, 0x15, 0x91, 0x0b, 0x2d, 0x10,
  0x98, 0x10, 0xa2, 0x90, 0xaa, 0x20, 0xe3, 0x9e, 0x83, 0x20, 0xbd, 0x22,
  0xc0, 0xa5, 0xbe, 0x9d, 0x09, 0xa0, 0xd7, 0xa2, 0x01, 0xa0, 0x58, 0x20,
  0x6f, 0xa0, 0xcc, 0x9e, 0x98, 0x9f, 0xb3, 0x1f, 0x2a, 0xa5, 0xe5, 0xa6,
  0x04, 0xa2, 0x98, 0xa6, 0xe3, 0x98, 0xb4, 0x21, 0x02, 0x21, 0x44, 0x9e,
  0x3e, 0x9c, 0xee, 0x21, 0xee, 0x1e, 0xb1, 0x1d, 0x23, 0x1e, 0xdb, 0xa2,
  0x30, 0x24, 0x06, 0x21, 0x42, 0x23, 0x06, 0x26, 0x0b, 0x1d, 0x0a, 0x1f,
  0x13, 0xa2, 0x73, 0x9e, 0x00, 0x00, 0x00, 0x00, 0x00, 0x00, 0x00, 0x00,
  0x00, 0x00, 0x00, 0x00, 0x96, 0xe1, 0xff, 0xff, 0x04, 0x00, 0x00, 0x00,
  0x24, 0x00, 0x00, 0x00, 0x59, 0x35, 0x18, 0x1c, 0x64, 0x9c, 0x6f, 0xb5,
  0xfb, 0xb0, 0x43, 0x2f, 0xd2, 0x2a, 0xa8, 0xb3, 0xdd, 0x35, 0xe8, 0x30,
  0x70, 0x32, 0xe4, 0xb2, 0xe5, 0xb0, 0x15, 0x2f, 0xc9, 0xb5, 0x37, 0x32,
  0x9a, 0x26, 0x02, 0x34, 0xc6, 0xe1, 0xff, 0xff, 0x04, 0x00, 0x00, 0x00,
  0x0c, 0x00, 0x00, 0x00, 0x24, 0x00, 0x00, 0x00, 0x24, 0x00, 0x00, 0x00,
  0x24, 0x00, 0x00, 0x00, 0x00, 0x00, 0x00, 0x00, 0x00, 0x00, 0x00, 0x00,
  0xe6, 0xe1, 0xff, 0xff, 0x04, 0x00, 0x00, 0x00, 0x04, 0x00, 0x00, 0x00,
  0xff, 0xff, 0xff, 0xff, 0xf6, 0xe1, 0xff, 0xff, 0x04, 0x00, 0x00, 0x00,
  0x04, 0x00, 0x00, 0x00, 0x02, 0x00, 0x00, 0x00, 0x06, 0xe2, 0xff, 0xff,
  0x04, 0x00, 0x00, 0x00, 0x04, 0x00, 0x00, 0x00, 0x01, 0x00, 0x00, 0x00,
  0x16, 0xe2, 0xff, 0xff, 0x04, 0x00, 0x00, 0x00, 0xb0, 0x01, 0x00, 0x00,
  0x00, 0x00, 0x00, 0x3c, 0x00, 0x00, 0x00, 0x3c, 0x00, 0x00, 0x00, 0x3c,
  0x00, 0x00, 0x00, 0x3c, 0x00, 0x00, 0x00, 0x3c, 0x00, 0x00, 0x00, 0x3c,
  0x00, 0x00, 0x00, 0x3c, 0x00, 0x00, 0x00, 0x3c, 0x00, 0x00, 0x00, 0x3c,
  0xbb, 0x3a, 0x53, 0x38, 0xa1, 0x35, 0x7d, 0x3b, 0x1f, 0x30, 0xef, 0x3b,
  0xf0, 0x29, 0xfe, 0x3b, 0x45, 0x24, 0x00, 0x3c, 0x24, 0x1e, 0x00, 0x3c,
  0x6a, 0x18, 0x00, 0x3c, 0x58, 0x12, 0x00, 0x3c, 0x8f, 0x0c, 0x00, 0x3c,
  0x46, 0x3b, 0xa9, 0xb6, 0x45, 0x39, 0x05, 0x3a, 0x16, 0x34, 0xbc, 0x3b,
  0xef, 0x2d, 0xf7, 0x3b, 0x45, 0x28, 0xff, 0x3b, 0x23, 0x22, 0x00, 0x3c,
  0x6a, 0x1c, 0x00, 0x3c, 0x58, 0x16, 0x00, 0x3c, 0x8f, 0x10, 0x00, 0x3c,
  0x84, 0x30, 0xec, 0xbb, 0x0c, 0x3b, 0x91, 0x37, 0x0c, 0x36, 0x68, 0x3b,
  0x71, 0x30, 0xec, 0x3b, 0x67, 0x2a, 0xfd, 0x3b, 0x9b, 0x24, 0x00, 0x3c,
  0x9e, 0x1e, 0x00, 0x3c, 0xc2, 0x18, 0x00, 0x3c, 0xd7, 0x12, 0x00, 0x3c,
  0x0e, 0xba, 0x3b, 0xb9, 0xee, 0x3b, 0x41, 0x30, 0xe7, 0x37, 0xf5, 0x3a,
  0xe8, 0x31, 0xdd, 0x3b, 0x44, 0x2c, 0xfb, 0x3b, 0x23, 0x26, 0xff, 0x3b,
  0x6a, 0x20, 0x00, 0x3c, 0x58, 0x1a, 0x00, 0x3c, 0x8f, 0x14, 0x00, 0x3c,
  0xac, 0xbb, 0x8a, 0x34, 0xcc, 0x3b, 0x2d, 0xb3, 0xd1, 0x38, 0x64, 0x3a,
  0x5c, 0x33, 0xc9, 0x3b, 0x55, 0x2d, 0xf9, 0x3b, 0xac, 0x27, 0xff, 0x3b,
  0x84, 0x21, 0x00, 0x3c, 0xee, 0x1b, 0x00, 0x3c, 0xb3, 0x15, 0x00, 0x3c,
  0x78, 0xb4, 0xae, 0x3b, 0xab, 0x3a, 0x6c, 0xb8, 0x99, 0x39, 0xb7, 0x39,
  0x66, 0x34, 0xb1, 0x3b, 0x65, 0x2e, 0xf6, 0x3b, 0x9a, 0x28, 0xff, 0x3b,
  0x9e, 0x22, 0x00, 0x3c, 0xc2, 0x1c, 0x00, 0x3c, 0xd7, 0x16, 0x00, 0x3c,
  0x42, 0x39, 0x08, 0x3a, 0xb0, 0x38, 0x7c, 0xba, 0x49, 0x3a, 0xf2, 0x38,
  0x1c, 0x35, 0x95, 0x3b, 0x75, 0x2f, 0xf2, 0x3b, 0x5f, 0x29, 0xfe, 0x3b,
  0xb9, 0x23, 0x00, 0x3c, 0x8d, 0x1d, 0x00, 0x3c, 0xfa, 0x17, 0x00, 0x3c,
  0xea, 0x3b, 0xa8, 0xb0, 0x37, 0x34, 0xb8, 0xbb, 0xdf, 0x3a, 0x19, 0x38,
  0xce, 0x35, 0x74, 0x3b, 0x42, 0x30, 0xee, 0x3b, 0x23, 0x2a, 0xfe, 0x3b,
  0x69, 0x24, 0x00, 0x3c, 0x58, 0x1e, 0x00, 0x3c, 0x8f, 0x18, 0x00, 0x3c,
  0x98, 0x36, 0x4a, 0xbb, 0xef, 0xad, 0xf7, 0xbb, 0x58, 0x3b, 0x5b, 0x36,
  0x7e, 0x36, 0x50, 0x3b, 0xc9, 0x30, 0xe9, 0x3b, 0xe7, 0x2a, 0xfd, 0x3b,
  0xf7, 0x24, 0x00, 0x3c, 0x23, 0x1f, 0x00, 0x3c, 0x21, 0x19, 0x00, 0x3c,
  0x5a, 0xb8, 0xb6, 0xba, 0xfe, 0xb6, 0x32, 0xbb, 0xb1, 0x3b, 0x69, 0x34,
  0x2a, 0x37, 0x27, 0x3b, 0x50, 0x31, 0xe4, 0x3b, 0xab, 0x2b, 0xfc, 0x3b,
  0x84, 0x25, 0x00, 0x3c, 0xee, 0x1f, 0x00, 0x3c, 0xb3, 0x19, 0x00, 0x3c,
  0x00, 0xbc, 0x88, 0x1c, 0xce, 0xb9, 0x82, 0xb9, 0xe9, 0x3b, 0xc9, 0x30,
  0xd2, 0x37, 0xfb, 0x3a, 0xd7, 0x31, 0xde, 0x3b, 0x38, 0x2c, 0xfc, 0x3b,
  0x11, 0x26, 0xff, 0x3b, 0x5c, 0x20, 0x00, 0x3c, 0x45, 0x1a, 0x00, 0x3c,
  0x00, 0x00, 0x00, 0x00, 0xd6, 0xe3, 0xff, 0xff, 0x04, 0x00, 0x00, 0x00,
  0x02, 0x00, 0x00, 0x00, 0x11, 0x00, 0x00, 0x00, 0xe6, 0xe3, 0xff, 0xff,
  0x04, 0x00, 0x00, 0x00, 0x10, 0x00, 0x00, 0x00, 0x00, 0x00, 0x00, 0x00,
  0x01, 0x00, 0x00, 0x00, 0x03, 0x00, 0x00, 0x00, 0x02, 0x00, 0x00, 0x00,
  0x00, 0x00, 0x00, 0x00, 0x06, 0xe4, 0xff, 0xff, 0x04, 0x00, 0x00, 0x00,
  0x02, 0x00, 0x00, 0x00, 0x55, 0x31, 0x00, 0x00, 0x16, 0xe4, 0xff, 0xff,
  0x04, 0x00, 0x00, 0x00, 0x18, 0x00, 0x00, 0x00, 0x7c, 0x3c, 0x5d, 0x3c,
  0x2c, 0x3c, 0x0f, 0x3c, 0x13, 0x3c, 0x2d, 0x3c, 0x42, 0x3c, 0x3d, 0x3c,
  0x23, 0x3c, 0x14, 0x3c, 0x23, 0x3c, 0x4e, 0x3c, 0x00, 0x00, 0x00, 0x00,
  0x00, 0x00, 0x00, 0x00, 0x00, 0x00, 0x00, 0x00, 0x46, 0xe4, 0xff, 0xff,
  0x04, 0x00, 0x00, 0x00, 0x18, 0x00, 0x00, 0x00, 0xba, 0xb7, 0xef, 0xb7,
  0x4e, 0xb7, 0x88, 0xb6, 0x3e, 0xb6, 0x9b, 0xb6, 0x31, 0xb7, 0x4a, 0xb7,
  0xa1, 0xb6, 0xbd, 0xb5, 0x49, 0xb5, 0xa2, 0xb5, 0x00, 0x00, 0x00, 0x00,
  0x00, 0x00, 0x00, 0x00, 0x00, 0x00, 0x00, 0x00, 0x76, 0xe4, 0xff, 0xff,
  0x04, 0x00, 0x00, 0x00, 0x02, 0x00, 0x00, 0x00, 0x5d, 0x3e, 0x00, 0x00,
  0x00, 0x00, 0x00, 0x00, 0x00, 0x00, 0x00, 0x00, 0x9c, 0xa7, 0xff, 0xff,
  0x00, 0x00, 0x00, 0x00, 0x00, 0x00, 0x00, 0x00, 0x00, 0x00, 0x00, 0x00,
  0xac, 0xa7, 0xff, 0xff, 0x00, 0x00, 0x00, 0x00, 0x00, 0x00, 0x00, 0x00,
